{
  "version": "1.0",
  "truncation": null,
  "padding": null,
  "added_tokens": [
    {
      "id": 0,
      "content": "END",
      "single_word": false,
      "lstrip": false,
      "rstrip": false,
      "normalized": false,
      "special": true
    }
  ],
  "normalizer": null,
  "pre_tokenizer": {
    "type": "ByteLevel",
    "add_prefix_space": false,
    "trim_offsets": true,
    "use_regex": true
  },
  "post_processor": {
    "type": "ByteLevel",
    "add_prefix_space": true,
    "trim_offsets": false,
    "use_regex": true
  },
  "decoder": null,
  "model": {
    "type": "BPE",
    "dropout": null,
    "unk_token": null,
    "continuing_subword_prefix": null,
    "end_of_word_suffix": null,
    "fuse_unk": false,
    "vocab": {
      "END": 0,
      ",": 1,
      "A": 2,
      "B": 3,
      "C": 4,
      "D": 5,
      "E": 6,
      "F": 7,
      "G": 8,
      "R": 9,
      "S": 10,
      "U": 11,
      "j": 12,
      "u": 13,
      "v": 14,
      "w": 15,
      "x": 16,
      "y": 17,
      "z": 18,
      "Ġ": 19,
      "SU": 20,
      "ĠSU": 21,
      "ĠSUS": 22,
      "Ġw": 23,
      "Ġx": 24,
      "ĠxC": 25,
      "Ġv": 26,
      "ĠwG": 27,
      "ĠxE": 28,
      "ĠxD": 29,
      "ĠwA": 30,
      "wG": 31,
      "ĠwB": 32,
      "ĠwE": 33,
      "vA": 34,
      "vG": 35,
      "wC": 36,
      "ĠwC": 37,
      "wE": 38,
      "wA": 39,
      "ĠwD": 40,
      "ĠxG": 41,
      "wD": 42,
      "ĠwF": 43,
      "vF": 44,
      "xC": 45,
      "wF": 46,
      "Ġy": 47,
      "ĠxF": 48,
      "vE": 49,
      "ĠvA": 50,
      "ĠvG": 51,
      "wB": 52,
      "ĠxA": 53,
      "vB": 54,
      "vD": 55,
      "ĠvB": 56,
      "vC": 57,
      "ĠxCwG": 58,
      "ĠxExC": 59,
      "ĠvE": 60,
      "ĠyC": 61,
      "ĠxB": 62,
      "ĠvF": 63,
      "ĠxCwA": 64,
      "uA": 65,
      "ĠwBwG": 66,
      "wBwG": 67,
      "ĠxDwG": 68,
      "xD": 69,
      "xE": 70,
      "ĠR": 71,
      "ĠwGwD": 72,
      "ĠwAwE": 73,
      "ĠwAwF": 74,
      "ĠxDwA": 75,
      "ĠxEwBwG": 76,
      "ĠyD": 77,
      "ĠyE": 78,
      "ĠvC": 79,
      "ĠvD": 80,
      "wEwC": 81,
      "ĠwGj": 82,
      "uB": 83,
      "ĠwEwC": 84,
      "ĠxCvA": 85,
      "wCvF": 86,
      "ĠwAvF": 87,
      "xG": 88,
      "ĠwAvA": 89,
      "ĠxExCwG": 90,
      "ĠxCwC": 91,
      "ĠxDvG": 92,
      "ĠxEwC": 93,
      "ĠwGwE": 94,
      "wAwF": 95,
      "ĠxEwB": 96,
      "wEvA": 97,
      "ĠwBvG": 98,
      "uG": 99,
      "ĠxGxC": 100,
      "wDvG": 101,
      "ĠxFxC": 102,
      "ĠxCwF": 103,
      "vBvG": 104,
      "ĠxEwG": 105,
      "vBvE": 106,
      "xExC": 107,
      "ĠwGvG": 108,
      "ĠxCvG": 109,
      "ĠxEvA": 110,
      "ĠwGwC": 111,
      "ĠxDwAwF": 112,
      "ĠxExCwA": 113,
      "ĠxCvF": 114,
      "ĠxDwB": 115,
      "vAj": 116,
      "ĠxEwE": 117,
      "xF": 118,
      "ĠuA": 119,
      "ĠwCvG": 120,
      "ĠxEwA": 121,
      "ĠwAwC": 122,
      "ĠwAwEvA": 123,
      "ĠxDwD": 124,
      "xA": 125,
      "ĠxDj": 126,
      "ĠxDvA": 127,
      "ĠxCwE": 128,
      "ĠwFj": 129,
      "ĠwFwC": 130,
      "ĠxGxD": 131,
      "ĠwFwCvF": 132,
      "ĠwBwGwD": 133,
      "ĠxEvG": 134,
      "ĠwBvA": 135,
      "ĠwGwDvG": 136,
      "ĠxCj": 137,
      "ĠxDwF": 138,
      "ĠxGj": 139,
      "ĠyG": 140,
      "ĠxDwGwD": 141,
      "ĠxFj": 142,
      "ĠwAj": 143,
      "wGwC": 144,
      "vAvE": 145,
      "ĠwBwE": 146,
      "ĠyF": 147,
      "ĠxGwB": 148,
      "ĠxFxD": 149,
      "ĠxCwGwC": 150,
      "vFj": 151,
      "ĠwAwD": 152,
      "vGj": 153,
      "ĠwDvA": 154,
      "ĠxBxG": 155,
      "ĠxCwD": 156,
      "ĠwEvA": 157,
      "wAvA": 158,
      "ĠxCwAwF": 159,
      "uF": 160,
      "ĠxEvE": 161,
      "ĠwBwD": 162,
      "ĠwDvG": 163,
      "ĠxGwBwG": 164,
      "ĠxAxC": 165,
      "ĠwAvG": 166,
      "ĠwGvE": 167,
      "ĠwBvE": 168,
      "ĠxAvA": 169,
      "ĠxDwE": 170,
      "ĠwEvE": 171,
      "yC": 172,
      "ĠuB": 173,
      "ĠxEvF": 174,
      "ĠxCwGwE": 175,
      "ĠwBwGj": 176,
      "ĠxDvE": 177,
      "ĠxDwBwG": 178,
      "ĠxDwC": 179,
      "vGvC": 180,
      "ĠxGwG": 181,
      "ĠwFwD": 182,
      "wEvBvE": 183,
      "ĠxDvF": 184,
      "ĠxDvB": 185,
      "ĠxGvG": 186,
      "vDj": 187,
      "ĠxCvE": 188,
      "wFj": 189,
      "ĠxAwA": 190,
      "ĠwAwFwC": 191,
      "ĠxCwEwC": 192,
      "ĠvAj": 193,
      "ĠwCvA": 194,
      "ĠwFvF": 195,
      "ĠwAwEwC": 196,
      "ĠwDvD": 197,
      "ĠxGvE": 198,
      "ĠxAxExC": 199,
      "ĠxCwGwD": 200,
      "ĠwGvF": 201,
      "ĠxEwD": 202,
      "ĠwFvD": 203,
      "ĠxFwD": 204,
      "ĠwBwGwDvG": 205,
      "ĠxEwBwGj": 206,
      "ĠxEwAwF": 207,
      "ĠxCwAvF": 208,
      "ĠwGvB": 209,
      "ĠwAvD": 210,
      "ĠvAvE": 211,
      "ĠxAxD": 212,
      "ĠxBwG": 213,
      "ĠwBwC": 214,
      "ĠxAxE": 215,
      "ĠyCxA": 216,
      "ĠwGvA": 217,
      "ĠwGwEwC": 218,
      "ĠxDxC": 219,
      "ĠxCwAvA": 220,
      "ĠwCj": 221,
      "ĠxFwB": 222,
      "ĠvGj": 223,
      "ĠxDwGvG": 224,
      "ĠwGwDvBvG": 225,
      "ĠwBvB": 226,
      "ĠxGwD": 227,
      "ĠxFwC": 228,
      "ĠxFwF": 229,
      "ĠyExC": 230,
      "ĠwAvE": 231,
      "ĠwCvF": 232,
      "ĠxGwE": 233,
      "ĠwEvG": 234,
      "ĠxFwA": 235,
      "xFxC": 236,
      "ĠwDvAvD": 237,
      "ĠwAwG": 238,
      "vAvF": 239,
      "ĠxFvF": 240,
      "ĠxCwGvG": 241,
      "ĠxCwGwEwC": 242,
      "ĠxCwAwEvA": 243,
      "xB": 244,
      "ĠuG": 245,
      "ĠwGvD": 246,
      "ĠwCvGvC": 247,
      "ĠwGvC": 248,
      "wGj": 249,
      "ĠyA": 250,
      "xDwG": 251,
      "ĠxFxCwA": 252,
      "ĠxDwBvG": 253,
      "ĠxCvD": 254,
      "ĠxEwF": 255,
      "ĠwBwA": 256,
      "ĠwDj": 257,
      "ĠxGwC": 258,
      "ĠxFwAwF": 259,
      "vCuF": 260,
      "ĠwBwGvG": 261,
      "ĠwBwF": 262,
      "ĠwEvC": 263,
      "ĠvBvG": 264,
      "ĠyDwG": 265,
      "ĠxFxDwA": 266,
      "ĠwDwC": 267,
      "ĠxAwF": 268,
      "ĠyCxG": 269,
      "ĠxDwGwDvG": 270,
      "ĠwAwFwCvF": 271,
      "vAvEuA": 272,
      "jwD": 273,
      "ĠwEvBvE": 274,
      "wAwEvA": 275,
      "ĠxGvA": 276,
      "ĠxExCwC": 277,
      "ĠwFvA": 278,
      "ĠxFwG": 279,
      "ĠxBxGj": 280,
      "ĠxCvC": 281,
      "ĠwAuA": 282,
      "ĠwDvE": 283,
      "ĠxCwAwE": 284,
      "ĠxExCwGwC": 285,
      "ĠxCwFwC": 286,
      "wDvA": 287,
      "ĠyCwA": 288,
      "ĠyCxE": 289,
      "ĠxDwGwE": 290,
      "ĠxDwAwFvF": 291,
      "ĠwCvE": 292,
      "ĠwCuA": 293,
      "wAvF": 294,
      "ĠxAvF": 295,
      "ĠyCvA": 296,
      "ĠvFj": 297,
      "ĠxGxCwG": 298,
      "ĠxDwBwGvG": 299,
      "ĠyCxC": 300,
      "xEwC": 301,
      "ĠxBxE": 302,
      "ĠxDwGj": 303,
      "ĠwGwDvB": 304,
      "ĠwEwCvGvC": 305,
      "ĠwEvB": 306,
      "ĠwEvD": 307,
      "ĠxCwGvA": 308,
      "ĠwAwFvF": 309,
      "ĠxEvB": 310,
      "ĠwEuA": 311,
      "ĠwDvB": 312,
      "ĠxGvB": 313,
      "ĠxAwD": 314,
      "xDwB": 315,
      "ĠyDxB": 316,
      "ĠxExCwGwEwC": 317,
      "ĠxCwFwD": 318,
      "ĠwAvC": 319,
      "ĠwCvC": 320,
      "ĠxFvA": 321,
      "ĠxDwGwC": 322,
      "ĠwAwFvA": 323,
      "ĠxExCwGvA": 324,
      "ĠxAxExCvA": 325,
      "ĠwBvD": 326,
      "ĠwCvD": 327,
      "wDj": 328,
      "ĠvGvD": 329,
      "ĠyCxExC": 330,
      "ĠxBwE": 331,
      "ĠxEwBwGvG": 332,
      "ĠyEyC": 333,
      "ĠxExCwAvA": 334,
      "yE": 335,
      "ĠxCvB": 336,
      "ĠwAvB": 337,
      "ĠxFvG": 338,
      "ĠvAvF": 339,
      "ĠxAwAwF": 340,
      "ĠyDxG": 341,
      "ĠvCj": 342,
      "wCj": 343,
      "ĠxGwA": 344,
      "ĠxFwBwG": 345,
      "ĠvBvE": 346,
      "vCj": 347,
      "ĠxEwBvE": 348,
      "ĠxGxDwB": 349,
      "ĠxGxE": 350,
      "wDvBvG": 351,
      "wFvAj": 352,
      "ĠxAvG": 353,
      "ĠxCwGj": 354,
      "ĠxExCvA": 355,
      "ĠwBwGwE": 356,
      "ĠxDwGvE": 357,
      "ĠxEwBwGvE": 358,
      "ĠxDwGwDvBvG": 359,
      "ĠxGwBwGvG": 360,
      "ĠxEvD": 361,
      "ĠwDvF": 362,
      "vFvC": 363,
      "ĠyCwF": 364,
      "ĠvDj": 365,
      "ĠwEwCvG": 366,
      "ĠxGwBwGvE": 367,
      "vAvD": 368,
      "wCvG": 369,
      "wEvE": 370,
      "wAwD": 371,
      "ĠxAvE": 372,
      "ĠxCwGvE": 373,
      "ĠxExCvG": 374,
      "ĠxCwAwFvF": 375,
      "Ġz": 376,
      "ĠxCuA": 377,
      "ĠwGwF": 378,
      "ĠwGvAj": 379,
      "ĠxEvC": 380,
      "ĠwBuA": 381,
      "ĠwBwFj": 382,
      "ĠwEwD": 383,
      "ĠwDvC": 384,
      "ĠwDvBvG": 385,
      "vDuG": 386,
      "ĠxDwGvB": 387,
      "ĠwGwDvBvE": 388,
      "ĠxDwAvF": 389,
      "ĠwGwEvB": 390,
      "ĠwGwEvBvE": 391,
      "ĠwBvGj": 392,
      "vAjvDj": 393,
      "ĠxEwAwFvF": 394,
      "xFxCwF": 395,
      "ĠxCwEvA": 396,
      "ĠxDvD": 397,
      "vAvC": 398,
      "ĠwFvG": 399,
      "xCwG": 400,
      "xCvA": 401,
      "xCvGj": 402,
      "ĠvAvC": 403,
      "ĠxAxF": 404,
      "ĠxExCj": 405,
      "ĠxBwB": 406,
      "ĠwBwGwEvBvE": 407,
      "ĠwGwDvE": 408,
      "ĠwAwEvB": 409,
      "ĠxExCwGwE": 410,
      "ĠwGuG": 411,
      "xCwC": 412,
      "xCwGwC": 413,
      "ĠxFvD": 414,
      "ĠxCwGwDvG": 415,
      "ĠyCxF": 416,
      "ĠxBvG": 417,
      "ĠxCwAwD": 418,
      "uAj": 419,
      "xEvA": 420,
      "ĠwAwFwD": 421,
      "ĠwGjvE": 422,
      "ĠxCwFvF": 423,
      "ĠxExCwAvF": 424,
      "ĠxEvGj": 425,
      "ĠxDwGwDvE": 426,
      "ĠxEwBwGjvE": 427,
      "ĠvAvEuA": 428,
      "ĠxDxCwGwC": 429,
      "ĠxBxGjxE": 430,
      "ĠzC": 431,
      "wGvC": 432,
      "ĠwEvF": 433,
      "ĠwEuB": 434,
      "vAvCuF": 435,
      "vGvE": 436,
      "ĠxGvF": 437,
      "wDvD": 438,
      "wBwE": 439,
      "ĠxCwGvF": 440,
      "ĠxCwGwF": 441,
      "ĠxCwGjwD": 442,
      "ĠxBxD": 443,
      "ĠwBwGvE": 444,
      "ĠwAvFj": 445,
      "ĠxEwBwA": 446,
      "ĠxGxCwC": 447,
      "ĠxCwFwCvF": 448,
      "ĠxEwGj": 449,
      "ĠxDwAwFvA": 450,
      "ĠwFwCvAvF": 451,
      "ĠxDwGwDvB": 452,
      "ĠxGwBvG": 453,
      "ĠwBwGjvE": 454,
      "wFjvB": 455,
      "ĠwBwCj": 456,
      "ĠxFxDwAj": 457,
      "ĠxExCwGwEwCvE": 458,
      "ĠxCwGjwEvA": 459,
      "yD": 460,
      "ĠxDuB": 461,
      "wGvF": 462,
      "ĠwBwEwC": 463,
      "wAj": 464,
      "wAvG": 465,
      "ĠxGwF": 466,
      "wDvBvE": 467,
      "ĠwBwGvA": 468,
      "ĠxDwAwD": 469,
      "ĠxDwAwEvA": 470,
      "ĠyDxA": 471,
      "wAwFvA": 472,
      "ĠxFxCwD": 473,
      "ĠxEwGwE": 474,
      "ĠxDwAwFvD": 475,
      "ĠxDwFvF": 476,
      "ĠxCwGwEvC": 477,
      "ĠxCwEwCvAvEuA": 478,
      "ĠwAwEwCvA": 479,
      "ĠxAxDwB": 480,
      "ĠxFwAwFwC": 481,
      "ĠyCxExCvA": 482,
      "ĠxGxDwBvG": 483,
      "ĠwGwCvF": 484,
      "ĠxExD": 485,
      "vGvD": 486,
      "ĠwCuG": 487,
      "wAwE": 488,
      "ĠwDuB": 489,
      "ĠxGwAwF": 490,
      "wFvG": 491,
      "ĠyB": 492,
      "ĠxExCwFj": 493,
      "ĠyCwG": 494,
      "ĠxBvB": 495,
      "ĠxBxExC": 496,
      "ĠwAwEuA": 497,
      "ĠwAwEwCvF": 498,
      "ĠwAwFvD": 499,
      "ĠxDwAj": 500,
      "ĠxEwBwGwE": 501,
      "ĠyDj": 502,
      "ĠyDwD": 503,
      "ĠyDxD": 504,
      "ĠwGjwE": 505,
      "ĠwGjvB": 506,
      "ĠwEwCvC": 507,
      "uGj": 508,
      "ĠxFxCvF": 509,
      "ĠxDwAwFwC": 510,
      "ĠwAwCvA": 511,
      "ĠxGxDwG": 512,
      "ĠxBxGxE": 513,
      "ĠxAxCwF": 514,
      "yCxG": 515,
      "ĠwBwGjwD": 516,
      "ĠwCvAvF": 517,
      "ĠxAxDj": 518,
      "xDwBwFjvB": 519,
      "yF": 520,
      "ĠxCuB": 521,
      "ĠxExDwG": 522,
      "ĠxDvC": 523,
      "ĠxDvBvG": 524,
      "ĠxDvAj": 525,
      "ĠwDvAj": 526,
      "ĠvAuA": 527,
      "ĠvGvE": 528,
      "ĠxAj": 529,
      "ĠxAwBwG": 530,
      "ĠxCwGwEvA": 531,
      "ĠxExCwE": 532,
      "ĠxDwAwG": 533,
      "ĠxDwAvD": 534,
      "ĠxEwBwGwDvBvG": 535,
      "ĠyExE": 536,
      "ĠyExA": 537,
      "ĠwGwEvA": 538,
      "ĠxEwBvG": 539,
      "ĠxGxCwA": 540,
      "ĠxFxCwF": 541,
      "vBvGj": 542,
      "xExCwC": 543,
      "ĠxExCwAwEvA": 544,
      "ĠxDjwG": 545,
      "ĠxDjxCvGj": 546,
      "ĠxFjxDwBwFjvB": 547,
      "ĠwAjwFvAj": 548,
      "ĠwAwDvA": 549,
      "ĠxCwDj": 550,
      "ĠxAxExCwG": 551,
      "ĠyCxAxFxCwF": 552,
      "ĠwCjvA": 553,
      "ĠuGj": 554,
      "ĠwDjvAjvDj": 555,
      "ĠwDwCvG": 556,
      "wDvAvD": 557,
      "ĠxFwBwGvG": 558,
      "ĠxCwGjwDj": 559,
      "jwC": 560,
      "ĠwBvF": 561,
      "ĠwBwAvA": 562,
      "ĠwDuG": 563,
      "ĠwFuA": 564,
      "wFvF": 565,
      "wFwDvG": 566,
      "ĠxFvE": 567,
      "ĠvAvAvC": 568,
      "ĠxAwC": 569,
      "ĠxAwE": 570,
      "ĠxAxFxC": 571,
      "ĠyCj": 572,
      "ĠwBwGwC": 573,
      "wBwGvG": 574,
      "ĠxDwGvA": 575,
      "ĠxDwGwEvA": 576,
      "ĠxDwGvBvG": 577,
      "xDj": 578,
      "ĠwGwDwC": 579,
      "ĠwGwDuB": 580,
      "ĠwGwDvAvE": 581,
      "ĠwAwFvG": 582,
      "ĠxDwAvA": 583,
      "ĠxDwAwE": 584,
      "ĠxEwBwGwEvBvE": 585,
      "ĠyDxE": 586,
      "ĠwEwCvF": 587,
      "ĠxFxCwG": 588,
      "xFj": 589,
      "ĠwCvGvD": 590,
      "ĠxEwAvF": 591,
      "ĠwBwGwDvE": 592,
      "ĠxDwFj": 593,
      "ĠxFjwA": 594,
      "ĠxCwGwCvE": 595,
      "ĠxBxGwG": 596,
      "ĠwAwEwCuA": 597,
      "ĠxCwGwDvE": 598,
      "ĠxCwGwDvBvG": 599,
      "ĠyAyE": 600,
      "ĠxFwAwFvD": 601,
      "ĠxBxGjxD": 602,
      "ĠxCuG": 603,
      "ĠwGwG": 604,
      "ĠwGuB": 605,
      "ĠxDuA": 606,
      "ĠxDwEwC": 607,
      "wGvD": 608,
      "wGwDvBvG": 609,
      "ĠwBwAwF": 610,
      "ĠwBvFj": 611,
      "wEvC": 612,
      "ĠxGxExC": 613,
      "ĠwFvC": 614,
      "ĠwFuB": 615,
      "xCvF": 616,
      "ĠvAvD": 617,
      "ĠvBvF": 618,
      "ĠvBvD": 619,
      "ĠyCwC": 620,
      "ĠxCwAvG": 621,
      "xEwA": 622,
      "ĠwGwDvC": 623,
      "ĠwAwEvF": 624,
      "ĠwAwFj": 625,
      "ĠyEwG": 626,
      "ĠyEwA": 627,
      "ĠyExG": 628,
      "wAwFvF": 629,
      "ĠxEwBvA": 630,
      "ĠxGxCwAwF": 631,
      "ĠxGxCwAvF": 632,
      "ĠxFxCwC": 633,
      "ĠxEwGwC": 634,
      "xExCwAvA": 635,
      "ĠwGwCvA": 636,
      "vAjvF": 637,
      "xFxD": 638,
      "ĠwAwCvAvE": 639,
      "ĠxGxDwBwG": 640,
      "ĠwBwGwDvB": 641,
      "ĠxCjvA": 642,
      "ĠxFjxD": 643,
      "ĠwAjvAj": 644,
      "ĠwAwDwC": 645,
      "ĠxCwAwFvA": 646,
      "ĠwBwGjwEvBvE": 647,
      "ĠwAwFwCvD": 648,
      "ĠxEwAwFvD": 649,
      "ĠwGwEwCvGvC": 650,
      "ĠvGjvE": 651,
      "ĠwCvFvCuF": 652,
      "ĠxCwGwEwCvGvC": 653,
      "ĠwBwFwDvG": 654,
      "ĠxDwGwEvE": 655,
      "ĠxGxCwGvA": 656,
      "jvA": 657,
      "ĠxEwEvA": 658,
      "wGwD": 659,
      "ĠwBwEvA": 660,
      "wCvC": 661,
      "wEvB": 662,
      "ĠxGvFj": 663,
      "ĠxFvB": 664,
      "ĠxFvGj": 665,
      "ĠxCwGvC": 666,
      "ĠxExCwD": 667,
      "ĠxExCwAwFvA": 668,
      "ĠyCwE": 669,
      "ĠxBwA": 670,
      "ĠvFvC": 671,
      "ĠxCwAj": 672,
      "ĠxCwAwAvG": 673,
      "ĠxDwGwEvBvE": 674,
      "xDvF": 675,
      "ĠwGwDvA": 676,
      "ĠwAwFvE": 677,
      "ĠxEwBwGwC": 678,
      "ĠyDxC": 679,
      "ĠyEwE": 680,
      "wEwCvG": 681,
      "ĠwGjvA": 682,
      "ĠwGjvGj": 683,
      "ĠxCvAj": 684,
      "xGxC": 685,
      "ĠxExCwGvG": 686,
      "ĠxExCwGvC": 687,
      "ĠxExCwGwEvA": 688,
      "wDvGj": 689,
      "ĠxEwGvE": 690,
      "ĠwCvGvF": 691,
      "xAvA": 692,
      "ĠwFwCvD": 693,
      "ĠxGxDwAwEvA": 694,
      "ĠxCjwGj": 695,
      "ĠxDwFvC": 696,
      "ĠxGjwB": 697,
      "ĠwBwEvE": 698,
      "ĠxFxDwGwDvBvG": 699,
      "ĠwAwDvD": 700,
      "ĠxBxGxD": 701,
      "ĠxCwAwFwCvF": 702,
      "ĠwFwDvD": 703,
      "ĠxEwBwGjwE": 704,
      "ĠxEwAwFvA": 705,
      "ĠxAxDvD": 706,
      "ĠxDxCvA": 707,
      "ĠxFwAj": 708,
      "ĠyCxGxExC": 709,
      "ĠxCwFwCvD": 710,
      "ĠyDxBxG": 711,
      "ĠwAvBvFvC": 712,
      "ĠwDvBvGvD": 713,
      "ĠxExCjwAwEvA": 714,
      "ĠzCyF": 715,
      "ĠxBxDvG": 716,
      "ĠwBwAwFwC": 717,
      "ĠwAwDwCvAvCuF": 718,
      "ĠxCwAwAvGvF": 719,
      "jvB": 720,
      "ĠuF": 721,
      "ĠxEuA": 722,
      "ĠxEwFj": 723,
      "ĠwAuB": 724,
      "ĠwAwGwC": 725,
      "ĠwBvC": 726,
      "ĠwBwDvG": 727,
      "ĠwEuG": 728,
      "ĠwEvBvGj": 729,
      "ĠwCuB": 730,
      "wEvF": 731,
      "ĠwDuA": 732,
      "ĠwDvGj": 733,
      "xCwF": 734,
      "xCwGj": 735,
      "wFwCvF": 736,
      "ĠxFwE": 737,
      "ĠxFwGj": 738,
      "ĠvAvG": 739,
      "ĠxAwG": 740,
      "ĠxAvB": 741,
      "ĠxAwGj": 742,
      "ĠxAxFxCwF": 743,
      "ĠxExCvE": 744,
      "ĠyCxFxC": 745,
      "ĠxCwAvE": 746,
      "ĠxCwAvFj": 747,
      "wBwGwD": 748,
      "ĠxDwGwEwC": 749,
      "ĠxDwGjwD": 750,
      "ĠwAwEwD": 751,
      "ĠyEwGj": 752,
      "ĠwEwCuA": 753,
      "ĠxDvGj": 754,
      "ĠwGwEvC": 755,
      "ĠxEwBvB": 756,
      "ĠxEwBvD": 757,
      "ĠxEwBwFvG": 758,
      "ĠxGxCwGwC": 759,
      "ĠxGxCwAvA": 760,
      "vBvGvD": 761,
      "ĠxEwGvA": 762,
      "ĠxEwGvG": 763,
      "ĠxEwGvD": 764,
      "ĠxEwGvC": 765,
      "ĠxCvGj": 766,
      "ĠwGwCvG": 767,
      "ĠwGwCuF": 768,
      "ĠxExCwAwD": 769,
      "ĠxEwEuA": 770,
      "ĠxEwAj": 771,
      "ĠwAwCj": 772,
      "xAwA": 773,
      "ĠxDjwB": 774,
      "ĠxDjvGj": 775,
      "ĠxCwEuB": 776,
      "ĠxCjwA": 777,
      "ĠxGjvE": 778,
      "ĠxGjxDj": 779,
      "ĠyGxB": 780,
      "ĠyGyCxG": 781,
      "ĠwAjvG": 782,
      "ĠwAjwF": 783,
      "ĠyFwD": 784,
      "ĠxFxDwD": 785,
      "ĠwDvAvF": 786,
      "ĠxBxGwE": 787,
      "ĠxBxGxDwG": 788,
      "ĠwEvAvF": 789,
      "ĠxAxCj": 790,
      "ĠwBwGjwEvE": 791,
      "ĠwFwDvAvD": 792,
      "ĠwAwFwCvAvF": 793,
      "ĠwAwEwCj": 794,
      "ĠxAxEwAwEvA": 795,
      "ĠyCxAwA": 796,
      "ĠxFwAwD": 797,
      "ĠxFxCwAwD": 798,
      "ĠxFxCwAvF": 799,
      "ĠwBwFwD": 800,
      "ĠxFxDwAwD": 801,
      "ĠyCxGxDwG": 802,
      "ĠxGxCwGvE": 803,
      "ĠyDxBwG": 804,
      "ĠvGvDuG": 805,
      "yExA": 806,
      "ĠyDxGwG": 807,
      "xCwGwEwC": 808,
      "ĠxAxFj": 809,
      "ĠyCxFxD": 810,
      "ĠxBxGjxEwBwE": 811,
      "ĠxFxDwAjwFvAj": 812,
      "ĠwBwGjwDvE": 813,
      "ĠyAyEyC": 814,
      "ĠxCwCvF": 815,
      "ĠwGvDj": 816,
      "ĠxEuB": 817,
      "ĠxEwCvF": 818,
      "ĠwAwA": 819,
      "ĠwAwAvA": 820,
      "ĠwBuB": 821,
      "ĠwBvCj": 822,
      "wCvGvC": 823,
      "ĠwCvAvEuA": 824,
      "ĠwCvBvGvD": 825,
      "ĠxGwGwC": 826,
      "ĠxGxEwC": 827,
      "ĠwFvE": 828,
      "ĠwFvAj": 829,
      "ĠwFvCj": 830,
      "xCwE": 831,
      "xCwAwEvA": 832,
      "ĠxFvAj": 833,
      "ĠvAuB": 834,
      "ĠvAvCuF": 835,
      "ĠvGvC": 836,
      "ĠvBuG": 837,
      "ĠvBvGj": 838,
      "ĠvBvFvC": 839,
      "ĠxExCvF": 840,
      "ĠxExCwAwF": 841,
      "ĠvEuA": 842,
      "ĠxBxC": 843,
      "ĠxBxDwB": 844,
      "ĠwBwGvB": 845,
      "ĠxDwGvC": 846,
      "xDvD": 847,
      "xEvF": 848,
      "ĠwAwEwE": 849,
      "ĠwAwEvE": 850,
      "ĠwAwEvC": 851,
      "ĠwAwEwDvD": 852,
      "ĠxDwAvG": 853,
      "ĠxDwAwGwC": 854,
      "ĠxEwBwGwDvG": 855,
      "ĠyDwA": 856,
      "ĠyEvA": 857,
      "ĠyEwF": 858,
      "wEwCvA": 859,
      "ĠwGjwDvBvE": 860,
      "ĠwEwCvA": 861,
      "ĠwEwCvD": 862,
      "ĠxCwCvA": 863,
      "ĠxEwCvD": 864,
      "ĠwGwEuB": 865,
      "wAwFwCvF": 866,
      "ĠxFxCvA": 867,
      "ĠxFxCwAvA": 868,
      "ĠxFxCwGj": 869,
      "ĠxCwFj": 870,
      "ĠxEwGwGwC": 871,
      "ĠxEwGwCvG": 872,
      "xExCvA": 873,
      "ĠwGwCvE": 874,
      "ĠwGwCvGvC": 875,
      "ĠwGwCvGvE": 876,
      "ĠxDwAwFj": 877,
      "ĠxDwAwFvG": 878,
      "ĠxDwAwFvAj": 879,
      "ĠxDwAwFjwD": 880,
      "ĠxDwBvE": 881,
      "ĠxDwBvD": 882,
      "ĠxDwBwFvG": 883,
      "ĠxEwAvA": 884,
      "ĠxEwAvFj": 885,
      "ĠxEwAwGvF": 886,
      "xAxF": 887,
      "ĠxDjwE": 888,
      "ĠxDjwA": 889,
      "ĠxDjwAj": 890,
      "ĠxDjxCwGj": 891,
      "ĠwFjvA": 892,
      "ĠwFjvD": 893,
      "ĠwFwCvE": 894,
      "ĠwFwCvAvD": 895,
      "ĠxGxDvG": 896,
      "ĠwBwGwDuB": 897,
      "ĠwGwDvGvD": 898,
      "ĠxCjwCj": 899,
      "ĠxCjwAwE": 900,
      "ĠxDwFvG": 901,
      "ĠxGjwE": 902,
      "ĠyGyD": 903,
      "ĠyFj": 904,
      "ĠxFxDwAvA": 905,
      "ĠxCwDwC": 906,
      "ĠwEvAvC": 907,
      "ĠwBwDj": 908,
      "ĠwDvGvD": 909,
      "ĠxGwBwGwEvBvE": 910,
      "yCvA": 911,
      "ĠxDwBwGwD": 912,
      "ĠwAwFwCvC": 913,
      "ĠxCwEwCvF": 914,
      "ĠxCwEwCvGvE": 915,
      "ĠwCvAvC": 916,
      "ĠwAwEwCvE": 917,
      "ĠxAxExCwF": 918,
      "ĠwBwCvAvE": 919,
      "ĠxAxEvA": 920,
      "ĠyCxAxE": 921,
      "ĠyCxAxF": 922,
      "ĠwCjuA": 923,
      "ĠxFwBwE": 924,
      "ĠxFwBwD": 925,
      "ĠxFwBvE": 926,
      "ĠwCvFvC": 927,
      "ĠxGwEuA": 928,
      "ĠxFwAwGvD": 929,
      "ĠvBvGvD": 930,
      "ĠyCxEvA": 931,
      "ĠxDwGwEvC": 932,
      "ĠxBxEvA": 933,
      "ĠxDwGjvE": 934,
      "ĠyEyCxC": 935,
      "ĠyEyCxG": 936,
      "ĠxAwAwFwD": 937,
      "ĠyDxGxD": 938,
      "wCjvGvD": 939,
      "ĠwEwCvGvF": 940,
      "ĠyCxFxDwG": 941,
      "ĠzCyExA": 942,
      "ĠxEwBwAwEvBvE": 943,
      "ĠxExCwFjwD": 944,
      "ĠwAwCvAvAvCuF": 945,
      "ĠwBwGjwDvB": 946,
      "ĠxDwAwGvG": 947,
      "ĠwDwCvGuF": 948,
      "ĠyDxEwG": 949,
      "ĠyExGxExC": 950,
      "vAjvFuAj": 951,
      "ĠyCxGxExCwGwC": 952,
      "ĠzCyFyC": 953,
      "ĠxGjxDjxCvGj": 954,
      "jwFj": 955,
      "jvAjvDj": 956,
      "yG": 957,
      "ĠxCvDj": 958,
      "ĠxEvFj": 959,
      "ĠxExDwB": 960,
      "ĠxDvFj": 961,
      "ĠwAuG": 962,
      "ĠwAvDj": 963,
      "wGvG": 964,
      "ĠwBwBwGwD": 965,
      "ĠwEvAvE": 966,
      "ĠwEvGj": 967,
      "ĠwEvGvC": 968,
      "wCvD": 969,
      "wAvD": 970,
      "ĠwDwCvF": 971,
      "ĠwDwDvG": 972,
      "ĠwDvAvE": 973,
      "ĠwDvFj": 974,
      "ĠxGwCvF": 975,
      "wDvF": 976,
      "wDvC": 977,
      "wDvAjvFuAj": 978,
      "ĠwFwE": 979,
      "ĠwFvAvF": 980,
      "ĠwFuAj": 981,
      "ĠwFwDvGj": 982,
      "xCuA": 983,
      "xCwEwC": 984,
      "wFvD": 985,
      "ĠvAvDuG": 986,
      "ĠvGvF": 987,
      "wBwC": 988,
      "ĠxAwB": 989,
      "ĠvBuA": 990,
      "ĠvBvFj": 991,
      "ĠxExCvC": 992,
      "ĠyCwD": 993,
      "ĠyCxD": 994,
      "ĠxBvA": 995,
      "ĠxBwC": 996,
      "ĠxBwD": 997,
      "ĠxBvF": 998,
      "ĠxBwBwGvG": 999,
      "ĠxBxFj": 1000,
      "ĠxCwAwEwC": 1001,
      "ĠwBwGvC": 1002,
      "ĠwBwGuA": 1003,
      "ĠwBwGwEwC": 1004,
      "xDvA": 1005,
      "xDvE": 1006,
      "xDwAwF": 1007,
      "ĠwGwDvAvF": 1008,
      "ĠwGwDwCvG": 1009,
      "ĠwAwEvG": 1010,
      "ĠwAwEvFj": 1011,
      "ĠwAwFwDvA": 1012,
      "ĠwAwFwDvAvD": 1013,
      "ĠxDwAvB": 1014,
      "ĠxDwAjwD": 1015,
      "ĠyDvA": 1016,
      "ĠyDwB": 1017,
      "ĠyDxF": 1018,
      "ĠyDxDwG": 1019,
      "ĠyExB": 1020,
      "wEwCuA": 1021,
      "ĠwGjvF": 1022,
      "ĠwGjwDj": 1023,
      "ĠwEwCvAvE": 1024,
      "ĠwAvAvC": 1025,
      "ĠxExCwGvE": 1026,
      "ĠxCwCvAvC": 1027,
      "ĠxEwBwE": 1028,
      "ĠxEwBwD": 1029,
      "ĠxEwBvF": 1030,
      "ĠxEwBvFj": 1031,
      "ĠxEwBwAwEvA": 1032,
      "ĠxGxCwE": 1033,
      "ĠxGxCvF": 1034,
      "ĠxGxCwAwD": 1035,
      "ĠxFxCwAwF": 1036,
      "ĠxCwFvD": 1037,
      "ĠxCwFwDvG": 1038,
      "vBvGvDuG": 1039,
      "ĠxEwGwD": 1040,
      "ĠxEwGvB": 1041,
      "xExCwAvF": 1042,
      "xExCwAwFvA": 1043,
      "ĠwGwCvD": 1044,
      "ĠwGwCvC": 1045,
      "ĠwGwCjvA": 1046,
      "ĠxDwAwFvC": 1047,
      "ĠxExCwAwE": 1048,
      "ĠxDwBvC": 1049,
      "vAjvC": 1050,
      "ĠxEwEvC": 1051,
      "xFvD": 1052,
      "ĠwCvGuG": 1053,
      "ĠxEwAvD": 1054,
      "ĠwAwCvAvF": 1055,
      "ĠxDjvA": 1056,
      "ĠxDjvF": 1057,
      "ĠxDjwDj": 1058,
      "ĠxDvAvC": 1059,
      "ĠxCwEuA": 1060,
      "ĠwFjwC": 1061,
      "ĠwFjvE": 1062,
      "ĠwFjwEvB": 1063,
      "ĠwFwCvB": 1064,
      "ĠxGxDwD": 1065,
      "ĠxGxDwGj": 1066,
      "ĠxGxDwAwD": 1067,
      "ĠwBwGwDvA": 1068,
      "ĠwBwGwDvBvG": 1069,
      "ĠwBvAvC": 1070,
      "ĠxCjwG": 1071,
      "ĠxCjvFj": 1072,
      "ĠxDwFjwD": 1073,
      "ĠyGwB": 1074,
      "ĠyGxG": 1075,
      "ĠyGyC": 1076,
      "ĠxFjwD": 1077,
      "ĠwBwEvC": 1078,
      "ĠyFyC": 1079,
      "ĠxGwBwC": 1080,
      "ĠxGwBwE": 1081,
      "ĠxGwBvE": 1082,
      "ĠwAwDvE": 1083,
      "vGjuGj": 1084,
      "ĠwBwDvE": 1085,
      "ĠwDvGvE": 1086,
      "ĠxGwBwGwD": 1087,
      "ĠxGwBwGwDvG": 1088,
      "ĠxAxCvF": 1089,
      "ĠwBwGjvB": 1090,
      "ĠwBwGjvGj": 1091,
      "ĠxDwBwGwDvG": 1092,
      "ĠxDwCvAvC": 1093,
      "ĠxGwGvG": 1094,
      "ĠwAwFwCvA": 1095,
      "ĠwAwFwCvG": 1096,
      "ĠxCwEwCvC": 1097,
      "ĠxCwEwCuA": 1098,
      "ĠxCwEwCuB": 1099,
      "ĠwCvAvD": 1100,
      "ĠwAwEwCvG": 1101,
      "ĠxEwBwGjwEvBvE": 1102,
      "ĠxEwAwFj": 1103,
      "ĠxAxDwA": 1104,
      "ĠxAxEwA": 1105,
      "ĠyCxAxEwA": 1106,
      "ĠwGwEwCvG": 1107,
      "ĠxFwBvG": 1108,
      "ĠwBvBvFvC": 1109,
      "ĠxFwFvF": 1110,
      "ĠxFwAwC": 1111,
      "ĠwDvAvDvC": 1112,
      "ĠwAwGwE": 1113,
      "ĠwAwGwDvG": 1114,
      "ĠwGvCj": 1115,
      "ĠwBwAjwFj": 1116,
      "ĠyCxGwF": 1117,
      "ĠyCxGxE": 1118,
      "wDvAvG": 1119,
      "ĠxGxCwGwD": 1120,
      "ĠxDwGjwE": 1121,
      "ĠwEvBvC": 1122,
      "ĠyDxBxF": 1123,
      "ĠyCxExCwG": 1124,
      "ĠyEyCxE": 1125,
      "ĠyDxGxDwG": 1126,
      "ĠxGwAjwC": 1127,
      "ĠxFwBwGvE": 1128,
      "ĠxGxEwBwE": 1129,
      "ĠwBwFjwD": 1130,
      "ĠxCwGwFvF": 1131,
      "ĠxEwBwAvE": 1132,
      "ĠwBwCjuB": 1133,
      "ĠwBwEwCvG": 1134,
      "ĠxExDwA": 1135,
      "ĠxExDwAwD": 1136,
      "ĠxGwAwFvF": 1137,
      "ĠxDwAjwGwC": 1138,
      "ĠxDwAjwFwDvG": 1139,
      "ĠyDxDwBwG": 1140,
      "ĠxAjxFxD": 1141,
      "ĠyExAxF": 1142,
      "ĠxAxFxCwA": 1143,
      "ĠwBwGwCvA": 1144,
      "ĠwCvGvDuA": 1145,
      "ĠxDwFjvD": 1146,
      "ĠyAyEwA": 1147,
      "ĠwAwFjwCjvGvD": 1148,
      "ĠwGwCvAvAvEuA": 1149,
      "ĠwEvBvGjvE": 1150,
      "ĠxDwGjwDvB": 1151,
      "ĠxDjwBwD": 1152,
      "ĠwDvAvFvCuF": 1153,
      "ĠxAxCjwAvA": 1154,
      "ĠxBxDwBwDvAvG": 1155,
      "ĠwBwAjwFjwCj": 1156,
      "ĠxAjxFxDvAj": 1157,
      "DyG": 1158,
      "jvF": 1159,
      "jvE": 1160,
      "jwEwC": 1161,
      "yA": 1162,
      "Ġ,": 1163,
      "ĠxCwB": 1164,
      "ĠxCwBwG": 1165,
      "ĠxCwDvG": 1166,
      "ĠwGuA": 1167,
      "ĠwGvBvG": 1168,
      "ĠxEvBvGj": 1169,
      "ĠxDwDvG": 1170,
      "ĠwAwCvF": 1171,
      "ĠwAuF": 1172,
      "wGwEwC": 1173,
      "wGwDvG": 1174,
      "ĠwBvBvG": 1175,
      "ĠwEwE": 1176,
      "ĠwEwDvG": 1177,
      "ĠwEvAj": 1178,
      "ĠwEwDvA": 1179,
      "wCvA": 1180,
      "wCvGjuGj": 1181,
      "ĠwCvAvE": 1182,
      "ĠwCuF": 1183,
      "wAwEwC": 1184,
      "ĠxGvD": 1185,
      "ĠxGvC": 1186,
      "ĠxGvAj": 1187,
      "ĠwFvB": 1188,
      "ĠwFvBvG": 1189,
      "ĠwFuF": 1190,
      "ĠwFvDj": 1191,
      "vFvD": 1192,
      "vFuG": 1193,
      "vFuAj": 1194,
      "xCvC": 1195,
      "wFwC": 1196,
      "ĠxFwGwC": 1197,
      "ĠxFwAvA": 1198,
      "vEuB": 1199,
      "ĠvAvA": 1200,
      "ĠvAuF": 1201,
      "ĠvAvAvEuA": 1202,
      "ĠvGuA": 1203,
      "ĠvGuB": 1204,
      "ĠvGuG": 1205,
      "wBvA": 1206,
      "ĠxAvD": 1207,
      "ĠxAxG": 1208,
      "ĠxAvFj": 1209,
      "ĠxAxGxC": 1210,
      "vBvC": 1211,
      "vBuA": 1212,
      "vDuA": 1213,
      "ĠvBvAvE": 1214,
      "ĠxCwGwCvF": 1215,
      "ĠxExCwFvD": 1216,
      "ĠvEvC": 1217,
      "ĠyCvB": 1218,
      "ĠxBwF": 1219,
      "ĠxBvE": 1220,
      "ĠxBxF": 1221,
      "ĠxBwDj": 1222,
      "ĠvFvCuF": 1223,
      "ĠxCwAwC": 1224,
      "ĠxCwAvD": 1225,
      "ĠxCwAvC": 1226,
      "ĠxCwAwGvF": 1227,
      "wBwGvE": 1228,
      "ĠxDwGvF": 1229,
      "ĠxDwGvD": 1230,
      "xDvG": 1231,
      "xDwC": 1232,
      "xDwA": 1233,
      "xDvB": 1234,
      "xDwGwC": 1235,
      "xDwBwGvG": 1236,
      "xEwD": 1237,
      "xEwB": 1238,
      "xEvC": 1239,
      "xExD": 1240,
      "xExEvA": 1241,
      "ĠwGwDvD": 1242,
      "ĠwGwDjvB": 1243,
      "ĠwGwDjvAjvDj": 1244,
      "ĠwAwEvD": 1245,
      "ĠwAwEwDvG": 1246,
      "ĠwAwEvCj": 1247,
      "ĠwAwFvC": 1248,
      "ĠwAwFwDvG": 1249,
      "ĠxDwAvAjvC": 1250,
      "ĠxEwBwGvB": 1251,
      "ĠxEwBwGwDvBvE": 1252,
      "ĠyDwE": 1253,
      "ĠyDxFj": 1254,
      "ĠyEwD": 1255,
      "ĠyExD": 1256,
      "ĠyExExC": 1257,
      "ĠyExFxC": 1258,
      "ĠvCuF": 1259,
      "wEwCvC": 1260,
      "wEwCvGvC": 1261,
      "wEwCvGvE": 1262,
      "ĠwGjwD": 1263,
      "ĠwGjvC": 1264,
      "ĠwGjuB": 1265,
      "ĠwGjwEvBvE": 1266,
      "ĠwGjwEvE": 1267,
      "ĠwEwCj": 1268,
      "ĠwEwCuG": 1269,
      "ĠwEwCvFj": 1270,
      "ĠwEwCvGj": 1271,
      "ĠwEwCvAvF": 1272,
      "ĠwEwCvAvD": 1273,
      "xGj": 1274,
      "xGwC": 1275,
      "xGvF": 1276,
      "xGxCvA": 1277,
      "xGxCwC": 1278,
      "ĠwAvAvFvC": 1279,
      "ĠwAvAvFvD": 1280,
      "ĠxExCwGwD": 1281,
      "ĠxCwCvAvF": 1282,
      "ĠxEwCvA": 1283,
      "ĠwGwEvG": 1284,
      "ĠwGwEwD": 1285,
      "ĠwGwEvF": 1286,
      "wAwFvG": 1287,
      "wAwFvD": 1288,
      "wAwFjvB": 1289,
      "ĠxEwBwAvA": 1290,
      "ĠxGxCvA": 1291,
      "ĠxGxCwD": 1292,
      "ĠxGxCwF": 1293,
      "ĠxGxCjvA": 1294,
      "ĠxFxCj": 1295,
      "ĠxFxCvD": 1296,
      "ĠxFxCwGwC": 1297,
      "ĠxCwFjwD": 1298,
      "ĠxCwFwDvA": 1299,
      "ĠxEwGwEwC": 1300,
      "xExCwGvC": 1301,
      "ĠwGvGvE": 1302,
      "ĠwGvGvC": 1303,
      "ĠwGwCj": 1304,
      "ĠxDwAwFvE": 1305,
      "ĠxDwAwFwDvA": 1306,
      "ĠxExCwAuA": 1307,
      "ĠxExCwAjwEwC": 1308,
      "ĠxCvFj": 1309,
      "ĠxDwBvA": 1310,
      "ĠxDwBwC": 1311,
      "ĠxDwBwE": 1312,
      "ĠxDwBwFj": 1313,
      "vAjvGj": 1314,
      "xFvF": 1315,
      "ĠuAj": 1316,
      "ĠxEwAwG": 1317,
      "ĠxEwAwE": 1318,
      "ĠxEwAwGwC": 1319,
      "ĠxEwAjwC": 1320,
      "ĠxEwAwGvD": 1321,
      "ĠxEwAwEvF": 1322,
      "ĠwAwEvAvE": 1323,
      "xAwD": 1324,
      "xAvF": 1325,
      "xAxFxC": 1326,
      "ĠxDjvE": 1327,
      "ĠxDjwAwF": 1328,
      "ĠxDjvFj": 1329,
      "ĠxCwEvE": 1330,
      "ĠxCwEvFj": 1331,
      "ĠwFjvB": 1332,
      "ĠwFjvGj": 1333,
      "ĠwFjwDvA": 1334,
      "ĠwFjwDvAvD": 1335,
      "ĠwFwCvA": 1336,
      "ĠwFwCvC": 1337,
      "ĠxGxDwE": 1338,
      "ĠxGxDvB": 1339,
      "ĠwBwGwDvF": 1340,
      "ĠwBwGwDuG": 1341,
      "ĠwBwGwDvBvE": 1342,
      "ĠxCjvG": 1343,
      "ĠxCjwE": 1344,
      "ĠxCjwAvA": 1345,
      "ĠxCjwAwEvA": 1346,
      "ĠxCjwAj": 1347,
      "ĠxCjwAwFvD": 1348,
      "ĠxDwFuB": 1349,
      "ĠxDwFuG": 1350,
      "ĠxDwFvGj": 1351,
      "ĠxGjwD": 1352,
      "ĠxGjvF": 1353,
      "ĠxGjxD": 1354,
      "ĠyGj": 1355,
      "ĠyGwE": 1356,
      "ĠyGxC": 1357,
      "ĠyGxD": 1358,
      "ĠxFjwE": 1359,
      "ĠxFjvB": 1360,
      "ĠxFjwAvA": 1361,
      "ĠxFjxCwF": 1362,
      "ĠwAjvDj": 1363,
      "ĠwAjwGj": 1364,
      "ĠwAjwFvF": 1365,
      "vAvEvCj": 1366,
      "ĠwBwEvF": 1367,
      "ĠwBwEuA": 1368,
      "ĠwBwEvGj": 1369,
      "ĠyFxD": 1370,
      "ĠyFxF": 1371,
      "ĠyFyD": 1372,
      "ĠxGwBwA": 1373,
      "ĠxGwBwD": 1374,
      "ĠxGwBvB": 1375,
      "ĠxFxDvA": 1376,
      "ĠxFxDvAj": 1377,
      "ĠwAwDvBvG": 1378,
      "ĠwAwDvBvE": 1379,
      "ĠxBxGxDwB": 1380,
      "ĠxCwDvAjvF": 1381,
      "ĠwEvAvA": 1382,
      "ĠwEvAvD": 1383,
      "ĠwEvAvFj": 1384,
      "ĠxCwAwFvG": 1385,
      "ĠwBwDvA": 1386,
      "ĠwBwDwC": 1387,
      "ĠwBwDvBvGvDuG": 1388,
      "ĠwDvGvC": 1389,
      "ĠxGwBwGwE": 1390,
      "ĠxGwBwGwDvBvG": 1391,
      "ĠxAxCvA": 1392,
      "ĠxAxCwD": 1393,
      "ĠxAxCvD": 1394,
      "ĠxDwEvG": 1395,
      "ĠxDwEvE": 1396,
      "ĠxCwGwEvG": 1397,
      "ĠxCwGwEvE": 1398,
      "ĠxCwGwEwDvG": 1399,
      "ĠxCwGwEvBvE": 1400,
      "ĠwBwGjwF": 1401,
      "ĠwBwGjuB": 1402,
      "ĠxGwGvF": 1403,
      "ĠxGwGwDvBvE": 1404,
      "ĠwFwDvA": 1405,
      "ĠwFwDvC": 1406,
      "ĠwFwDuA": 1407,
      "ĠwFwDvAj": 1408,
      "ĠxDvBvC": 1409,
      "ĠwAwFwCuAj": 1410,
      "ĠwCvAuA": 1411,
      "ĠwAwEwCuB": 1412,
      "ĠwAwEwCvAvF": 1413,
      "ĠxAxExCwC": 1414,
      "ĠxEwAwFvB": 1415,
      "ĠxEwAwFvC": 1416,
      "ĠxAxDvG": 1417,
      "ĠxAxDwE": 1418,
      "ĠxAxDwF": 1419,
      "ĠxAxDwAwD": 1420,
      "ĠxAxEwG": 1421,
      "ĠxAxEvD": 1422,
      "ĠxAxEwAvF": 1423,
      "ĠyCxAxFxC": 1424,
      "ĠwGwEwCvC": 1425,
      "ĠxDxCvG": 1426,
      "ĠxDxCvE": 1427,
      "ĠxDxCwAvA": 1428,
      "ĠwCjvD": 1429,
      "ĠwCjvAvEvCj": 1430,
      "ĠxFwFvA": 1431,
      "ĠxFwAvF": 1432,
      "ĠxFwAvE": 1433,
      "ĠxFwAvD": 1434,
      "ĠwAwGvA": 1435,
      "ĠwAwGwCvF": 1436,
      "ĠwAwGwEvBvE": 1437,
      "ĠwAwGwDvF": 1438,
      "ĠxCwGwEwCvA": 1439,
      "ĠyAyD": 1440,
      "ĠyAyF": 1441,
      "ĠxFxCwAvC": 1442,
      "ĠwBwAvF": 1443,
      "ĠwBwAvB": 1444,
      "ĠwBwAuA": 1445,
      "ĠwBwAwEvA": 1446,
      "ĠwBwAwEvBvE": 1447,
      "ĠwDjvC": 1448,
      "ĠwDjuGj": 1449,
      "ĠwDjwCvGjuGj": 1450,
      "ĠxFwAwFvA": 1451,
      "ĠxFwAwFvF": 1452,
      "ĠwBwFvG": 1453,
      "ĠwBwFwCvF": 1454,
      "ĠwDwCuA": 1455,
      "ĠyCxGvA": 1456,
      "ĠyCxGxEwA": 1457,
      "ĠwFvAvD": 1458,
      "ĠxFwGvG": 1459,
      "ĠxFwGvC": 1460,
      "ĠxCwAwEwEvA": 1461,
      "ĠxCwFwCvG": 1462,
      "ĠxCwFwCvC": 1463,
      "ĠyCxEwA": 1464,
      "ĠxDwGwEvD": 1465,
      "ĠxGxCwGvG": 1466,
      "ĠxGxCwGwDj": 1467,
      "ĠyCxCvA": 1468,
      "ĠxBxEwG": 1469,
      "ĠxBxEvE": 1470,
      "ĠxDwGjwF": 1471,
      "ĠxDwGjwFvF": 1472,
      "ĠxDwGjwDvGj": 1473,
      "ĠwGwDvBuA": 1474,
      "ĠwEuAj": 1475,
      "ĠwDvBvF": 1476,
      "ĠyDxBxC": 1477,
      "ĠxCwFwDuG": 1478,
      "wDjvAjvDj": 1479,
      "ĠwAvBuA": 1480,
      "ĠxGwAj": 1481,
      "ĠxGwAwG": 1482,
      "ĠxFwBwGjvE": 1483,
      "ĠvBvEuA": 1484,
      "ĠxGxDwBwFwDvG": 1485,
      "ĠxCwGjvDj": 1486,
      "ĠwBwGwEuG": 1487,
      "ĠwEwCvGuB": 1488,
      "ĠzDyG": 1489,
      "ĠwGvAjvD": 1490,
      "ĠwBwFjvG": 1491,
      "ĠwBwFjwCj": 1492,
      "ĠwEwDuA": 1493,
      "ĠwGwEvBvFvC": 1494,
      "xCwGvA": 1495,
      "xCwGwGvF": 1496,
      "xCwGwFwCvF": 1497,
      "ĠxAxFwF": 1498,
      "ĠxExCjvA": 1499,
      "ĠxExCjwAvA": 1500,
      "ĠwAwFwDuG": 1501,
      "ĠxCwGwFwCvF": 1502,
      "ĠxCwGjwDvBvE": 1503,
      "ĠxEwGjvB": 1504,
      "ĠxEwGjwEvE": 1505,
      "ĠwBwCjvE": 1506,
      "ĠxFxDwAjvAj": 1507,
      "ĠwBwEwCvAvEuA": 1508,
      "ĠyDxAxF": 1509,
      "ĠxEwGwEvG": 1510,
      "ĠxAxDwBvG": 1511,
      "wAwEvF": 1512,
      "wAwEuA": 1513,
      "ĠyDjxC": 1514,
      "ĠwGjwEvGj": 1515,
      "ĠwAwCvAvA": 1516,
      "ĠwAwCvAvAvEuA": 1517,
      "ĠxGxDwGwE": 1518,
      "ĠxBxGxEvE": 1519,
      "ĠxBxGxEwB": 1520,
      "yCxGxEwC": 1521,
      "ĠxAxDjvF": 1522,
      "ĠxAxDjxCwC": 1523,
      "ĠxAxDjwBwC": 1524,
      "ĠwDvAjuG": 1525,
      "ĠwDvAjvFuAj": 1526,
      "ĠvGvEuB": 1527,
      "ĠxAwBwGvE": 1528,
      "ĠyExAwF": 1529,
      "ĠwGwEvAuB": 1530,
      "ĠxDjwGvB": 1531,
      "ĠxCwDjuG": 1532,
      "ĠwDwCvGvDuG": 1533,
      "xDjwB": 1534,
      "ĠwGwDwCuG": 1535,
      "ĠwGwDwCvAvEuA": 1536,
      "ĠxBxGjxDvB": 1537,
      "ĠxDwEwCuA": 1538,
      "ĠxGxExCwG": 1539,
      "ĠxGxExCvG": 1540,
      "ĠvBvFvCuF": 1541,
      "ĠwBwGwDvBuA": 1542,
      "ĠxFjxDwA": 1543,
      "ĠxFjxDwAwFjvB": 1544,
      "ĠwBwFwDvGvDuG": 1545,
      "wGwDvC": 1546,
      "ĠxCwAjvAj": 1547,
      "ĠxCwAjwFvAj": 1548,
      "wEwCvGvF": 1549,
      "ĠxGjwBvE": 1550,
      "ĠxBxGxDwBwG": 1551,
      "ĠxEwAwFvAuB": 1552,
      "ĠxFwAjwCvG": 1553,
      "ĠyDxBxGxD": 1554,
      "ĠyDxBxGxDwG": 1555,
      "ĠzCyFxF": 1556,
      "ĠwAwGwCvA": 1557,
      "ĠwDvGjvE": 1558,
      "ĠwDvGjvD": 1559,
      "ĠyGxBxG": 1560,
      "ĠyGyCxGwF": 1561,
      "ĠwAjwFwDvAjvFuAj": 1562,
      "ĠxAxCjwAvG": 1563,
      "ĠwAwEwCjuB": 1564,
      "ĠxAxFjxDvE": 1565,
      "ĠyAyEyCxF": 1566,
      "ĠwEwCvAuA": 1567,
      "ĠxFxCwGjvF": 1568,
      "ĠxCwFjwE": 1569,
      "ĠxDwAwFjwDvA": 1570,
      "ĠxDjwAjvAjvGj": 1571,
      "ĠwGwDvGvDuB": 1572,
      "ĠxCjwAwEuA": 1573,
      "ĠyGyDwG": 1574,
      "ĠxCwDwCuA": 1575,
      "ĠwBwDjvFj": 1576,
      "ĠxDwBwGwDvE": 1577,
      "ĠxCwEwCvGvEvC": 1578,
      "ĠxCwEwCvGvEuA": 1579,
      "ĠxFwBwDuB": 1580,
      "ĠyEyCxGxExC": 1581,
      "ĠwFwDvGjuB": 1582,
      "ĠvBvFjuB": 1583,
      "ĠxCwAwEwCvF": 1584,
      "ĠwGwDvAvFvCuF": 1585,
      "ĠwGwDwCvGvD": 1586,
      "ĠyExBxGj": 1587,
      "ĠwGjwDjvDj": 1588,
      "ĠxGxDwGjwE": 1589,
      "ĠyFyCxAxF": 1590,
      "ĠxAxEwAvFj": 1591,
      "ĠwAwGwEuA": 1592,
      "ĠyExAxFwD": 1593,
      "ĠxCwBwGvDj": 1594,
      "ĠwEwDvAuA": 1595,
      "ĠyDxFjxDvD": 1596,
      "ĠxDwBwFjwDvG": 1597,
      "ĠwAjwGjvDj": 1598,
      "ĠyFyDxG": 1599,
      "ĠyAyDj": 1600,
      "ĠzDyGxE": 1601,
      "CyF": 1602,
      "jvG": 1603,
      "juB": 1604,
      "jvGj": 1605,
      "juGj": 1606,
      "jxDj": 1607,
      "jwCjvGvD": 1608,
      "zCyF": 1609,
      "ĠxCwBwGvG": 1610,
      "ĠxCxCwGwGvF": 1611,
      "ĠwGvBvE": 1612,
      "ĠxExE": 1613,
      "ĠxEwEwC": 1614,
      "ĠxExEvA": 1615,
      "ĠxEwEwCvA": 1616,
      "ĠxEwEwCvGvF": 1617,
      "ĠxDxD": 1618,
      "wGvA": 1619,
      "wGwE": 1620,
      "wGwEvA": 1621,
      "wGwEvBvE": 1622,
      "wGvDj": 1623,
      "wGwDj": 1624,
      "wGwDvBvE": 1625,
      "wGwEvC": 1626,
      "wGwGwDvG": 1627,
      "ĠwBwB": 1628,
      "ĠwBuG": 1629,
      "ĠwBvDj": 1630,
      "ĠwEvBvG": 1631,
      "ĠwEvFj": 1632,
      "ĠwEwDj": 1633,
      "ĠwEwDvGj": 1634,
      "ĠwEvBvGvDuG": 1635,
      "vAvG": 1636,
      "vAuF": 1637,
      "vGuA": 1638,
      "wCuA": 1639,
      "wCuF": 1640,
      "wCvAvF": 1641,
      "wCvBvGvD": 1642,
      "ĠwCwC": 1643,
      "ĠwCvFj": 1644,
      "ĠwCvBuA": 1645,
      "wEvD": 1646,
      "wEvBvGj": 1647,
      "wEwEwCvA": 1648,
      "wAvC": 1649,
      "wAuA": 1650,
      "wAwEvBvE": 1651,
      "wAwEwCvA": 1652,
      "wAwCvA": 1653,
      "ĠwDwD": 1654,
      "ĠwDvBvE": 1655,
      "ĠwDuF": 1656,
      "ĠwDvDj": 1657,
      "ĠxGuA": 1658,
      "ĠxGwEwC": 1659,
      "ĠxGwEvA": 1660,
      "ĠxGwAvF": 1661,
      "ĠxGwEwCvG": 1662,
      "ĠxGwEwCvA": 1663,
      "ĠxGwEwCuA": 1664,
      "wDwC": 1665,
      "wDvE": 1666,
      "wDuA": 1667,
      "wDvFj": 1668,
      "wDvAvF": 1669,
      "ĠwFvGj": 1670,
      "ĠwFwFwCvF": 1671,
      "vFvDuG": 1672,
      "xCwD": 1673,
      "xCvE": 1674,
      "xCvD": 1675,
      "xCwAwF": 1676,
      "xCwAvA": 1677,
      "xCuF": 1678,
      "xCwDj": 1679,
      "xCwCj": 1680,
      "xCwDvAvD": 1681,
      "xCwFwDvG": 1682,
      "xCjvA": 1683,
      "xCxCwGwGvF": 1684,
      "xCwAwEvF": 1685,
      "wFwD": 1686,
      "wFvBvG": 1687,
      "wFwCvC": 1688,
      "ĠxFvC": 1689,
      "ĠxFuA": 1690,
      "ĠxFxE": 1691,
      "ĠxFwCvF": 1692,
      "ĠxFvBvG": 1693,
      "ĠxFvFj": 1694,
      "ĠxFvDj": 1695,
      "ĠxFwEwCvGvF": 1696,
      "vEuA": 1697,
      "ĠvAuG": 1698,
      "ĠvAvFj": 1699,
      "ĠvGuF": 1700,
      "ĠvGvDj": 1701,
      "wBvG": 1702,
      "wBvE": 1703,
      "wBvD": 1704,
      "wBwEvA": 1705,
      "wBwEvBvE": 1706,
      "ĠxAuA": 1707,
      "ĠxAwDvG": 1708,
      "ĠxAvAj": 1709,
      "ĠxAxA": 1710,
      "ĠxAwAvA": 1711,
      "ĠxAwDvA": 1712,
      "ĠxAwGvF": 1713,
      "vBvCj": 1714,
      "vBvDuA": 1715,
      "ĠvBvA": 1716,
      "ĠvBvC": 1717,
      "ĠvBvDj": 1718,
      "ĠxCwGwG": 1719,
      "ĠxCwGvB": 1720,
      "ĠxCwGuB": 1721,
      "ĠxCwGvAj": 1722,
      "ĠxExCvAvE": 1723,
      "ĠxExCwFvF": 1724,
      "ĠxExCwFwC": 1725,
      "ĠxExCwBwEvBvE": 1726,
      "ĠyCvF": 1727,
      "ĠyCvE": 1728,
      "ĠyCvC": 1729,
      "ĠyCwFj": 1730,
      "ĠyCxDwG": 1731,
      "ĠyCxFxCwF": 1732,
      "ĠyCwBwGvE": 1733,
      "ĠxBxA": 1734,
      "ĠxBxFxC": 1735,
      "ĠxBxDwG": 1736,
      "ĠxBxFxD": 1737,
      "ĠxBxCwF": 1738,
      "ĠxBwBwGvE": 1739,
      "ĠvFvDuA": 1740,
      "ĠxCwAuA": 1741,
      "ĠxCwAjwD": 1742,
      "ĠxCwAwDj": 1743,
      "ĠxCwAwGwGwDvG": 1744,
      "ĠwBwGvF": 1745,
      "ĠwBwGvDj": 1746,
      "ĠwBwGwCvG": 1747,
      "ĠwBwGvFuG": 1748,
      "wBwGwG": 1749,
      "wBwGvA": 1750,
      "wBwGwC": 1751,
      "wBwGwCvA": 1752,
      "ĠxDwGuB": 1753,
      "ĠxDwGwFvG": 1754,
      "ĠxDwGwFvF": 1755,
      "ĠxDwGwFvBvG": 1756,
      "xDwD": 1757,
      "xDvC": 1758,
      "xDwAvF": 1759,
      "xDwAvD": 1760,
      "xDxCwDvAvD": 1761,
      "xEvG": 1762,
      "xEwE": 1763,
      "xEwF": 1764,
      "xEvD": 1765,
      "xEwCvF": 1766,
      "xEwAvF": 1767,
      "xEwGvC": 1768,
      "xEwBwE": 1769,
      "xEwAj": 1770,
      "xEwAwFvF": 1771,
      "xEwEwCuA": 1772,
      "xEwGwEvC": 1773,
      "xEwBwGwC": 1774,
      "ĠwGwDvF": 1775,
      "ĠwAwEuG": 1776,
      "ĠwAwEvAj": 1777,
      "ĠwAwFuG": 1778,
      "ĠwAwFvBvG": 1779,
      "ĠwAwFvAj": 1780,
      "ĠwAwFjwD": 1781,
      "ĠwAwFvAjvF": 1782,
      "ĠwAwFwEvF": 1783,
      "ĠxDwAwC": 1784,
      "ĠxDwAuA": 1785,
      "ĠxDwAwDvG": 1786,
      "ĠxDwAwDvA": 1787,
      "ĠxDwAwGvF": 1788,
      "ĠxEwBwGvA": 1789,
      "ĠxEwBwGvFj": 1790,
      "ĠxEwBwGwDvA": 1791,
      "ĠxEwBwGwEvE": 1792,
      "ĠxEwBwGwDvE": 1793,
      "ĠyDwF": 1794,
      "ĠyDvB": 1795,
      "ĠyDvD": 1796,
      "ĠyDvAj": 1797,
      "ĠyDyCxG": 1798,
      "ĠyDwBwGwG": 1799,
      "ĠyEvG": 1800,
      "ĠyEwC": 1801,
      "ĠyEwB": 1802,
      "ĠyEwFj": 1803,
      "ĠyEyD": 1804,
      "ĠvCuA": 1805,
      "ĠvDuA": 1806,
      "ĠwGjuA": 1807,
      "ĠwGjwEvA": 1808,
      "ĠwGjvFj": 1809,
      "ĠwGjwCj": 1810,
      "ĠwGjvBvGj": 1811,
      "uBuB": 1812,
      "ĠwEwCvAvEuA": 1813,
      "ĠxCvAuA": 1814,
      "xGwG": 1815,
      "xGwD": 1816,
      "xGwF": 1817,
      "xGxExC": 1818,
      "xGwGwC": 1819,
      "xGxCwGwC": 1820,
      "xGwBwGvG": 1821,
      "xGwAwFvF": 1822,
      "xGxDvE": 1823,
      "xGxDwD": 1824,
      "xGxEwBwE": 1825,
      "ĠwAvAj": 1826,
      "ĠwAvAvE": 1827,
      "ĠxExCwGvB": 1828,
      "ĠxExCwGvAvE": 1829,
      "ĠxExCwGwDvC": 1830,
      "ĠxCwCj": 1831,
      "ĠxCwCvG": 1832,
      "ĠxCwCvD": 1833,
      "ĠxCwCuG": 1834,
      "ĠxCwCvAvE": 1835,
      "ĠxCwCvGvC": 1836,
      "ĠxCwCvGvE": 1837,
      "ĠxDvGvE": 1838,
      "ĠwGwEvE": 1839,
      "ĠwGwEvCj": 1840,
      "wAwFwDvD": 1841,
      "wAwFvAjvC": 1842,
      "wAwFjwCjvGvD": 1843,
      "wAwFwCvAvF": 1844,
      "ĠxEwBvC": 1845,
      "ĠxEwBvAvE": 1846,
      "ĠxEwBwEvE": 1847,
      "ĠxEwBwEvB": 1848,
      "ĠxGxCwAwFvA": 1849,
      "ĠxFxCvG": 1850,
      "ĠxFxCwAwFvA": 1851,
      "ĠxFxCwAwFvF": 1852,
      "ĠxCwFvA": 1853,
      "ĠxEwGvF": 1854,
      "ĠxEwGwF": 1855,
      "ĠxEwGwCj": 1856,
      "ĠxEwGwGvC": 1857,
      "xExCwGwC": 1858,
      "xExCwGwEwC": 1859,
      "xExCwGwDvC": 1860,
      "ĠwGvGvD": 1861,
      "ĠxCvGvE": 1862,
      "ĠxCvGvC": 1863,
      "ĠxEvAvE": 1864,
      "ĠwGwCvAvF": 1865,
      "ĠxDwAwFwD": 1866,
      "ĠxDwAwFwCvG": 1867,
      "ĠxDwAwFwDvD": 1868,
      "ĠxDwAwFjwC": 1869,
      "ĠxExCwAwC": 1870,
      "ĠxExCwAvC": 1871,
      "ĠxDwBwD": 1872,
      "ĠxDwBwF": 1873,
      "ĠxDwBvB": 1874,
      "ĠxDwBvAvE": 1875,
      "ĠxDwBvFj": 1876,
      "ĠxDwBwCvG": 1877,
      "ĠxDwBwFjvB": 1878,
      "ĠxDwBwFwDvG": 1879,
      "ĠxEwEvF": 1880,
      "ĠxEwEvE": 1881,
      "xFvA": 1882,
      "xFwAwD": 1883,
      "ĠwCvGvE": 1884,
      "ĠwCvGuA": 1885,
      "ĠwCvGuB": 1886,
      "ĠwCvGjuGj": 1887,
      "ĠxEwAvB": 1888,
      "ĠxEwAwCvG": 1889,
      "ĠxEwAwEvC": 1890,
      "ĠwAwCuA": 1891,
      "ĠwAwEvAvAvCuF": 1892,
      "ĠxDwDvB": 1893,
      "ĠxDwDvC": 1894,
      "xAwF": 1895,
      "xAuA": 1896,
      "xAxExC": 1897,
      "xAxEvA": 1898,
      "xAxFj": 1899,
      "xAxCvF": 1900,
      "xAxCwF": 1901,
      "xAxExCvA": 1902,
      "xAxDwBwGvG": 1903,
      "xAxExD": 1904,
      "ĠxDjwC": 1905,
      "ĠxDjxC": 1906,
      "ĠxDjvC": 1907,
      "ĠxDjwFj": 1908,
      "ĠxDvAvE": 1909,
      "ĠxCwEvF": 1910,
      "ĠxCwEvB": 1911,
      "ĠxCwEvC": 1912,
      "ĠxCwEuG": 1913,
      "ĠwFjvFj": 1914,
      "ĠwFjwCj": 1915,
      "ĠwFjvAvD": 1916,
      "ĠwFjwDvBvE": 1917,
      "ĠwFwCvG": 1918,
      "ĠwFwCuG": 1919,
      "ĠwFwCvGvC": 1920,
      "ĠwFwCuGj": 1921,
      "ĠxGxDwF": 1922,
      "ĠxGxDwAj": 1923,
      "ĠxGxDxCwFwDvG": 1924,
      "ĠwBwGwDuA": 1925,
      "ĠwBwGwDvAvE": 1926,
      "ĠwBwGwDjvG": 1927,
      "ĠxEvGvE": 1928,
      "ĠxCjwD": 1929,
      "ĠxCjvF": 1930,
      "ĠxCjuA": 1931,
      "ĠxDwFwC": 1932,
      "ĠxDwFwD": 1933,
      "ĠxDwFvB": 1934,
      "ĠxDwFwCvD": 1935,
      "ĠxGjvAj": 1936,
      "ĠxGjvGj": 1937,
      "ĠxGjxFxC": 1938,
      "ĠxGjxDwB": 1939,
      "ĠxGjwDj": 1940,
      "ĠxGjxCwGj": 1941,
      "ĠxGjxCwDj": 1942,
      "ĠxGjxEwAj": 1943,
      "ĠyGwG": 1944,
      "ĠyGvA": 1945,
      "ĠyGvC": 1946,
      "ĠyGxExC": 1947,
      "ĠyGwGwC": 1948,
      "ĠyGyE": 1949,
      "ĠxDwGwDjvF": 1950,
      "ĠxFjvA": 1951,
      "ĠxFjxE": 1952,
      "ĠxFjxDjwB": 1953,
      "ĠwAjwDvA": 1954,
      "ĠwAjuGj": 1955,
      "ĠwAjwFwDvG": 1956,
      "ĠwAjwEwCvGvC": 1957,
      "ĠwAjwDjvAjvDj": 1958,
      "wGwCvC": 1959,
      "wGwCuF": 1960,
      "wGwCvGvC": 1961,
      "wGwCvGvD": 1962,
      "ĠwBwEvG": 1963,
      "ĠwBwEvB": 1964,
      "ĠwBwEvD": 1965,
      "ĠwBwEvBvC": 1966,
      "ĠyFxC": 1967,
      "ĠyFxA": 1968,
      "ĠyFxB": 1969,
      "ĠyFxFxD": 1970,
      "ĠyFxAxF": 1971,
      "ĠxGwBvA": 1972,
      "ĠxGwBwF": 1973,
      "ĠxGwBwB": 1974,
      "ĠxGwBvBvE": 1975,
      "ĠxGwBwCj": 1976,
      "ĠxFxDvG": 1977,
      "ĠxFxDwC": 1978,
      "ĠxFxDwF": 1979,
      "ĠxFxDvB": 1980,
      "ĠxFxDwGwD": 1981,
      "ĠxCwGwCvGvE": 1982,
      "ĠwAwDuB": 1983,
      "ĠwAwDwCvF": 1984,
      "ĠwAwDvAvF": 1985,
      "ĠwAwDjvB": 1986,
      "ĠwAwDjvAjvDj": 1987,
      "ĠwAwDvBuA": 1988,
      "vGjvE": 1989,
      "vGjvDj": 1990,
      "ĠwDvAvAvE": 1991,
      "ĠwDvAvFj": 1992,
      "ĠwDvAuBuB": 1993,
      "ĠxBxGwEwC": 1994,
      "ĠxCwDwCvF": 1995,
      "ĠwEvAuB": 1996,
      "ĠwBwDvB": 1997,
      "ĠwBwDuB": 1998,
      "ĠwBwDwCvD": 1999,
      "ĠwBwDwDvC": 2000,
      "ĠwDvGuA": 2001,
      "ĠxGwBwGvA": 2002,
      "ĠxGwBwGvB": 2003,
      "ĠxAxCvG": 2004,
      "ĠxAxCwE": 2005,
      "ĠxAxCwA": 2006,
      "ĠxAxCwCvF": 2007,
      "ĠxAxCwAwF": 2008,
      "ĠxAxCwEvA": 2009,
      "ĠxAxCwAvF": 2010,
      "ĠxAxCwBwEvA": 2011,
      "ĠwAvGvD": 2012,
      "ĠwBvEuB": 2013,
      "ĠxDwEvGvD": 2014,
      "yCwG": 2015,
      "yCwA": 2016,
      "yCxC": 2017,
      "yCvC": 2018,
      "yCxFxC": 2019,
      "yCxEvA": 2020,
      "yCxExCwC": 2021,
      "yCxExCvA": 2022,
      "yCxAxEvA": 2023,
      "ĠxCwGwEvB": 2024,
      "ĠwBwGjwE": 2025,
      "ĠwBwGjwDvBvE": 2026,
      "ĠxDwBwGj": 2027,
      "ĠxDwBwGwC": 2028,
      "ĠxDwBwGvB": 2029,
      "ĠxDwBwGuA": 2030,
      "ĠxDwBwGwCvG": 2031,
      "ĠxGwGvA": 2032,
      "ĠxGwGwE": 2033,
      "ĠxGwGwD": 2034,
      "ĠxGwGvE": 2035,
      "ĠxGwGvB": 2036,
      "ĠxGwGwDj": 2037,
      "ĠxGwGwEwCvG": 2038,
      "ĠwFwDuB": 2039,
      "wFjvDj": 2040,
      "ĠxAwAjwC": 2041,
      "ĠxCwEwCvE": 2042,
      "ĠvAjuAj": 2043,
      "ĠwAwEwCvC": 2044,
      "ĠwAwEwCvBvDuA": 2045,
      "ĠxAxExCj": 2046,
      "ĠxAxExCwA": 2047,
      "ĠxAxExCwD": 2048,
      "ĠxCwGwDvD": 2049,
      "ĠxCwGwDvC": 2050,
      "ĠxCwGwDjvGj": 2051,
      "ĠxEwBwGjvB": 2052,
      "ĠxEwBwGjvD": 2053,
      "ĠxEwBwGjvGj": 2054,
      "ĠxEwAwFwCvF": 2055,
      "ĠxEwAwFvAj": 2056,
      "ĠvAvEvC": 2057,
      "ĠxAxDwBwG": 2058,
      "ĠxAxDvFj": 2059,
      "ĠxAxDwAj": 2060,
      "ĠxAxDwBwGvG": 2061,
      "ĠxBwGj": 2062,
      "ĠxBwGvG": 2063,
      "ĠxBwGwD": 2064,
      "ĠxBwGwGwE": 2065,
      "ĠxAxEwEwEwCvA": 2066,
      "ĠyCxAwD": 2067,
      "ĠyCxAwB": 2068,
      "ĠyCxAxEwC": 2069,
      "ĠyCxAxEvA": 2070,
      "ĠxDxCwG": 2071,
      "ĠxDxCwGvC": 2072,
      "ĠxDxCwGwD": 2073,
      "ĠxDxCwGvG": 2074,
      "ĠxDxCwAvD": 2075,
      "ĠxCwAvAvC": 2076,
      "ĠwCjvE": 2077,
      "ĠwCjuB": 2078,
      "ĠwCjvGj": 2079,
      "ĠwCjvDj": 2080,
      "ĠwCjvGjuGj": 2081,
      "ĠwCjvGuA": 2082,
      "ĠxFwBvB": 2083,
      "ĠxFwBvC": 2084,
      "ĠxFwBvGj": 2085,
      "ĠxFwBwAwEvBvE": 2086,
      "ĠwGwDvBvGvD": 2087,
      "ĠwBvBvD": 2088,
      "ĠxGwDj": 2089,
      "ĠxFwFwCvF": 2090,
      "ĠyExCwG": 2091,
      "ĠwAvEuB": 2092,
      "xFxCwGwC": 2093,
      "ĠwAwGvG": 2094,
      "ĠwAwGvF": 2095,
      "ĠwAwGvCj": 2096,
      "ĠwAwGwDjvAjvDj": 2097,
      "ĠwAwGwDuA": 2098,
      "ĠxCwGwEwCvG": 2099,
      "ĠxCwAwEvAvF": 2100,
      "xBxE": 2101,
      "xBxDvA": 2102,
      "xBxGxDvE": 2103,
      "wGjwEvE": 2104,
      "ĠyAvA": 2105,
      "ĠyAxC": 2106,
      "ĠyAwF": 2107,
      "ĠyAxF": 2108,
      "ĠyAyC": 2109,
      "xDwGvB": 2110,
      "xDwGwEvA": 2111,
      "xDwGwEvC": 2112,
      "ĠxFxCwAvD": 2113,
      "ĠxFxCwAvGj": 2114,
      "ĠxFxCwAwDj": 2115,
      "ĠxFxCwAjvF": 2116,
      "ĠxEwFvAj": 2117,
      "ĠwBwAvG": 2118,
      "ĠwBwAwE": 2119,
      "ĠwBwAwEvE": 2120,
      "ĠwDjvBvE": 2121,
      "ĠxGwCvC": 2122,
      "ĠxFwAwFwD": 2123,
      "ĠxFwAwFwDvAvD": 2124,
      "ĠwBwFwDvD": 2125,
      "ĠwBwFwCvD": 2126,
      "ĠwEvCj": 2127,
      "ĠvBvGvDuG": 2128,
      "ĠwDwCvD": 2129,
      "ĠwDwCuG": 2130,
      "ĠwDwCvBvE": 2131,
      "ĠxAwFvF": 2132,
      "ĠyCxGxEwC": 2133,
      "ĠyCxGxDwB": 2134,
      "ĠyCxGwEwCvG": 2135,
      "ĠyCxGjxDj": 2136,
      "wAwEvAvE": 2137,
      "ĠxFwGwD": 2138,
      "ĠxFwGvE": 2139,
      "ĠxBxGjxDwB": 2140,
      "ĠxCwAwEvC": 2141,
      "ĠxExCwGwCvG": 2142,
      "ĠxCwFwCuF": 2143,
      "ĠxCwFwCvAvD": 2144,
      "ĠxCwFwCvGvD": 2145,
      "ĠyCxEwFj": 2146,
      "ĠxDwGwEvG": 2147,
      "ĠxDwGwEvB": 2148,
      "ĠwCvEvC": 2149,
      "ĠxGxCwGwE": 2150,
      "ĠxGxCwGwF": 2151,
      "ĠyCxCwA": 2152,
      "ĠyCxCvF": 2153,
      "ĠyCxCwDj": 2154,
      "ĠxBxEvC": 2155,
      "ĠxBxEwBvE": 2156,
      "ĠxDwGjvAj": 2157,
      "ĠxDwGjwEvB": 2158,
      "ĠwGwDvBuG": 2159,
      "xDwBvG": 2160,
      "ĠxExCwGwEwCvG": 2161,
      "ĠxCwFwDvD": 2162,
      "ĠxCwFwDuA": 2163,
      "ĠwAvCuA": 2164,
      "ĠwCvCuG": 2165,
      "ĠxDwGwCvA": 2166,
      "ĠxExCwGvAvC": 2167,
      "ĠvGvDuB": 2168,
      "ĠyCxExCwC": 2169,
      "ĠyEyCxF": 2170,
      "ĠyEyCxA": 2171,
      "ĠyEyCxGxC": 2172,
      "yEwC": 2173,
      "yEwA": 2174,
      "yExC": 2175,
      "yExExC": 2176,
      "yExCwGwC": 2177,
      "yExBxGxDvE": 2178,
      "ĠxAwAwFvG": 2179,
      "ĠyDxGwE": 2180,
      "ĠyDxGwDvG": 2181,
      "ĠyDxGxEvG": 2182,
      "ĠxGwAvG": 2183,
      "ĠxGwAvB": 2184,
      "ĠxFwBwGvB": 2185,
      "ĠxGxDwBwE": 2186,
      "ĠxGxDwBwFvF": 2187,
      "ĠxGxEwB": 2188,
      "ĠxGxEvB": 2189,
      "ĠxGxExD": 2190,
      "ĠxGxEwAj": 2191,
      "ĠxCwGjvE": 2192,
      "ĠwBwGwEwD": 2193,
      "ĠwBwGwEvE": 2194,
      "ĠwBwGwEvCj": 2195,
      "ĠwDvFuG": 2196,
      "ĠwEwCvGvD": 2197,
      "ĠwEwCvGuA": 2198,
      "ĠwGwFvC": 2199,
      "ĠwGwFwCvF": 2200,
      "ĠwGwFvBvG": 2201,
      "ĠwGwFwCvG": 2202,
      "ĠwGwFwCvGvC": 2203,
      "ĠwGwFvBvCj": 2204,
      "ĠwGvAjvF": 2205,
      "ĠwGvAjvE": 2206,
      "ĠwGvAjvC": 2207,
      "ĠwGvAjuB": 2208,
      "ĠwGvAjuG": 2209,
      "ĠwBwFjvE": 2210,
      "ĠwBwFjvDj": 2211,
      "ĠwEwDvD": 2212,
      "ĠwEwDvAvE": 2213,
      "ĠwDvBvGvDuG": 2214,
      "ĠwGwEvBvC": 2215,
      "ĠwGwEvBuA": 2216,
      "xCwGwEvA": 2217,
      "xCwGwEvE": 2218,
      "xCwGwEvC": 2219,
      "xCvAuA": 2220,
      "ĠxAxFwD": 2221,
      "ĠxAxFvE": 2222,
      "ĠxExCjwA": 2223,
      "ĠxExCjwGwEvA": 2224,
      "ĠxBwBvG": 2225,
      "ĠxBwBwD": 2226,
      "ĠxBwBwFwC": 2227,
      "ĠwGwDvEvE": 2228,
      "ĠwAwEvBvFj": 2229,
      "ĠyCxFwD": 2230,
      "ĠyCxFvF": 2231,
      "ĠwAwFwDuA": 2232,
      "wBwEvBvC": 2233,
      "ĠxCwGwFvG": 2234,
      "ĠxCwGwFwC": 2235,
      "ĠxCwGjwDvE": 2236,
      "ĠxBxDwA": 2237,
      "ĠxEwBwAwEvB": 2238,
      "ĠxEwGjvE": 2239,
      "ĠxEwGjwDvG": 2240,
      "ĠxEwGjwEvBvE": 2241,
      "ĠxEwGjwEvBvGj": 2242,
      "wFjvBvFj": 2243,
      "yDxAxF": 2244,
      "ĠwBwEwCvC": 2245,
      "ĠwBwEwCuB": 2246,
      "ĠwBwEwCjuB": 2247,
      "wAjvDj": 2248,
      "ĠxDwAwDvB": 2249,
      "ĠyDxAj": 2250,
      "ĠyDxAwA": 2251,
      "ĠyDxAxEwA": 2252,
      "ĠyDxAxFxD": 2253,
      "ĠxEwGwEvGjvE": 2254,
      "ĠxExDwC": 2255,
      "ĠxExDwF": 2256,
      "ĠxExDwAvA": 2257,
      "wAwEvB": 2258,
      "ĠxGwAwFvD": 2259,
      "ĠxGwAwFvGvD": 2260,
      "ĠyBwG": 2261,
      "ĠyBxG": 2262,
      "ĠxBxExCwD": 2263,
      "ĠxDwAjvA": 2264,
      "ĠxDwAjvG": 2265,
      "ĠxDwAjwFvAj": 2266,
      "ĠyDjwG": 2267,
      "ĠyDjwF": 2268,
      "ĠyDjxD": 2269,
      "ĠwGjwEvFj": 2270,
      "ĠwAwCvAvAvE": 2271,
      "ĠxGxDwGvG": 2272,
      "ĠxBxGxEwE": 2273,
      "yCxGxC": 2274,
      "yCxGwF": 2275,
      "ĠwCvAvFuF": 2276,
      "ĠxExDwGvG": 2277,
      "ĠxExDwGwDwC": 2278,
      "ĠvGvEvC": 2279,
      "ĠxAjxCwCj": 2280,
      "ĠxAwBwGwE": 2281,
      "ĠxCwGwEvAvC": 2282,
      "ĠxDwAwGvA": 2283,
      "ĠxDwAwGvE": 2284,
      "ĠxDwAwGvD": 2285,
      "ĠxDwAwGvDj": 2286,
      "ĠyExAxExC": 2287,
      "ĠyExAxCvF": 2288,
      "ĠwAwDvAuB": 2289,
      "ĠxAxExCwGwEvA": 2290,
      "ĠxAxExCwGvAvE": 2291,
      "ĠxAxExCwGwDvA": 2292,
      "ĠyCxAxFxCwFwC": 2293,
      "ĠwDwCvGuG": 2294,
      "ĠyCjxAwA": 2295,
      "ĠwBwGwCvAvF": 2296,
      "ĠwGwDwCvE": 2297,
      "ĠwGwDwCvC": 2298,
      "ĠwGwDwCvBvE": 2299,
      "ĠxDwAwEvGj": 2300,
      "ĠwEwCvFvCuF": 2301,
      "ĠxFxCwGvG": 2302,
      "ĠxFxCwGwD": 2303,
      "xFjxC": 2304,
      "xFjxDwBwFjvB": 2305,
      "ĠxDwFjuA": 2306,
      "ĠxFjwAvD": 2307,
      "ĠxFjwAuB": 2308,
      "ĠxBxGjxDwE": 2309,
      "ĠwGwGvB": 2310,
      "ĠxDwEwCvC": 2311,
      "ĠxDwEwCvAvEuA": 2312,
      "ĠvAvDuA": 2313,
      "ĠvBvFvCj": 2314,
      "xEwAwGvF": 2315,
      "ĠwAwFjvAvD": 2316,
      "ĠyExGwE": 2317,
      "ĠxEwGwCvA": 2318,
      "xFxDwAwD": 2319,
      "ĠxGxDwBwGvAvG": 2320,
      "ĠxFjxDwAvA": 2321,
      "ĠxFjxDwAvD": 2322,
      "ĠxEwEvAvF": 2323,
      "wGwDwCvC": 2324,
      "wGwDwCvGvC": 2325,
      "ĠxFvGjvD": 2326,
      "ĠxBwAwG": 2327,
      "ĠxCwAjwE": 2328,
      "ĠxCwAjwEwC": 2329,
      "ĠwGwDvAuA": 2330,
      "ĠwGwDvAuB": 2331,
      "wEwCvGuA": 2332,
      "ĠwGjvGjvE": 2333,
      "ĠxCvAjvFuG": 2334,
      "xGxCwA": 2335,
      "xGxCwAvF": 2336,
      "ĠxCjwGjvD": 2337,
      "ĠxCjwGjwEvE": 2338,
      "ĠxBxGxDvG": 2339,
      "ĠxBxGxDvB": 2340,
      "ĠxBxGxDwAwEvB": 2341,
      "ĠuFj": 2342,
      "ĠxEwFjwD": 2343,
      "ĠwAwGwCj": 2344,
      "ĠwAwGwCvGvD": 2345,
      "ĠwBwDvGvG": 2346,
      "xCwFwCvG": 2347,
      "ĠyCxFxCwD": 2348,
      "ĠyCxFxCwAwF": 2349,
      "wBwGwDvE": 2350,
      "wBwGwDuA": 2351,
      "ĠxDwGwEwCvGvC": 2352,
      "ĠxEwGvCuG": 2353,
      "ĠxEwAjwG": 2354,
      "ĠxEwAjwGwC": 2355,
      "ĠxEwAjwCj": 2356,
      "ĠxDjwBwFjvDj": 2357,
      "ĠxGjxDjxC": 2358,
      "ĠwAjwFvC": 2359,
      "ĠwAjwFvDj": 2360,
      "ĠwDvAvFuF": 2361,
      "ĠwEvAvFvCuF": 2362,
      "ĠwAwEwCjuA": 2363,
      "ĠwAwEwCjvAvE": 2364,
      "ĠwAwEwCjvAvEuA": 2365,
      "ĠwBwFwDuG": 2366,
      "yExAxExC": 2367,
      "xCwGwEwCvGvC": 2368,
      "ĠxAxFjxC": 2369,
      "ĠyCxFxDwD": 2370,
      "ĠyAyEyCxFxC": 2371,
      "ĠwCvBvGvDuA": 2372,
      "ĠxGwGwCvG": 2373,
      "ĠwFvAjvE": 2374,
      "xCwEvG": 2375,
      "xCwEuA": 2376,
      "ĠxBxDwBwE": 2377,
      "ĠxDwAwGwCvA": 2378,
      "ĠxFxCwGjwD": 2379,
      "ĠxCwFjuA": 2380,
      "ĠwGwCvGvEvC": 2381,
      "ĠxDwAwFjvD": 2382,
      "ĠxDwAwFjwDvAvD": 2383,
      "ĠxDjwAjwF": 2384,
      "ĠxDjwAjwGwDj": 2385,
      "ĠyGyDxEwB": 2386,
      "ĠyGyDxBxE": 2387,
      "ĠyFjwB": 2388,
      "ĠyFjxB": 2389,
      "ĠxCwDwCvAvEuA": 2390,
      "ĠyCxAxEwFj": 2391,
      "ĠyCxAxFwA": 2392,
      "ĠxDwGjvEuB": 2393,
      "ĠyEyCxGwA": 2394,
      "ĠyEyCxGxE": 2395,
      "ĠyDxGxDwE": 2396,
      "ĠyDxGxDwF": 2397,
      "ĠzCyFyCxF": 2398,
      "yGwG": 2399,
      "ĠxExDwBvE": 2400,
      "ĠxExDwBwEvBvE": 2401,
      "ĠwEvGjvE": 2402,
      "ĠwDwCvFvC": 2403,
      "ĠwDwDvGvDuG": 2404,
      "ĠwFwEvGj": 2405,
      "ĠwFvAvFvD": 2406,
      "ĠwFvAvFvC": 2407,
      "xCwEwCvC": 2408,
      "xCwEwCvAvEuA": 2409,
      "ĠxBxFjxDjwB": 2410,
      "xDwAwFvD": 2411,
      "xDwAwFwDvD": 2412,
      "ĠwAwFwDvAuA": 2413,
      "ĠyExBxCwE": 2414,
      "ĠwGjwDjvAjvDj": 2415,
      "ĠxFxCwAwFwD": 2416,
      "ĠxCwFwDvGvDuG": 2417,
      "ĠwFjwCuGj": 2418,
      "ĠxGxDwGjwEvA": 2419,
      "ĠxCjwGwEvA": 2420,
      "ĠxDwFjwDuB": 2421,
      "ĠyGxGwG": 2422,
      "ĠyGxGwBwE": 2423,
      "ĠyFyCxAxFxC": 2424,
      "ĠxEwAwFjvFj": 2425,
      "ĠwAwGwEvCj": 2426,
      "ĠyCxExCwGvA": 2427,
      "ĠwBwFjwDuB": 2428,
      "ĠxExDwAwDvF": 2429,
      "yAyEwA": 2430,
      "ĠxCwBvG": 2431,
      "ĠxEvBvGjvD": 2432,
      "wAwEwCvF": 2433,
      "wAwEwCvAvF": 2434,
      "ĠwFvBvGvC": 2435,
      "ĠxAxGxDwGvB": 2436,
      "ĠvEvCuA": 2437,
      "xDwAwGwC": 2438,
      "xDwAwGwEwC": 2439,
      "xEwBvB": 2440,
      "xExDwAwD": 2441,
      "ĠwGwDjvBvFvDuG": 2442,
      "ĠyExExCwF": 2443,
      "wEwCvGvEvC": 2444,
      "ĠwGjwDvB": 2445,
      "ĠwEwCjvAvEuA": 2446,
      "ĠxCwFjwDvD": 2447,
      "ĠwGvGvEvC": 2448,
      "ĠwGwCjuAj": 2449,
      "ĠxEwAwEwDvFj": 2450,
      "ĠxEwAwGwCvG": 2451,
      "xAxFxCwA": 2452,
      "ĠxDjwAwFjwC": 2453,
      "ĠwBwGwDvBvEuB": 2454,
      "ĠxCjwEvDj": 2455,
      "ĠxCjwAjvGj": 2456,
      "ĠxCjwAjwFvAj": 2457,
      "ĠxGjxDwF": 2458,
      "ĠxBxGxDwBvB": 2459,
      "ĠwBwGjwFvB": 2460,
      "ĠxFwGvCuG": 2461,
      "ĠxDwGjwFvFj": 2462,
      "ĠxGwAwGwFvF": 2463,
      "ĠyDxAxFwB": 2464,
      "ĠwGjwEvGjvEuB": 2465,
      "ĠxFjxDwAvB": 2466,
      "ĠyGxBxGwE": 2467,
      "ĠyExBxGjwE": 2468,
      "ĠyExBxGjxE": 2469,
      "ĠyAyDjxAxFj": 2470,
      "zCyFyCxC": 2471,
      "ĠwEwDjvDj": 2472,
      "ĠwEwDvGjvEuB": 2473,
      "wAwCvAvAvCuF": 2474,
      "ĠxGwEwCvGvGvD": 2475,
      "ĠxGwEwCvAvG": 2476,
      "ĠxBxFxDwD": 2477,
      "ĠxCwAwDjvFj": 2478,
      "ĠwGjwEvAvE": 2479,
      "ĠwGjwCjvDj": 2480,
      "ĠwGjvBvGjvD": 2481,
      "xGxExCvC": 2482,
      "ĠwGwCvAvFvCuF": 2483,
      "ĠxDwAwFjwCvAvD": 2484,
      "xAxExDwE": 2485,
      "ĠxGxDwAjwF": 2486,
      "ĠxGjxDwBvB": 2487,
      "ĠxGjxCwGjwDj": 2488,
      "ĠxGjxEwAjwC": 2489,
      "ĠxFjxDjwBwFjvBvFj": 2490,
      "ĠyFxBxF": 2491,
      "vGjvDjuGj": 2492,
      "yCxFxCwC": 2493,
      "ĠxGwGwDjvAj": 2494,
      "ĠxAxDwAjvG": 2495,
      "ĠxDxCwGwDwC": 2496,
      "ĠxFxCwAwDjwC": 2497,
      "ĠyCxGjxDjwF": 2498,
      "ĠxBxGjxDwBwE": 2499,
      "ĠxGxEwAjwG": 2500,
      "ĠxEwGjwEvBvGjvE": 2501,
      "yDxAxFwD": 2502,
      "ĠyAyDjxAxFjwB": 2503
    },
    "merges": [
      "S U",
      "Ġ SU",
      "ĠSU S",
      "Ġ w",
      "Ġ x",
      "Ġx C",
      "Ġ v",
      "Ġw G",
      "Ġx E",
      "Ġx D",
      "Ġw A",
      "w G",
      "Ġw B",
      "Ġw E",
      "v A",
      "v G",
      "w C",
      "Ġw C",
      "w E",
      "w A",
      "Ġw D",
      "Ġx G",
      "w D",
      "Ġw F",
      "v F",
      "x C",
      "w F",
      "Ġ y",
      "Ġx F",
      "v E",
      "Ġv A",
      "Ġv G",
      "w B",
      "Ġx A",
      "v B",
      "v D",
      "Ġv B",
      "v C",
      "ĠxC wG",
      "ĠxE xC",
      "Ġv E",
      "Ġy C",
      "Ġx B",
      "Ġv F",
      "ĠxC wA",
      "u A",
      "ĠwB wG",
      "wB wG",
      "ĠxD wG",
      "x D",
      "x E",
      "Ġ R",
      "ĠwG wD",
      "ĠwA wE",
      "ĠwA wF",
      "ĠxD wA",
      "ĠxE wBwG",
      "Ġy D",
      "Ġy E",
      "Ġv C",
      "Ġv D",
      "wE wC",
      "ĠwG j",
      "u B",
      "ĠwE wC",
      "ĠxC vA",
      "wC vF",
      "ĠwA vF",
      "x G",
      "ĠwA vA",
      "ĠxExC wG",
      "ĠxC wC",
      "ĠxD vG",
      "ĠxE wC",
      "ĠwG wE",
      "wA wF",
      "ĠxE wB",
      "wE vA",
      "ĠwB vG",
      "u G",
      "ĠxG xC",
      "wD vG",
      "ĠxF xC",
      "ĠxC wF",
      "vB vG",
      "ĠxE wG",
      "vB vE",
      "xE xC",
      "ĠwG vG",
      "ĠxC vG",
      "ĠxE vA",
      "ĠwG wC",
      "ĠxDwA wF",
      "ĠxExC wA",
      "ĠxC vF",
      "ĠxD wB",
      "vA j",
      "ĠxE wE",
      "x F",
      "Ġ uA",
      "ĠwC vG",
      "ĠxE wA",
      "ĠwA wC",
      "ĠwAwE vA",
      "ĠxD wD",
      "x A",
      "ĠxD j",
      "ĠxD vA",
      "ĠxC wE",
      "ĠwF j",
      "ĠwF wC",
      "ĠxG xD",
      "ĠwF wCvF",
      "ĠwBwG wD",
      "ĠxE vG",
      "ĠwB vA",
      "ĠwGwD vG",
      "ĠxC j",
      "ĠxD wF",
      "ĠxG j",
      "Ġy G",
      "ĠxDwG wD",
      "ĠxF j",
      "ĠwA j",
      "wG wC",
      "vA vE",
      "ĠwB wE",
      "Ġy F",
      "ĠxG wB",
      "ĠxF xD",
      "ĠxCwG wC",
      "vF j",
      "ĠwA wD",
      "vG j",
      "ĠwD vA",
      "ĠxB xG",
      "ĠxC wD",
      "ĠwE vA",
      "wA vA",
      "ĠxCwA wF",
      "u F",
      "ĠxE vE",
      "ĠwB wD",
      "ĠwD vG",
      "ĠxG wBwG",
      "ĠxA xC",
      "ĠwA vG",
      "ĠwG vE",
      "ĠwB vE",
      "ĠxA vA",
      "ĠxD wE",
      "ĠwE vE",
      "y C",
      "Ġ uB",
      "ĠxE vF",
      "ĠxCwG wE",
      "ĠwBwG j",
      "ĠxD vE",
      "ĠxD wBwG",
      "ĠxD wC",
      "vG vC",
      "ĠxG wG",
      "ĠwF wD",
      "wE vBvE",
      "ĠxD vF",
      "ĠxD vB",
      "ĠxG vG",
      "vD j",
      "ĠxC vE",
      "wF j",
      "ĠxA wA",
      "ĠwAwF wC",
      "ĠxC wEwC",
      "ĠvA j",
      "ĠwC vA",
      "ĠwF vF",
      "ĠwAwE wC",
      "ĠwD vD",
      "ĠxG vE",
      "ĠxA xExC",
      "ĠxCwG wD",
      "ĠwG vF",
      "ĠxE wD",
      "ĠwF vD",
      "ĠxF wD",
      "ĠwBwG wDvG",
      "ĠxEwBwG j",
      "ĠxE wAwF",
      "ĠxCwA vF",
      "ĠwG vB",
      "ĠwA vD",
      "ĠvA vE",
      "ĠxA xD",
      "ĠxB wG",
      "ĠwB wC",
      "ĠxA xE",
      "ĠyC xA",
      "ĠwG vA",
      "ĠwG wEwC",
      "ĠxD xC",
      "ĠxCwA vA",
      "ĠwC j",
      "ĠxF wB",
      "ĠvG j",
      "ĠxDwG vG",
      "ĠwGwD vBvG",
      "ĠwB vB",
      "ĠxG wD",
      "ĠxF wC",
      "ĠxF wF",
      "ĠyE xC",
      "ĠwA vE",
      "ĠwC vF",
      "ĠxG wE",
      "ĠwE vG",
      "ĠxF wA",
      "xF xC",
      "ĠwDvA vD",
      "ĠwA wG",
      "vA vF",
      "ĠxF vF",
      "ĠxCwG vG",
      "ĠxCwG wEwC",
      "ĠxCwA wEvA",
      "x B",
      "Ġ uG",
      "ĠwG vD",
      "ĠwCvG vC",
      "ĠwG vC",
      "wG j",
      "Ġy A",
      "xD wG",
      "ĠxFxC wA",
      "ĠxDwB vG",
      "ĠxC vD",
      "ĠxE wF",
      "ĠwB wA",
      "ĠwD j",
      "ĠxG wC",
      "ĠxF wAwF",
      "vC uF",
      "ĠwBwG vG",
      "ĠwB wF",
      "ĠwE vC",
      "ĠvB vG",
      "ĠyD wG",
      "ĠxFxD wA",
      "ĠwD wC",
      "ĠxA wF",
      "ĠyC xG",
      "ĠxDwG wDvG",
      "ĠwAwF wCvF",
      "vAvE uA",
      "j wD",
      "ĠwE vBvE",
      "wA wEvA",
      "ĠxG vA",
      "ĠxExC wC",
      "ĠwF vA",
      "ĠxF wG",
      "ĠxBxG j",
      "ĠxC vC",
      "ĠwA uA",
      "ĠwD vE",
      "ĠxCwA wE",
      "ĠxExCwG wC",
      "ĠxCwF wC",
      "wD vA",
      "ĠyC wA",
      "ĠyC xE",
      "ĠxDwG wE",
      "ĠxDwAwF vF",
      "ĠwC vE",
      "ĠwC uA",
      "wA vF",
      "ĠxA vF",
      "ĠyC vA",
      "ĠvF j",
      "ĠxGxC wG",
      "ĠxDwBwG vG",
      "ĠyC xC",
      "xE wC",
      "ĠxB xE",
      "ĠxDwG j",
      "ĠwGwD vB",
      "ĠwEwC vGvC",
      "ĠwE vB",
      "ĠwE vD",
      "ĠxCwG vA",
      "ĠwAwF vF",
      "ĠxE vB",
      "ĠwE uA",
      "ĠwD vB",
      "ĠxG vB",
      "ĠxA wD",
      "xD wB",
      "ĠyD xB",
      "ĠxExCwG wEwC",
      "ĠxCwF wD",
      "ĠwA vC",
      "ĠwC vC",
      "ĠxF vA",
      "ĠxDwG wC",
      "ĠwAwF vA",
      "ĠxExCwG vA",
      "ĠxAxExC vA",
      "ĠwB vD",
      "ĠwC vD",
      "wD j",
      "ĠvG vD",
      "ĠyC xExC",
      "ĠxB wE",
      "ĠxEwBwG vG",
      "ĠyE yC",
      "ĠxExCwA vA",
      "y E",
      "ĠxC vB",
      "ĠwA vB",
      "ĠxF vG",
      "ĠvA vF",
      "ĠxA wAwF",
      "ĠyD xG",
      "ĠvC j",
      "wC j",
      "ĠxG wA",
      "ĠxF wBwG",
      "ĠvB vE",
      "vC j",
      "ĠxEwB vE",
      "ĠxGxD wB",
      "ĠxG xE",
      "wD vBvG",
      "wF vAj",
      "ĠxA vG",
      "ĠxCwG j",
      "ĠxExC vA",
      "ĠwBwG wE",
      "ĠxDwG vE",
      "ĠxEwBwG vE",
      "ĠxDwGwD vBvG",
      "ĠxGwBwG vG",
      "ĠxE vD",
      "ĠwD vF",
      "vF vC",
      "ĠyC wF",
      "ĠvD j",
      "ĠwEwC vG",
      "ĠxGwBwG vE",
      "vA vD",
      "wC vG",
      "wE vE",
      "wA wD",
      "ĠxA vE",
      "ĠxCwG vE",
      "ĠxExC vG",
      "ĠxCwAwF vF",
      "Ġ z",
      "ĠxC uA",
      "ĠwG wF",
      "ĠwG vAj",
      "ĠxE vC",
      "ĠwB uA",
      "ĠwB wFj",
      "ĠwE wD",
      "ĠwD vC",
      "ĠwD vBvG",
      "vD uG",
      "ĠxDwG vB",
      "ĠwGwD vBvE",
      "ĠxDwA vF",
      "ĠwGwE vB",
      "ĠwGwE vBvE",
      "ĠwBvG j",
      "vAj vDj",
      "ĠxEwAwF vF",
      "xFxC wF",
      "ĠxC wEvA",
      "ĠxD vD",
      "vA vC",
      "ĠwF vG",
      "xC wG",
      "xC vA",
      "xC vGj",
      "ĠvA vC",
      "ĠxA xF",
      "ĠxExC j",
      "ĠxB wB",
      "ĠwBwG wEvBvE",
      "ĠwGwD vE",
      "ĠwAwE vB",
      "ĠxExCwG wE",
      "ĠwG uG",
      "xC wC",
      "xC wGwC",
      "ĠxF vD",
      "ĠxCwG wDvG",
      "ĠyC xF",
      "ĠxB vG",
      "ĠxCwA wD",
      "uA j",
      "xE vA",
      "ĠwAwF wD",
      "ĠwGj vE",
      "ĠxCwF vF",
      "ĠxExCwA vF",
      "ĠxEvG j",
      "ĠxDwGwD vE",
      "ĠxEwBwGj vE",
      "ĠvAvE uA",
      "ĠxDxC wGwC",
      "ĠxBxGj xE",
      "Ġz C",
      "wG vC",
      "ĠwE vF",
      "ĠwE uB",
      "vA vCuF",
      "vG vE",
      "ĠxG vF",
      "wD vD",
      "wB wE",
      "ĠxCwG vF",
      "ĠxCwG wF",
      "ĠxCwG jwD",
      "ĠxB xD",
      "ĠwBwG vE",
      "ĠwAvF j",
      "ĠxEwB wA",
      "ĠxGxC wC",
      "ĠxCwF wCvF",
      "ĠxEwG j",
      "ĠxDwAwF vA",
      "ĠwFwC vAvF",
      "ĠxDwGwD vB",
      "ĠxGwB vG",
      "ĠwBwGj vE",
      "wFj vB",
      "ĠwBwC j",
      "ĠxFxDwA j",
      "ĠxExCwGwEwC vE",
      "ĠxCwGj wEvA",
      "y D",
      "ĠxD uB",
      "wG vF",
      "ĠwB wEwC",
      "wA j",
      "wA vG",
      "ĠxG wF",
      "wD vBvE",
      "ĠwBwG vA",
      "ĠxDwA wD",
      "ĠxDwA wEvA",
      "ĠyD xA",
      "wAwF vA",
      "ĠxFxC wD",
      "ĠxEwG wE",
      "ĠxDwAwF vD",
      "ĠxDwF vF",
      "ĠxCwGwE vC",
      "ĠxCwEwC vAvEuA",
      "ĠwAwEwC vA",
      "ĠxAxD wB",
      "ĠxFwAwF wC",
      "ĠyCxExC vA",
      "ĠxGxDwB vG",
      "ĠwG wCvF",
      "ĠxE xD",
      "vG vD",
      "ĠwC uG",
      "wA wE",
      "ĠwD uB",
      "ĠxG wAwF",
      "wF vG",
      "Ġy B",
      "ĠxExC wFj",
      "ĠyC wG",
      "ĠxB vB",
      "ĠxB xExC",
      "ĠwAwE uA",
      "ĠwAwE wCvF",
      "ĠwAwF vD",
      "ĠxDwA j",
      "ĠxEwBwG wE",
      "ĠyD j",
      "ĠyD wD",
      "ĠyD xD",
      "ĠwGj wE",
      "ĠwGj vB",
      "ĠwEwC vC",
      "uG j",
      "ĠxFxC vF",
      "ĠxDwAwF wC",
      "ĠwAwC vA",
      "ĠxGxD wG",
      "ĠxBxG xE",
      "ĠxAxC wF",
      "yC xG",
      "ĠwBwGj wD",
      "ĠwCvA vF",
      "ĠxAxD j",
      "xDwB wFjvB",
      "y F",
      "ĠxC uB",
      "ĠxE xDwG",
      "ĠxD vC",
      "ĠxD vBvG",
      "ĠxD vAj",
      "ĠwD vAj",
      "ĠvA uA",
      "ĠvG vE",
      "ĠxA j",
      "ĠxA wBwG",
      "ĠxCwG wEvA",
      "ĠxExC wE",
      "ĠxDwA wG",
      "ĠxDwA vD",
      "ĠxEwBwG wDvBvG",
      "ĠyE xE",
      "ĠyE xA",
      "ĠwGwE vA",
      "ĠxEwB vG",
      "ĠxGxC wA",
      "ĠxFxC wF",
      "vBvG j",
      "xExC wC",
      "ĠxExCwA wEvA",
      "ĠxDj wG",
      "ĠxDj xCvGj",
      "ĠxFj xDwBwFjvB",
      "ĠwAj wFvAj",
      "ĠwAwD vA",
      "ĠxCwD j",
      "ĠxAxExC wG",
      "ĠyCxA xFxCwF",
      "ĠwCj vA",
      "ĠuG j",
      "ĠwDj vAjvDj",
      "ĠwDwC vG",
      "wDvA vD",
      "ĠxFwBwG vG",
      "ĠxCwGjwD j",
      "j wC",
      "ĠwB vF",
      "ĠwB wAvA",
      "ĠwD uG",
      "ĠwF uA",
      "wF vF",
      "wF wDvG",
      "ĠxF vE",
      "ĠvA vAvC",
      "ĠxA wC",
      "ĠxA wE",
      "ĠxA xFxC",
      "ĠyC j",
      "ĠwBwG wC",
      "wBwG vG",
      "ĠxDwG vA",
      "ĠxDwG wEvA",
      "ĠxDwG vBvG",
      "xD j",
      "ĠwGwD wC",
      "ĠwGwD uB",
      "ĠwGwD vAvE",
      "ĠwAwF vG",
      "ĠxDwA vA",
      "ĠxDwA wE",
      "ĠxEwBwG wEvBvE",
      "ĠyD xE",
      "ĠwEwC vF",
      "ĠxFxC wG",
      "xF j",
      "ĠwCvG vD",
      "ĠxEwA vF",
      "ĠwBwGwD vE",
      "ĠxDwF j",
      "ĠxFj wA",
      "ĠxCwGwC vE",
      "ĠxBxG wG",
      "ĠwAwEwC uA",
      "ĠxCwGwD vE",
      "ĠxCwGwD vBvG",
      "ĠyA yE",
      "ĠxFwAwF vD",
      "ĠxBxGj xD",
      "ĠxC uG",
      "ĠwG wG",
      "ĠwG uB",
      "ĠxD uA",
      "ĠxD wEwC",
      "wG vD",
      "wG wDvBvG",
      "ĠwB wAwF",
      "ĠwB vFj",
      "wE vC",
      "ĠxG xExC",
      "ĠwF vC",
      "ĠwF uB",
      "xC vF",
      "ĠvA vD",
      "ĠvB vF",
      "ĠvB vD",
      "ĠyC wC",
      "ĠxCwA vG",
      "xE wA",
      "ĠwGwD vC",
      "ĠwAwE vF",
      "ĠwAwF j",
      "ĠyE wG",
      "ĠyE wA",
      "ĠyE xG",
      "wAwF vF",
      "ĠxEwB vA",
      "ĠxGxC wAwF",
      "ĠxGxC wAvF",
      "ĠxFxC wC",
      "ĠxEwG wC",
      "xExC wAvA",
      "ĠwGwC vA",
      "vAj vF",
      "xF xD",
      "ĠwAwC vAvE",
      "ĠxGxD wBwG",
      "ĠwBwGwD vB",
      "ĠxCj vA",
      "ĠxFj xD",
      "ĠwAj vAj",
      "ĠwAwD wC",
      "ĠxCwAwF vA",
      "ĠwBwGj wEvBvE",
      "ĠwAwFwC vD",
      "ĠxEwAwF vD",
      "ĠwGwEwC vGvC",
      "ĠvGj vE",
      "ĠwCvF vCuF",
      "ĠxCwGwEwC vGvC",
      "ĠwBwF wDvG",
      "ĠxDwGwE vE",
      "ĠxGxCwG vA",
      "j vA",
      "ĠxE wEvA",
      "wG wD",
      "ĠwB wEvA",
      "wC vC",
      "wE vB",
      "ĠxG vFj",
      "ĠxF vB",
      "ĠxF vGj",
      "ĠxCwG vC",
      "ĠxExC wD",
      "ĠxExC wAwFvA",
      "ĠyC wE",
      "ĠxB wA",
      "ĠvF vC",
      "ĠxCwA j",
      "ĠxCwA wAvG",
      "ĠxDwG wEvBvE",
      "xD vF",
      "ĠwGwD vA",
      "ĠwAwF vE",
      "ĠxEwBwG wC",
      "ĠyD xC",
      "ĠyE wE",
      "wEwC vG",
      "ĠwGj vA",
      "ĠwGj vGj",
      "ĠxCvA j",
      "xG xC",
      "ĠxExCwG vG",
      "ĠxExCwG vC",
      "ĠxExCwG wEvA",
      "wDvG j",
      "ĠxEwG vE",
      "ĠwCvG vF",
      "xA vA",
      "ĠwFwC vD",
      "ĠxGxD wAwEvA",
      "ĠxCj wGj",
      "ĠxDwF vC",
      "ĠxGj wB",
      "ĠwBwE vE",
      "ĠxFxD wGwDvBvG",
      "ĠwAwD vD",
      "ĠxBxG xD",
      "ĠxCwAwF wCvF",
      "ĠwFwD vD",
      "ĠxEwBwGj wE",
      "ĠxEwAwF vA",
      "ĠxAxD vD",
      "ĠxDxC vA",
      "ĠxFwA j",
      "ĠyCxG xExC",
      "ĠxCwFwC vD",
      "ĠyDxB xG",
      "ĠwAvB vFvC",
      "ĠwDvBvG vD",
      "ĠxExCj wAwEvA",
      "ĠzC yF",
      "ĠxBxD vG",
      "ĠwBwAwF wC",
      "ĠwAwDwC vAvCuF",
      "ĠxCwAwAvG vF",
      "j vB",
      "Ġ uF",
      "ĠxE uA",
      "ĠxE wFj",
      "ĠwA uB",
      "ĠwA wGwC",
      "ĠwB vC",
      "ĠwB wDvG",
      "ĠwE uG",
      "ĠwE vBvGj",
      "ĠwC uB",
      "wE vF",
      "ĠwD uA",
      "ĠwD vGj",
      "xC wF",
      "xC wGj",
      "wF wCvF",
      "ĠxF wE",
      "ĠxF wGj",
      "ĠvA vG",
      "ĠxA wG",
      "ĠxA vB",
      "ĠxA wGj",
      "ĠxA xFxCwF",
      "ĠxExC vE",
      "ĠyC xFxC",
      "ĠxCwA vE",
      "ĠxCwA vFj",
      "wBwG wD",
      "ĠxDwG wEwC",
      "ĠxDwG jwD",
      "ĠwAwE wD",
      "ĠyE wGj",
      "ĠwEwC uA",
      "ĠxDvG j",
      "ĠwGwE vC",
      "ĠxEwB vB",
      "ĠxEwB vD",
      "ĠxEwB wFvG",
      "ĠxGxC wGwC",
      "ĠxGxC wAvA",
      "vBvG vD",
      "ĠxEwG vA",
      "ĠxEwG vG",
      "ĠxEwG vD",
      "ĠxEwG vC",
      "ĠxCvG j",
      "ĠwGwC vG",
      "ĠwGwC uF",
      "ĠxExCwA wD",
      "ĠxEwE uA",
      "ĠxEwA j",
      "ĠwAwC j",
      "xA wA",
      "ĠxDj wB",
      "ĠxDj vGj",
      "ĠxCwE uB",
      "ĠxCj wA",
      "ĠxGj vE",
      "ĠxGj xDj",
      "ĠyG xB",
      "ĠyG yCxG",
      "ĠwAj vG",
      "ĠwAj wF",
      "ĠyF wD",
      "ĠxFxD wD",
      "ĠwDvA vF",
      "ĠxBxG wE",
      "ĠxBxG xDwG",
      "ĠwEvA vF",
      "ĠxAxC j",
      "ĠwBwGj wEvE",
      "ĠwFwD vAvD",
      "ĠwAwFwC vAvF",
      "ĠwAwEwC j",
      "ĠxAxE wAwEvA",
      "ĠyCxA wA",
      "ĠxFwA wD",
      "ĠxFxCwA wD",
      "ĠxFxCwA vF",
      "ĠwBwF wD",
      "ĠxFxDwA wD",
      "ĠyCxG xDwG",
      "ĠxGxCwG vE",
      "ĠyDxB wG",
      "ĠvGvD uG",
      "yE xA",
      "ĠyDxG wG",
      "xCwG wEwC",
      "ĠxAxF j",
      "ĠyCxF xD",
      "ĠxBxGjxE wBwE",
      "ĠxFxDwAj wFvAj",
      "ĠwBwGjwD vE",
      "ĠyAyE yC",
      "ĠxC wCvF",
      "ĠwG vDj",
      "ĠxE uB",
      "ĠxE wCvF",
      "ĠwA wA",
      "ĠwA wAvA",
      "ĠwB uB",
      "ĠwB vCj",
      "wC vGvC",
      "ĠwC vAvEuA",
      "ĠwC vBvGvD",
      "ĠxG wGwC",
      "ĠxG xEwC",
      "ĠwF vE",
      "ĠwF vAj",
      "ĠwF vCj",
      "xC wE",
      "xC wAwEvA",
      "ĠxF vAj",
      "ĠvA uB",
      "ĠvA vCuF",
      "ĠvG vC",
      "ĠvB uG",
      "ĠvB vGj",
      "ĠvB vFvC",
      "ĠxExC vF",
      "ĠxExC wAwF",
      "ĠvE uA",
      "ĠxB xC",
      "ĠxB xDwB",
      "ĠwBwG vB",
      "ĠxDwG vC",
      "xD vD",
      "xE vF",
      "ĠwAwE wE",
      "ĠwAwE vE",
      "ĠwAwE vC",
      "ĠwAwE wDvD",
      "ĠxDwA vG",
      "ĠxDwA wGwC",
      "ĠxEwBwG wDvG",
      "ĠyD wA",
      "ĠyE vA",
      "ĠyE wF",
      "wEwC vA",
      "ĠwGj wDvBvE",
      "ĠwEwC vA",
      "ĠwEwC vD",
      "ĠxCwC vA",
      "ĠxEwC vD",
      "ĠwGwE uB",
      "wAwF wCvF",
      "ĠxFxC vA",
      "ĠxFxC wAvA",
      "ĠxFxC wGj",
      "ĠxCwF j",
      "ĠxEwG wGwC",
      "ĠxEwG wCvG",
      "xExC vA",
      "ĠwGwC vE",
      "ĠwGwC vGvC",
      "ĠwGwC vGvE",
      "ĠxDwAwF j",
      "ĠxDwAwF vG",
      "ĠxDwAwF vAj",
      "ĠxDwAwF jwD",
      "ĠxDwB vE",
      "ĠxDwB vD",
      "ĠxDwB wFvG",
      "ĠxEwA vA",
      "ĠxEwA vFj",
      "ĠxEwA wGvF",
      "xA xF",
      "ĠxDj wE",
      "ĠxDj wA",
      "ĠxDj wAj",
      "ĠxDj xCwGj",
      "ĠwFj vA",
      "ĠwFj vD",
      "ĠwFwC vE",
      "ĠwFwC vAvD",
      "ĠxGxD vG",
      "ĠwBwGwD uB",
      "ĠwGwDvG vD",
      "ĠxCj wCj",
      "ĠxCj wAwE",
      "ĠxDwF vG",
      "ĠxGj wE",
      "ĠyG yD",
      "ĠyF j",
      "ĠxFxD wAvA",
      "ĠxCwD wC",
      "ĠwEvA vC",
      "ĠwBwD j",
      "ĠwDvG vD",
      "ĠxGwBwG wEvBvE",
      "yC vA",
      "ĠxDwBwG wD",
      "ĠwAwFwC vC",
      "ĠxCwEwC vF",
      "ĠxCwEwC vGvE",
      "ĠwCvA vC",
      "ĠwAwEwC vE",
      "ĠxAxExC wF",
      "ĠwBwC vAvE",
      "ĠxAxE vA",
      "ĠyCxA xE",
      "ĠyCxA xF",
      "ĠwCj uA",
      "ĠxFwB wE",
      "ĠxFwB wD",
      "ĠxFwB vE",
      "ĠwCvF vC",
      "ĠxGwE uA",
      "ĠxFwA wGvD",
      "ĠvBvG vD",
      "ĠyCxE vA",
      "ĠxDwGwE vC",
      "ĠxBxE vA",
      "ĠxDwGj vE",
      "ĠyEyC xC",
      "ĠyEyC xG",
      "ĠxAwAwF wD",
      "ĠyDxG xD",
      "wCj vGvD",
      "ĠwEwCvG vF",
      "ĠyCxF xDwG",
      "ĠzC yExA",
      "ĠxEwBwA wEvBvE",
      "ĠxExCwFj wD",
      "ĠwAwCvA vAvCuF",
      "ĠwBwGjwD vB",
      "ĠxDwAwG vG",
      "ĠwDwCvG uF",
      "ĠyDxE wG",
      "ĠyExG xExC",
      "vAjvF uAj",
      "ĠyCxGxExC wGwC",
      "ĠzCyF yC",
      "ĠxGjxDj xCvGj",
      "j wFj",
      "j vAjvDj",
      "y G",
      "ĠxC vDj",
      "ĠxE vFj",
      "ĠxE xDwB",
      "ĠxD vFj",
      "ĠwA uG",
      "ĠwA vDj",
      "wG vG",
      "ĠwB wBwGwD",
      "ĠwE vAvE",
      "ĠwE vGj",
      "ĠwE vGvC",
      "wC vD",
      "wA vD",
      "ĠwD wCvF",
      "ĠwD wDvG",
      "ĠwD vAvE",
      "ĠwD vFj",
      "ĠxG wCvF",
      "wD vF",
      "wD vC",
      "wD vAjvFuAj",
      "ĠwF wE",
      "ĠwF vAvF",
      "ĠwF uAj",
      "ĠwF wDvGj",
      "xC uA",
      "xC wEwC",
      "wF vD",
      "ĠvA vDuG",
      "ĠvG vF",
      "wB wC",
      "ĠxA wB",
      "ĠvB uA",
      "ĠvB vFj",
      "ĠxExC vC",
      "ĠyC wD",
      "ĠyC xD",
      "ĠxB vA",
      "ĠxB wC",
      "ĠxB wD",
      "ĠxB vF",
      "ĠxB wBwGvG",
      "ĠxB xFj",
      "ĠxCwA wEwC",
      "ĠwBwG vC",
      "ĠwBwG uA",
      "ĠwBwG wEwC",
      "xD vA",
      "xD vE",
      "xD wAwF",
      "ĠwGwD vAvF",
      "ĠwGwD wCvG",
      "ĠwAwE vG",
      "ĠwAwE vFj",
      "ĠwAwF wDvA",
      "ĠwAwF wDvAvD",
      "ĠxDwA vB",
      "ĠxDwA jwD",
      "ĠyD vA",
      "ĠyD wB",
      "ĠyD xF",
      "ĠyD xDwG",
      "ĠyE xB",
      "wEwC uA",
      "ĠwGj vF",
      "ĠwGj wDj",
      "ĠwEwC vAvE",
      "ĠwAvA vC",
      "ĠxExCwG vE",
      "ĠxCwC vAvC",
      "ĠxEwB wE",
      "ĠxEwB wD",
      "ĠxEwB vF",
      "ĠxEwB vFj",
      "ĠxEwB wAwEvA",
      "ĠxGxC wE",
      "ĠxGxC vF",
      "ĠxGxC wAwD",
      "ĠxFxC wAwF",
      "ĠxCwF vD",
      "ĠxCwF wDvG",
      "vBvG vDuG",
      "ĠxEwG wD",
      "ĠxEwG vB",
      "xExC wAvF",
      "xExC wAwFvA",
      "ĠwGwC vD",
      "ĠwGwC vC",
      "ĠwGwC jvA",
      "ĠxDwAwF vC",
      "ĠxExCwA wE",
      "ĠxDwB vC",
      "vAj vC",
      "ĠxEwE vC",
      "xF vD",
      "ĠwCvG uG",
      "ĠxEwA vD",
      "ĠwAwC vAvF",
      "ĠxDj vA",
      "ĠxDj vF",
      "ĠxDj wDj",
      "ĠxDvA vC",
      "ĠxCwE uA",
      "ĠwFj wC",
      "ĠwFj vE",
      "ĠwFj wEvB",
      "ĠwFwC vB",
      "ĠxGxD wD",
      "ĠxGxD wGj",
      "ĠxGxD wAwD",
      "ĠwBwGwD vA",
      "ĠwBwGwD vBvG",
      "ĠwBvA vC",
      "ĠxCj wG",
      "ĠxCj vFj",
      "ĠxDwF jwD",
      "ĠyG wB",
      "ĠyG xG",
      "ĠyG yC",
      "ĠxFj wD",
      "ĠwBwE vC",
      "ĠyF yC",
      "ĠxGwB wC",
      "ĠxGwB wE",
      "ĠxGwB vE",
      "ĠwAwD vE",
      "vGj uGj",
      "ĠwBwD vE",
      "ĠwDvG vE",
      "ĠxGwBwG wD",
      "ĠxGwBwG wDvG",
      "ĠxAxC vF",
      "ĠwBwGj vB",
      "ĠwBwGj vGj",
      "ĠxDwBwG wDvG",
      "ĠxDwC vAvC",
      "ĠxGwG vG",
      "ĠwAwFwC vA",
      "ĠwAwFwC vG",
      "ĠxCwEwC vC",
      "ĠxCwEwC uA",
      "ĠxCwEwC uB",
      "ĠwCvA vD",
      "ĠwAwEwC vG",
      "ĠxEwBwGj wEvBvE",
      "ĠxEwAwF j",
      "ĠxAxD wA",
      "ĠxAxE wA",
      "ĠyCxA xEwA",
      "ĠwGwEwC vG",
      "ĠxFwB vG",
      "ĠwBvB vFvC",
      "ĠxFwF vF",
      "ĠxFwA wC",
      "ĠwDvAvD vC",
      "ĠwAwG wE",
      "ĠwAwG wDvG",
      "ĠwGvC j",
      "ĠwBwA jwFj",
      "ĠyCxG wF",
      "ĠyCxG xE",
      "wDvA vG",
      "ĠxGxCwG wD",
      "ĠxDwGj wE",
      "ĠwEvB vC",
      "ĠyDxB xF",
      "ĠyCxExC wG",
      "ĠyEyC xE",
      "ĠyDxG xDwG",
      "ĠxGwA jwC",
      "ĠxFwBwG vE",
      "ĠxGxE wBwE",
      "ĠwBwFj wD",
      "ĠxCwGwF vF",
      "ĠxEwBwA vE",
      "ĠwBwCj uB",
      "ĠwBwEwC vG",
      "ĠxExD wA",
      "ĠxExD wAwD",
      "ĠxGwAwF vF",
      "ĠxDwAj wGwC",
      "ĠxDwAj wFwDvG",
      "ĠyDxD wBwG",
      "ĠxAj xFxD",
      "ĠyExA xF",
      "ĠxAxFxC wA",
      "ĠwBwGwC vA",
      "ĠwCvGvD uA",
      "ĠxDwFj vD",
      "ĠyAyE wA",
      "ĠwAwFj wCjvGvD",
      "ĠwGwCvA vAvEuA",
      "ĠwEvBvGj vE",
      "ĠxDwGjwD vB",
      "ĠxDjwB wD",
      "ĠwDvAvF vCuF",
      "ĠxAxCj wAvA",
      "ĠxBxDwB wDvAvG",
      "ĠwBwAjwFj wCj",
      "ĠxAjxFxD vAj",
      "D yG",
      "j vF",
      "j vE",
      "j wEwC",
      "y A",
      "Ġ ,",
      "ĠxC wB",
      "ĠxC wBwG",
      "ĠxC wDvG",
      "ĠwG uA",
      "ĠwG vBvG",
      "ĠxE vBvGj",
      "ĠxD wDvG",
      "ĠwA wCvF",
      "ĠwA uF",
      "wG wEwC",
      "wG wDvG",
      "ĠwB vBvG",
      "ĠwE wE",
      "ĠwE wDvG",
      "ĠwE vAj",
      "ĠwE wDvA",
      "wC vA",
      "wC vGjuGj",
      "ĠwC vAvE",
      "ĠwC uF",
      "wA wEwC",
      "ĠxG vD",
      "ĠxG vC",
      "ĠxG vAj",
      "ĠwF vB",
      "ĠwF vBvG",
      "ĠwF uF",
      "ĠwF vDj",
      "vF vD",
      "vF uG",
      "vF uAj",
      "xC vC",
      "wF wC",
      "ĠxF wGwC",
      "ĠxF wAvA",
      "vE uB",
      "ĠvA vA",
      "ĠvA uF",
      "ĠvA vAvEuA",
      "ĠvG uA",
      "ĠvG uB",
      "ĠvG uG",
      "wB vA",
      "ĠxA vD",
      "ĠxA xG",
      "ĠxA vFj",
      "ĠxA xGxC",
      "vB vC",
      "vB uA",
      "vD uA",
      "ĠvB vAvE",
      "ĠxCwG wCvF",
      "ĠxExC wFvD",
      "ĠvE vC",
      "ĠyC vB",
      "ĠxB wF",
      "ĠxB vE",
      "ĠxB xF",
      "ĠxB wDj",
      "ĠvF vCuF",
      "ĠxCwA wC",
      "ĠxCwA vD",
      "ĠxCwA vC",
      "ĠxCwA wGvF",
      "wBwG vE",
      "ĠxDwG vF",
      "ĠxDwG vD",
      "xD vG",
      "xD wC",
      "xD wA",
      "xD vB",
      "xD wGwC",
      "xD wBwGvG",
      "xE wD",
      "xE wB",
      "xE vC",
      "xE xD",
      "xE xEvA",
      "ĠwGwD vD",
      "ĠwGwD jvB",
      "ĠwGwD jvAjvDj",
      "ĠwAwE vD",
      "ĠwAwE wDvG",
      "ĠwAwE vCj",
      "ĠwAwF vC",
      "ĠwAwF wDvG",
      "ĠxDwA vAjvC",
      "ĠxEwBwG vB",
      "ĠxEwBwG wDvBvE",
      "ĠyD wE",
      "ĠyD xFj",
      "ĠyE wD",
      "ĠyE xD",
      "ĠyE xExC",
      "ĠyE xFxC",
      "ĠvC uF",
      "wEwC vC",
      "wEwC vGvC",
      "wEwC vGvE",
      "ĠwGj wD",
      "ĠwGj vC",
      "ĠwGj uB",
      "ĠwGj wEvBvE",
      "ĠwGj wEvE",
      "ĠwEwC j",
      "ĠwEwC uG",
      "ĠwEwC vFj",
      "ĠwEwC vGj",
      "ĠwEwC vAvF",
      "ĠwEwC vAvD",
      "xG j",
      "xG wC",
      "xG vF",
      "xG xCvA",
      "xG xCwC",
      "ĠwAvA vFvC",
      "ĠwAvA vFvD",
      "ĠxExCwG wD",
      "ĠxCwC vAvF",
      "ĠxEwC vA",
      "ĠwGwE vG",
      "ĠwGwE wD",
      "ĠwGwE vF",
      "wAwF vG",
      "wAwF vD",
      "wAwF jvB",
      "ĠxEwB wAvA",
      "ĠxGxC vA",
      "ĠxGxC wD",
      "ĠxGxC wF",
      "ĠxGxC jvA",
      "ĠxFxC j",
      "ĠxFxC vD",
      "ĠxFxC wGwC",
      "ĠxCwF jwD",
      "ĠxCwF wDvA",
      "ĠxEwG wEwC",
      "xExC wGvC",
      "ĠwGvG vE",
      "ĠwGvG vC",
      "ĠwGwC j",
      "ĠxDwAwF vE",
      "ĠxDwAwF wDvA",
      "ĠxExCwA uA",
      "ĠxExCwA jwEwC",
      "ĠxCvF j",
      "ĠxDwB vA",
      "ĠxDwB wC",
      "ĠxDwB wE",
      "ĠxDwB wFj",
      "vAj vGj",
      "xF vF",
      "ĠuA j",
      "ĠxEwA wG",
      "ĠxEwA wE",
      "ĠxEwA wGwC",
      "ĠxEwA jwC",
      "ĠxEwA wGvD",
      "ĠxEwA wEvF",
      "ĠwAwEvA vE",
      "xA wD",
      "xA vF",
      "xA xFxC",
      "ĠxDj vE",
      "ĠxDj wAwF",
      "ĠxDj vFj",
      "ĠxCwE vE",
      "ĠxCwE vFj",
      "ĠwFj vB",
      "ĠwFj vGj",
      "ĠwFj wDvA",
      "ĠwFj wDvAvD",
      "ĠwFwC vA",
      "ĠwFwC vC",
      "ĠxGxD wE",
      "ĠxGxD vB",
      "ĠwBwGwD vF",
      "ĠwBwGwD uG",
      "ĠwBwGwD vBvE",
      "ĠxCj vG",
      "ĠxCj wE",
      "ĠxCj wAvA",
      "ĠxCj wAwEvA",
      "ĠxCj wAj",
      "ĠxCj wAwFvD",
      "ĠxDwF uB",
      "ĠxDwF uG",
      "ĠxDwF vGj",
      "ĠxGj wD",
      "ĠxGj vF",
      "ĠxGj xD",
      "ĠyG j",
      "ĠyG wE",
      "ĠyG xC",
      "ĠyG xD",
      "ĠxFj wE",
      "ĠxFj vB",
      "ĠxFj wAvA",
      "ĠxFj xCwF",
      "ĠwAj vDj",
      "ĠwAj wGj",
      "ĠwAj wFvF",
      "vAvE vCj",
      "ĠwBwE vF",
      "ĠwBwE uA",
      "ĠwBwE vGj",
      "ĠyF xD",
      "ĠyF xF",
      "ĠyF yD",
      "ĠxGwB wA",
      "ĠxGwB wD",
      "ĠxGwB vB",
      "ĠxFxD vA",
      "ĠxFxD vAj",
      "ĠwAwD vBvG",
      "ĠwAwD vBvE",
      "ĠxBxG xDwB",
      "ĠxCwD vAjvF",
      "ĠwEvA vA",
      "ĠwEvA vD",
      "ĠwEvA vFj",
      "ĠxCwAwF vG",
      "ĠwBwD vA",
      "ĠwBwD wC",
      "ĠwBwD vBvGvDuG",
      "ĠwDvG vC",
      "ĠxGwBwG wE",
      "ĠxGwBwG wDvBvG",
      "ĠxAxC vA",
      "ĠxAxC wD",
      "ĠxAxC vD",
      "ĠxDwE vG",
      "ĠxDwE vE",
      "ĠxCwGwE vG",
      "ĠxCwGwE vE",
      "ĠxCwGwE wDvG",
      "ĠxCwGwE vBvE",
      "ĠwBwGj wF",
      "ĠwBwGj uB",
      "ĠxGwG vF",
      "ĠxGwG wDvBvE",
      "ĠwFwD vA",
      "ĠwFwD vC",
      "ĠwFwD uA",
      "ĠwFwD vAj",
      "ĠxDvB vC",
      "ĠwAwFwC uAj",
      "ĠwCvA uA",
      "ĠwAwEwC uB",
      "ĠwAwEwC vAvF",
      "ĠxAxExC wC",
      "ĠxEwAwF vB",
      "ĠxEwAwF vC",
      "ĠxAxD vG",
      "ĠxAxD wE",
      "ĠxAxD wF",
      "ĠxAxD wAwD",
      "ĠxAxE wG",
      "ĠxAxE vD",
      "ĠxAxE wAvF",
      "ĠyCxA xFxC",
      "ĠwGwEwC vC",
      "ĠxDxC vG",
      "ĠxDxC vE",
      "ĠxDxC wAvA",
      "ĠwCj vD",
      "ĠwCj vAvEvCj",
      "ĠxFwF vA",
      "ĠxFwA vF",
      "ĠxFwA vE",
      "ĠxFwA vD",
      "ĠwAwG vA",
      "ĠwAwG wCvF",
      "ĠwAwG wEvBvE",
      "ĠwAwG wDvF",
      "ĠxCwGwEwC vA",
      "ĠyA yD",
      "ĠyA yF",
      "ĠxFxCwA vC",
      "ĠwBwA vF",
      "ĠwBwA vB",
      "ĠwBwA uA",
      "ĠwBwA wEvA",
      "ĠwBwA wEvBvE",
      "ĠwDj vC",
      "ĠwDj uGj",
      "ĠwDj wCvGjuGj",
      "ĠxFwAwF vA",
      "ĠxFwAwF vF",
      "ĠwBwF vG",
      "ĠwBwF wCvF",
      "ĠwDwC uA",
      "ĠyCxG vA",
      "ĠyCxG xEwA",
      "ĠwFvA vD",
      "ĠxFwG vG",
      "ĠxFwG vC",
      "ĠxCwAwE wEvA",
      "ĠxCwFwC vG",
      "ĠxCwFwC vC",
      "ĠyCxE wA",
      "ĠxDwGwE vD",
      "ĠxGxCwG vG",
      "ĠxGxCwG wDj",
      "ĠyCxC vA",
      "ĠxBxE wG",
      "ĠxBxE vE",
      "ĠxDwGj wF",
      "ĠxDwGj wFvF",
      "ĠxDwGj wDvGj",
      "ĠwGwDvB uA",
      "ĠwEuA j",
      "ĠwDvB vF",
      "ĠyDxB xC",
      "ĠxCwFwD uG",
      "wDj vAjvDj",
      "ĠwAvB uA",
      "ĠxGwA j",
      "ĠxGwA wG",
      "ĠxFwBwG jvE",
      "ĠvBvE uA",
      "ĠxGxDwB wFwDvG",
      "ĠxCwGj vDj",
      "ĠwBwGwE uG",
      "ĠwEwCvG uB",
      "Ġz DyG",
      "ĠwGvAj vD",
      "ĠwBwFj vG",
      "ĠwBwFj wCj",
      "ĠwEwD uA",
      "ĠwGwEvB vFvC",
      "xCwG vA",
      "xCwG wGvF",
      "xCwG wFwCvF",
      "ĠxAxF wF",
      "ĠxExCj vA",
      "ĠxExCj wAvA",
      "ĠwAwFwD uG",
      "ĠxCwGwF wCvF",
      "ĠxCwGjwD vBvE",
      "ĠxEwGj vB",
      "ĠxEwGj wEvE",
      "ĠwBwCj vE",
      "ĠxFxDwAj vAj",
      "ĠwBwEwC vAvEuA",
      "ĠyDxA xF",
      "ĠxEwGwE vG",
      "ĠxAxDwB vG",
      "wAwE vF",
      "wAwE uA",
      "ĠyDj xC",
      "ĠwGjwE vGj",
      "ĠwAwCvA vA",
      "ĠwAwCvA vAvEuA",
      "ĠxGxDwG wE",
      "ĠxBxGxE vE",
      "ĠxBxGxE wB",
      "yCxG xEwC",
      "ĠxAxDj vF",
      "ĠxAxDj xCwC",
      "ĠxAxDj wBwC",
      "ĠwDvAj uG",
      "ĠwDvAj vFuAj",
      "ĠvGvE uB",
      "ĠxAwBwG vE",
      "ĠyExA wF",
      "ĠwGwEvA uB",
      "ĠxDjwG vB",
      "ĠxCwDj uG",
      "ĠwDwCvG vDuG",
      "xDj wB",
      "ĠwGwDwC uG",
      "ĠwGwDwC vAvEuA",
      "ĠxBxGjxD vB",
      "ĠxDwEwC uA",
      "ĠxGxExC wG",
      "ĠxGxExC vG",
      "ĠvBvF vCuF",
      "ĠwBwGwDvB uA",
      "ĠxFjxD wA",
      "ĠxFjxD wAwFjvB",
      "ĠwBwFwDvG vDuG",
      "wGwD vC",
      "ĠxCwAj vAj",
      "ĠxCwAj wFvAj",
      "wEwCvG vF",
      "ĠxGjwB vE",
      "ĠxBxGxD wBwG",
      "ĠxEwAwFvA uB",
      "ĠxFwAj wCvG",
      "ĠyDxBxG xD",
      "ĠyDxBxG xDwG",
      "ĠzCyF xF",
      "ĠwAwGwC vA",
      "ĠwDvGj vE",
      "ĠwDvGj vD",
      "ĠyGxB xG",
      "ĠyGyCxG wF",
      "ĠwAjwF wDvAjvFuAj",
      "ĠxAxCj wAvG",
      "ĠwAwEwCj uB",
      "ĠxAxFj xDvE",
      "ĠyAyEyC xF",
      "ĠwEwCvA uA",
      "ĠxFxCwGj vF",
      "ĠxCwFj wE",
      "ĠxDwAwFjwD vA",
      "ĠxDjwAj vAjvGj",
      "ĠwGwDvGvD uB",
      "ĠxCjwAwE uA",
      "ĠyGyD wG",
      "ĠxCwDwC uA",
      "ĠwBwDj vFj",
      "ĠxDwBwGwD vE",
      "ĠxCwEwCvGvE vC",
      "ĠxCwEwCvGvE uA",
      "ĠxFwBwD uB",
      "ĠyEyCxG xExC",
      "ĠwFwDvGj uB",
      "ĠvBvFj uB",
      "ĠxCwAwEwC vF",
      "ĠwGwDvAvF vCuF",
      "ĠwGwDwCvG vD",
      "ĠyExB xGj",
      "ĠwGjwDj vDj",
      "ĠxGxDwGj wE",
      "ĠyFyC xAxF",
      "ĠxAxEwA vFj",
      "ĠwAwGwE uA",
      "ĠyExAxF wD",
      "ĠxCwBwG vDj",
      "ĠwEwDvA uA",
      "ĠyDxFj xDvD",
      "ĠxDwBwFj wDvG",
      "ĠwAjwGj vDj",
      "ĠyFyD xG",
      "ĠyAyD j",
      "ĠzDyG xE",
      "C yF",
      "j vG",
      "j uB",
      "j vGj",
      "j uGj",
      "j xDj",
      "j wCjvGvD",
      "z CyF",
      "ĠxC wBwGvG",
      "ĠxC xCwGwGvF",
      "ĠwG vBvE",
      "ĠxE xE",
      "ĠxE wEwC",
      "ĠxE xEvA",
      "ĠxE wEwCvA",
      "ĠxE wEwCvGvF",
      "ĠxD xD",
      "wG vA",
      "wG wE",
      "wG wEvA",
      "wG wEvBvE",
      "wG vDj",
      "wG wDj",
      "wG wDvBvE",
      "wG wEvC",
      "wG wGwDvG",
      "ĠwB wB",
      "ĠwB uG",
      "ĠwB vDj",
      "ĠwE vBvG",
      "ĠwE vFj",
      "ĠwE wDj",
      "ĠwE wDvGj",
      "ĠwE vBvGvDuG",
      "vA vG",
      "vA uF",
      "vG uA",
      "wC uA",
      "wC uF",
      "wC vAvF",
      "wC vBvGvD",
      "ĠwC wC",
      "ĠwC vFj",
      "ĠwC vBuA",
      "wE vD",
      "wE vBvGj",
      "wE wEwCvA",
      "wA vC",
      "wA uA",
      "wA wEvBvE",
      "wA wEwCvA",
      "wA wCvA",
      "ĠwD wD",
      "ĠwD vBvE",
      "ĠwD uF",
      "ĠwD vDj",
      "ĠxG uA",
      "ĠxG wEwC",
      "ĠxG wEvA",
      "ĠxG wAvF",
      "ĠxG wEwCvG",
      "ĠxG wEwCvA",
      "ĠxG wEwCuA",
      "wD wC",
      "wD vE",
      "wD uA",
      "wD vFj",
      "wD vAvF",
      "ĠwF vGj",
      "ĠwF wFwCvF",
      "vF vDuG",
      "xC wD",
      "xC vE",
      "xC vD",
      "xC wAwF",
      "xC wAvA",
      "xC uF",
      "xC wDj",
      "xC wCj",
      "xC wDvAvD",
      "xC wFwDvG",
      "xC jvA",
      "xC xCwGwGvF",
      "xC wAwEvF",
      "wF wD",
      "wF vBvG",
      "wF wCvC",
      "ĠxF vC",
      "ĠxF uA",
      "ĠxF xE",
      "ĠxF wCvF",
      "ĠxF vBvG",
      "ĠxF vFj",
      "ĠxF vDj",
      "ĠxF wEwCvGvF",
      "vE uA",
      "ĠvA uG",
      "ĠvA vFj",
      "ĠvG uF",
      "ĠvG vDj",
      "wB vG",
      "wB vE",
      "wB vD",
      "wB wEvA",
      "wB wEvBvE",
      "ĠxA uA",
      "ĠxA wDvG",
      "ĠxA vAj",
      "ĠxA xA",
      "ĠxA wAvA",
      "ĠxA wDvA",
      "ĠxA wGvF",
      "vB vCj",
      "vB vDuA",
      "ĠvB vA",
      "ĠvB vC",
      "ĠvB vDj",
      "ĠxCwG wG",
      "ĠxCwG vB",
      "ĠxCwG uB",
      "ĠxCwG vAj",
      "ĠxExC vAvE",
      "ĠxExC wFvF",
      "ĠxExC wFwC",
      "ĠxExC wBwEvBvE",
      "ĠyC vF",
      "ĠyC vE",
      "ĠyC vC",
      "ĠyC wFj",
      "ĠyC xDwG",
      "ĠyC xFxCwF",
      "ĠyC wBwGvE",
      "ĠxB xA",
      "ĠxB xFxC",
      "ĠxB xDwG",
      "ĠxB xFxD",
      "ĠxB xCwF",
      "ĠxB wBwGvE",
      "ĠvF vDuA",
      "ĠxCwA uA",
      "ĠxCwA jwD",
      "ĠxCwA wDj",
      "ĠxCwA wGwGwDvG",
      "ĠwBwG vF",
      "ĠwBwG vDj",
      "ĠwBwG wCvG",
      "ĠwBwG vFuG",
      "wBwG wG",
      "wBwG vA",
      "wBwG wC",
      "wBwG wCvA",
      "ĠxDwG uB",
      "ĠxDwG wFvG",
      "ĠxDwG wFvF",
      "ĠxDwG wFvBvG",
      "xD wD",
      "xD vC",
      "xD wAvF",
      "xD wAvD",
      "xD xCwDvAvD",
      "xE vG",
      "xE wE",
      "xE wF",
      "xE vD",
      "xE wCvF",
      "xE wAvF",
      "xE wGvC",
      "xE wBwE",
      "xE wAj",
      "xE wAwFvF",
      "xE wEwCuA",
      "xE wGwEvC",
      "xE wBwGwC",
      "ĠwGwD vF",
      "ĠwAwE uG",
      "ĠwAwE vAj",
      "ĠwAwF uG",
      "ĠwAwF vBvG",
      "ĠwAwF vAj",
      "ĠwAwF jwD",
      "ĠwAwF vAjvF",
      "ĠwAwF wEvF",
      "ĠxDwA wC",
      "ĠxDwA uA",
      "ĠxDwA wDvG",
      "ĠxDwA wDvA",
      "ĠxDwA wGvF",
      "ĠxEwBwG vA",
      "ĠxEwBwG vFj",
      "ĠxEwBwG wDvA",
      "ĠxEwBwG wEvE",
      "ĠxEwBwG wDvE",
      "ĠyD wF",
      "ĠyD vB",
      "ĠyD vD",
      "ĠyD vAj",
      "ĠyD yCxG",
      "ĠyD wBwGwG",
      "ĠyE vG",
      "ĠyE wC",
      "ĠyE wB",
      "ĠyE wFj",
      "ĠyE yD",
      "ĠvC uA",
      "ĠvD uA",
      "ĠwGj uA",
      "ĠwGj wEvA",
      "ĠwGj vFj",
      "ĠwGj wCj",
      "ĠwGj vBvGj",
      "uB uB",
      "ĠwEwC vAvEuA",
      "ĠxCvA uA",
      "xG wG",
      "xG wD",
      "xG wF",
      "xG xExC",
      "xG wGwC",
      "xG xCwGwC",
      "xG wBwGvG",
      "xG wAwFvF",
      "xG xDvE",
      "xG xDwD",
      "xG xEwBwE",
      "ĠwAvA j",
      "ĠwAvA vE",
      "ĠxExCwG vB",
      "ĠxExCwG vAvE",
      "ĠxExCwG wDvC",
      "ĠxCwC j",
      "ĠxCwC vG",
      "ĠxCwC vD",
      "ĠxCwC uG",
      "ĠxCwC vAvE",
      "ĠxCwC vGvC",
      "ĠxCwC vGvE",
      "ĠxDvG vE",
      "ĠwGwE vE",
      "ĠwGwE vCj",
      "wAwF wDvD",
      "wAwF vAjvC",
      "wAwF jwCjvGvD",
      "wAwF wCvAvF",
      "ĠxEwB vC",
      "ĠxEwB vAvE",
      "ĠxEwB wEvE",
      "ĠxEwB wEvB",
      "ĠxGxC wAwFvA",
      "ĠxFxC vG",
      "ĠxFxC wAwFvA",
      "ĠxFxC wAwFvF",
      "ĠxCwF vA",
      "ĠxEwG vF",
      "ĠxEwG wF",
      "ĠxEwG wCj",
      "ĠxEwG wGvC",
      "xExC wGwC",
      "xExC wGwEwC",
      "xExC wGwDvC",
      "ĠwGvG vD",
      "ĠxCvG vE",
      "ĠxCvG vC",
      "ĠxEvA vE",
      "ĠwGwC vAvF",
      "ĠxDwAwF wD",
      "ĠxDwAwF wCvG",
      "ĠxDwAwF wDvD",
      "ĠxDwAwF jwC",
      "ĠxExCwA wC",
      "ĠxExCwA vC",
      "ĠxDwB wD",
      "ĠxDwB wF",
      "ĠxDwB vB",
      "ĠxDwB vAvE",
      "ĠxDwB vFj",
      "ĠxDwB wCvG",
      "ĠxDwB wFjvB",
      "ĠxDwB wFwDvG",
      "ĠxEwE vF",
      "ĠxEwE vE",
      "xF vA",
      "xF wAwD",
      "ĠwCvG vE",
      "ĠwCvG uA",
      "ĠwCvG uB",
      "ĠwCvG juGj",
      "ĠxEwA vB",
      "ĠxEwA wCvG",
      "ĠxEwA wEvC",
      "ĠwAwC uA",
      "ĠwAwEvA vAvCuF",
      "ĠxDwD vB",
      "ĠxDwD vC",
      "xA wF",
      "xA uA",
      "xA xExC",
      "xA xEvA",
      "xA xFj",
      "xA xCvF",
      "xA xCwF",
      "xA xExCvA",
      "xA xDwBwGvG",
      "xA xExD",
      "ĠxDj wC",
      "ĠxDj xC",
      "ĠxDj vC",
      "ĠxDj wFj",
      "ĠxDvA vE",
      "ĠxCwE vF",
      "ĠxCwE vB",
      "ĠxCwE vC",
      "ĠxCwE uG",
      "ĠwFj vFj",
      "ĠwFj wCj",
      "ĠwFj vAvD",
      "ĠwFj wDvBvE",
      "ĠwFwC vG",
      "ĠwFwC uG",
      "ĠwFwC vGvC",
      "ĠwFwC uGj",
      "ĠxGxD wF",
      "ĠxGxD wAj",
      "ĠxGxD xCwFwDvG",
      "ĠwBwGwD uA",
      "ĠwBwGwD vAvE",
      "ĠwBwGwD jvG",
      "ĠxEvG vE",
      "ĠxCj wD",
      "ĠxCj vF",
      "ĠxCj uA",
      "ĠxDwF wC",
      "ĠxDwF wD",
      "ĠxDwF vB",
      "ĠxDwF wCvD",
      "ĠxGj vAj",
      "ĠxGj vGj",
      "ĠxGj xFxC",
      "ĠxGj xDwB",
      "ĠxGj wDj",
      "ĠxGj xCwGj",
      "ĠxGj xCwDj",
      "ĠxGj xEwAj",
      "ĠyG wG",
      "ĠyG vA",
      "ĠyG vC",
      "ĠyG xExC",
      "ĠyG wGwC",
      "ĠyG yE",
      "ĠxDwGwD jvF",
      "ĠxFj vA",
      "ĠxFj xE",
      "ĠxFj xDjwB",
      "ĠwAj wDvA",
      "ĠwAj uGj",
      "ĠwAj wFwDvG",
      "ĠwAj wEwCvGvC",
      "ĠwAj wDjvAjvDj",
      "wGwC vC",
      "wGwC uF",
      "wGwC vGvC",
      "wGwC vGvD",
      "ĠwBwE vG",
      "ĠwBwE vB",
      "ĠwBwE vD",
      "ĠwBwE vBvC",
      "ĠyF xC",
      "ĠyF xA",
      "ĠyF xB",
      "ĠyF xFxD",
      "ĠyF xAxF",
      "ĠxGwB vA",
      "ĠxGwB wF",
      "ĠxGwB wB",
      "ĠxGwB vBvE",
      "ĠxGwB wCj",
      "ĠxFxD vG",
      "ĠxFxD wC",
      "ĠxFxD wF",
      "ĠxFxD vB",
      "ĠxFxD wGwD",
      "ĠxCwGwC vGvE",
      "ĠwAwD uB",
      "ĠwAwD wCvF",
      "ĠwAwD vAvF",
      "ĠwAwD jvB",
      "ĠwAwD jvAjvDj",
      "ĠwAwD vBuA",
      "vGj vE",
      "vGj vDj",
      "ĠwDvA vAvE",
      "ĠwDvA vFj",
      "ĠwDvA uBuB",
      "ĠxBxG wEwC",
      "ĠxCwD wCvF",
      "ĠwEvA uB",
      "ĠwBwD vB",
      "ĠwBwD uB",
      "ĠwBwD wCvD",
      "ĠwBwD wDvC",
      "ĠwDvG uA",
      "ĠxGwBwG vA",
      "ĠxGwBwG vB",
      "ĠxAxC vG",
      "ĠxAxC wE",
      "ĠxAxC wA",
      "ĠxAxC wCvF",
      "ĠxAxC wAwF",
      "ĠxAxC wEvA",
      "ĠxAxC wAvF",
      "ĠxAxC wBwEvA",
      "ĠwAvG vD",
      "ĠwBvE uB",
      "ĠxDwE vGvD",
      "yC wG",
      "yC wA",
      "yC xC",
      "yC vC",
      "yC xFxC",
      "yC xEvA",
      "yC xExCwC",
      "yC xExCvA",
      "yC xAxEvA",
      "ĠxCwGwE vB",
      "ĠwBwGj wE",
      "ĠwBwGj wDvBvE",
      "ĠxDwBwG j",
      "ĠxDwBwG wC",
      "ĠxDwBwG vB",
      "ĠxDwBwG uA",
      "ĠxDwBwG wCvG",
      "ĠxGwG vA",
      "ĠxGwG wE",
      "ĠxGwG wD",
      "ĠxGwG vE",
      "ĠxGwG vB",
      "ĠxGwG wDj",
      "ĠxGwG wEwCvG",
      "ĠwFwD uB",
      "wFj vDj",
      "ĠxAwA jwC",
      "ĠxCwEwC vE",
      "ĠvAj uAj",
      "ĠwAwEwC vC",
      "ĠwAwEwC vBvDuA",
      "ĠxAxExC j",
      "ĠxAxExC wA",
      "ĠxAxExC wD",
      "ĠxCwGwD vD",
      "ĠxCwGwD vC",
      "ĠxCwGwD jvGj",
      "ĠxEwBwGj vB",
      "ĠxEwBwGj vD",
      "ĠxEwBwGj vGj",
      "ĠxEwAwF wCvF",
      "ĠxEwAwF vAj",
      "ĠvAvE vC",
      "ĠxAxD wBwG",
      "ĠxAxD vFj",
      "ĠxAxD wAj",
      "ĠxAxD wBwGvG",
      "ĠxBwG j",
      "ĠxBwG vG",
      "ĠxBwG wD",
      "ĠxBwG wGwE",
      "ĠxAxE wEwEwCvA",
      "ĠyCxA wD",
      "ĠyCxA wB",
      "ĠyCxA xEwC",
      "ĠyCxA xEvA",
      "ĠxDxC wG",
      "ĠxDxC wGvC",
      "ĠxDxC wGwD",
      "ĠxDxC wGvG",
      "ĠxDxC wAvD",
      "ĠxCwAvA vC",
      "ĠwCj vE",
      "ĠwCj uB",
      "ĠwCj vGj",
      "ĠwCj vDj",
      "ĠwCj vGjuGj",
      "ĠwCj vGuA",
      "ĠxFwB vB",
      "ĠxFwB vC",
      "ĠxFwB vGj",
      "ĠxFwB wAwEvBvE",
      "ĠwGwDvBvG vD",
      "ĠwBvB vD",
      "ĠxGwD j",
      "ĠxFwF wCvF",
      "ĠyExC wG",
      "ĠwAvE uB",
      "xFxC wGwC",
      "ĠwAwG vG",
      "ĠwAwG vF",
      "ĠwAwG vCj",
      "ĠwAwG wDjvAjvDj",
      "ĠwAwG wDuA",
      "ĠxCwGwEwC vG",
      "ĠxCwAwEvA vF",
      "xB xE",
      "xB xDvA",
      "xB xGxDvE",
      "wGj wEvE",
      "ĠyA vA",
      "ĠyA xC",
      "ĠyA wF",
      "ĠyA xF",
      "ĠyA yC",
      "xDwG vB",
      "xDwG wEvA",
      "xDwG wEvC",
      "ĠxFxCwA vD",
      "ĠxFxCwA vGj",
      "ĠxFxCwA wDj",
      "ĠxFxCwA jvF",
      "ĠxEwF vAj",
      "ĠwBwA vG",
      "ĠwBwA wE",
      "ĠwBwA wEvE",
      "ĠwDj vBvE",
      "ĠxGwC vC",
      "ĠxFwAwF wD",
      "ĠxFwAwF wDvAvD",
      "ĠwBwF wDvD",
      "ĠwBwF wCvD",
      "ĠwEvC j",
      "ĠvBvG vDuG",
      "ĠwDwC vD",
      "ĠwDwC uG",
      "ĠwDwC vBvE",
      "ĠxAwF vF",
      "ĠyCxG xEwC",
      "ĠyCxG xDwB",
      "ĠyCxG wEwCvG",
      "ĠyCxG jxDj",
      "wAwEvA vE",
      "ĠxFwG wD",
      "ĠxFwG vE",
      "ĠxBxGj xDwB",
      "ĠxCwAwE vC",
      "ĠxExCwGwC vG",
      "ĠxCwFwC uF",
      "ĠxCwFwC vAvD",
      "ĠxCwFwC vGvD",
      "ĠyCxE wFj",
      "ĠxDwGwE vG",
      "ĠxDwGwE vB",
      "ĠwCvE vC",
      "ĠxGxCwG wE",
      "ĠxGxCwG wF",
      "ĠyCxC wA",
      "ĠyCxC vF",
      "ĠyCxC wDj",
      "ĠxBxE vC",
      "ĠxBxE wBvE",
      "ĠxDwGj vAj",
      "ĠxDwGj wEvB",
      "ĠwGwDvB uG",
      "xDwB vG",
      "ĠxExCwGwEwC vG",
      "ĠxCwFwD vD",
      "ĠxCwFwD uA",
      "ĠwAvC uA",
      "ĠwCvC uG",
      "ĠxDwGwC vA",
      "ĠxExCwGvA vC",
      "ĠvGvD uB",
      "ĠyCxExC wC",
      "ĠyEyC xF",
      "ĠyEyC xA",
      "ĠyEyC xGxC",
      "yE wC",
      "yE wA",
      "yE xC",
      "yE xExC",
      "yE xCwGwC",
      "yE xBxGxDvE",
      "ĠxAwAwF vG",
      "ĠyDxG wE",
      "ĠyDxG wDvG",
      "ĠyDxG xEvG",
      "ĠxGwA vG",
      "ĠxGwA vB",
      "ĠxFwBwG vB",
      "ĠxGxDwB wE",
      "ĠxGxDwB wFvF",
      "ĠxGxE wB",
      "ĠxGxE vB",
      "ĠxGxE xD",
      "ĠxGxE wAj",
      "ĠxCwGj vE",
      "ĠwBwGwE wD",
      "ĠwBwGwE vE",
      "ĠwBwGwE vCj",
      "ĠwDvF uG",
      "ĠwEwCvG vD",
      "ĠwEwCvG uA",
      "ĠwGwF vC",
      "ĠwGwF wCvF",
      "ĠwGwF vBvG",
      "ĠwGwF wCvG",
      "ĠwGwF wCvGvC",
      "ĠwGwF vBvCj",
      "ĠwGvAj vF",
      "ĠwGvAj vE",
      "ĠwGvAj vC",
      "ĠwGvAj uB",
      "ĠwGvAj uG",
      "ĠwBwFj vE",
      "ĠwBwFj vDj",
      "ĠwEwD vD",
      "ĠwEwD vAvE",
      "ĠwDvBvG vDuG",
      "ĠwGwEvB vC",
      "ĠwGwEvB uA",
      "xCwG wEvA",
      "xCwG wEvE",
      "xCwG wEvC",
      "xCvA uA",
      "ĠxAxF wD",
      "ĠxAxF vE",
      "ĠxExCj wA",
      "ĠxExCj wGwEvA",
      "ĠxBwB vG",
      "ĠxBwB wD",
      "ĠxBwB wFwC",
      "ĠwGwDvE vE",
      "ĠwAwEvB vFj",
      "ĠyCxF wD",
      "ĠyCxF vF",
      "ĠwAwFwD uA",
      "wBwE vBvC",
      "ĠxCwGwF vG",
      "ĠxCwGwF wC",
      "ĠxCwGjwD vE",
      "ĠxBxD wA",
      "ĠxEwBwA wEvB",
      "ĠxEwGj vE",
      "ĠxEwGj wDvG",
      "ĠxEwGj wEvBvE",
      "ĠxEwGj wEvBvGj",
      "wFjvB vFj",
      "yD xAxF",
      "ĠwBwEwC vC",
      "ĠwBwEwC uB",
      "ĠwBwEwC juB",
      "wAj vDj",
      "ĠxDwAwD vB",
      "ĠyDxA j",
      "ĠyDxA wA",
      "ĠyDxA xEwA",
      "ĠyDxA xFxD",
      "ĠxEwGwE vGjvE",
      "ĠxExD wC",
      "ĠxExD wF",
      "ĠxExD wAvA",
      "wAwE vB",
      "ĠxGwAwF vD",
      "ĠxGwAwF vGvD",
      "ĠyB wG",
      "ĠyB xG",
      "ĠxBxExC wD",
      "ĠxDwAj vA",
      "ĠxDwAj vG",
      "ĠxDwAj wFvAj",
      "ĠyDj wG",
      "ĠyDj wF",
      "ĠyDj xD",
      "ĠwGjwE vFj",
      "ĠwAwCvA vAvE",
      "ĠxGxDwG vG",
      "ĠxBxGxE wE",
      "yCxG xC",
      "yCxG wF",
      "ĠwCvAvF uF",
      "ĠxExDwG vG",
      "ĠxExDwG wDwC",
      "ĠvGvE vC",
      "ĠxAj xCwCj",
      "ĠxAwBwG wE",
      "ĠxCwGwEvA vC",
      "ĠxDwAwG vA",
      "ĠxDwAwG vE",
      "ĠxDwAwG vD",
      "ĠxDwAwG vDj",
      "ĠyExA xExC",
      "ĠyExA xCvF",
      "ĠwAwDvA uB",
      "ĠxAxExCwG wEvA",
      "ĠxAxExCwG vAvE",
      "ĠxAxExCwG wDvA",
      "ĠyCxAxFxCwF wC",
      "ĠwDwCvG uG",
      "ĠyCj xAwA",
      "ĠwBwGwC vAvF",
      "ĠwGwDwC vE",
      "ĠwGwDwC vC",
      "ĠwGwDwC vBvE",
      "ĠxDwAwE vGj",
      "ĠwEwCvF vCuF",
      "ĠxFxCwG vG",
      "ĠxFxCwG wD",
      "xFj xC",
      "xFj xDwBwFjvB",
      "ĠxDwFj uA",
      "ĠxFjwA vD",
      "ĠxFjwA uB",
      "ĠxBxGjxD wE",
      "ĠwGwG vB",
      "ĠxDwEwC vC",
      "ĠxDwEwC vAvEuA",
      "ĠvAvD uA",
      "ĠvBvF vCj",
      "xEwA wGvF",
      "ĠwAwFj vAvD",
      "ĠyExG wE",
      "ĠxEwGwC vA",
      "xFxD wAwD",
      "ĠxGxDwBwG vAvG",
      "ĠxFjxD wAvA",
      "ĠxFjxD wAvD",
      "ĠxEwEvA vF",
      "wGwD wCvC",
      "wGwD wCvGvC",
      "ĠxFvGj vD",
      "ĠxBwA wG",
      "ĠxCwAj wE",
      "ĠxCwAj wEwC",
      "ĠwGwDvA uA",
      "ĠwGwDvA uB",
      "wEwCvG uA",
      "ĠwGjvGj vE",
      "ĠxCvAj vFuG",
      "xGxC wA",
      "xGxC wAvF",
      "ĠxCjwGj vD",
      "ĠxCjwGj wEvE",
      "ĠxBxGxD vG",
      "ĠxBxGxD vB",
      "ĠxBxGxD wAwEvB",
      "ĠuF j",
      "ĠxEwFj wD",
      "ĠwAwGwC j",
      "ĠwAwGwC vGvD",
      "ĠwBwDvG vG",
      "xCwF wCvG",
      "ĠyCxFxC wD",
      "ĠyCxFxC wAwF",
      "wBwGwD vE",
      "wBwGwD uA",
      "ĠxDwGwEwC vGvC",
      "ĠxEwGvC uG",
      "ĠxEwAj wG",
      "ĠxEwAj wGwC",
      "ĠxEwAj wCj",
      "ĠxDjwB wFjvDj",
      "ĠxGjxDj xC",
      "ĠwAjwF vC",
      "ĠwAjwF vDj",
      "ĠwDvAvF uF",
      "ĠwEvAvF vCuF",
      "ĠwAwEwCj uA",
      "ĠwAwEwCj vAvE",
      "ĠwAwEwCj vAvEuA",
      "ĠwBwFwD uG",
      "yExA xExC",
      "xCwGwEwC vGvC",
      "ĠxAxFj xC",
      "ĠyCxFxD wD",
      "ĠyAyEyC xFxC",
      "ĠwCvBvGvD uA",
      "ĠxGwGwC vG",
      "ĠwFvAj vE",
      "xCwE vG",
      "xCwE uA",
      "ĠxBxDwB wE",
      "ĠxDwAwGwC vA",
      "ĠxFxCwGj wD",
      "ĠxCwFj uA",
      "ĠwGwCvGvE vC",
      "ĠxDwAwFj vD",
      "ĠxDwAwFjwD vAvD",
      "ĠxDjwAj wF",
      "ĠxDjwAj wGwDj",
      "ĠyGyD xEwB",
      "ĠyGyD xBxE",
      "ĠyFj wB",
      "ĠyFj xB",
      "ĠxCwDwC vAvEuA",
      "ĠyCxAxE wFj",
      "ĠyCxAxF wA",
      "ĠxDwGjvE uB",
      "ĠyEyCxG wA",
      "ĠyEyCxG xE",
      "ĠyDxGxD wE",
      "ĠyDxGxD wF",
      "ĠzCyFyC xF",
      "yG wG",
      "ĠxExDwB vE",
      "ĠxExDwB wEvBvE",
      "ĠwEvGj vE",
      "ĠwDwCvF vC",
      "ĠwDwDvG vDuG",
      "ĠwFwE vGj",
      "ĠwFvAvF vD",
      "ĠwFvAvF vC",
      "xCwEwC vC",
      "xCwEwC vAvEuA",
      "ĠxBxFj xDjwB",
      "xDwAwF vD",
      "xDwAwF wDvD",
      "ĠwAwFwDvA uA",
      "ĠyExB xCwE",
      "ĠwGjwDj vAjvDj",
      "ĠxFxCwAwF wD",
      "ĠxCwFwDvG vDuG",
      "ĠwFjwC uGj",
      "ĠxGxDwGj wEvA",
      "ĠxCjwG wEvA",
      "ĠxDwFjwD uB",
      "ĠyGxG wG",
      "ĠyGxG wBwE",
      "ĠyFyC xAxFxC",
      "ĠxEwAwFj vFj",
      "ĠwAwGwE vCj",
      "ĠyCxExCwG vA",
      "ĠwBwFjwD uB",
      "ĠxExDwAwD vF",
      "yA yEwA",
      "ĠxCwB vG",
      "ĠxEvBvGj vD",
      "wAwEwC vF",
      "wAwEwC vAvF",
      "ĠwFvBvG vC",
      "ĠxAxG xDwGvB",
      "ĠvEvC uA",
      "xDwA wGwC",
      "xDwA wGwEwC",
      "xEwB vB",
      "xExD wAwD",
      "ĠwGwDjvB vFvDuG",
      "ĠyExExC wF",
      "wEwCvGvE vC",
      "ĠwGjwD vB",
      "ĠwEwCj vAvEuA",
      "ĠxCwFjwD vD",
      "ĠwGvGvE vC",
      "ĠwGwCj uAj",
      "ĠxEwAwE wDvFj",
      "ĠxEwAwGwC vG",
      "xAxFxC wA",
      "ĠxDjwAwF jwC",
      "ĠwBwGwDvBvE uB",
      "ĠxCjwE vDj",
      "ĠxCjwAj vGj",
      "ĠxCjwAj wFvAj",
      "ĠxGjxD wF",
      "ĠxBxGxDwB vB",
      "ĠwBwGjwF vB",
      "ĠxFwGvC uG",
      "ĠxDwGjwF vFj",
      "ĠxGwAwG wFvF",
      "ĠyDxAxF wB",
      "ĠwGjwEvGj vEuB",
      "ĠxFjxDwA vB",
      "ĠyGxBxG wE",
      "ĠyExBxGj wE",
      "ĠyExBxGj xE",
      "ĠyAyDj xAxFj",
      "zCyF yCxC",
      "ĠwEwDj vDj",
      "ĠwEwDvGj vEuB",
      "wAwCvA vAvCuF",
      "ĠxGwEwCvG vGvD",
      "ĠxGwEwCvA vG",
      "ĠxBxFxD wD",
      "ĠxCwAwDj vFj",
      "ĠwGjwEvA vE",
      "ĠwGjwCj vDj",
      "ĠwGjvBvGj vD",
      "xGxExC vC",
      "ĠwGwCvAvF vCuF",
      "ĠxDwAwFjwC vAvD",
      "xAxExD wE",
      "ĠxGxDwAj wF",
      "ĠxGjxDwB vB",
      "ĠxGjxCwGj wDj",
      "ĠxGjxEwAj wC",
      "ĠxFjxDjwB wFjvBvFj",
      "ĠyFxB xF",
      "vGjvDj uGj",
      "yCxFxC wC",
      "ĠxGwGwDj vAj",
      "ĠxAxDwAj vG",
      "ĠxDxCwGwD wC",
      "ĠxFxCwAwDj wC",
      "ĠyCxGjxDj wF",
      "ĠxBxGjxDwB wE",
      "ĠxGxEwAj wG",
      "ĠxEwGjwEvBvGj vE",
      "yDxAxF wD",
      "ĠyAyDjxAxFj wB"
    ]
  }
}