#version: 0.2 - Trained by `huggingface/tokenizers`
Ġ x
Ġ w
Ġ y
A j
C j
D j
F j
G j
Ġ v
Ġx E
Ġx F
Ġx Fj
Ġx Dj
Ġx D
Ġx G
Ġx Gj
Ġx Cj
Ġx C
Ġx A
Ġx Aj
Ġw B
Ġx B
Ġw Aj
Ġw A
Ġw Gj
Ġw G
w Gj
Ġy C
w G
Ġy Cj
w B
w E
w A
w Aj
w Fj
w F
w D
w Dj
x C
x Cj
Ġw Fj
w Cj
Ġw F
w C
x D
x Dj
Ġw E
v B
Ġy D
Ġy Dj
x E
v Aj
v A
Ġw Dj
Ġw D
x F
x Fj
v Gj
v G
Ġw Cj
Ġw C
Ġy E
Ġ R
x G
x Gj
v Fj
v F
Ġy F
Ġv B
Ġy Fj
Ġv Aj
Ġv A
x A
x Aj
v E
Ġ z
Ġy G
Ġv Gj
Ġv G
Ġy Gj
x B
ĠxE wB
ĠxF xC
ĠxFj xCj
v Dj
ĠxGj xDj
ĠxG xD
v D
ĠxD wA
ĠxDj wAj
Ġy A
Ġy Aj
ĠxA xE
Ġv Fj
ĠxAj xF
ĠxB xFj
Ġv F
ĠxCj wGj
ĠxC wG
ĠxFj xD
ĠxG xDj
ĠxF xCj
ĠxE xC
ĠxGj xE
Ġy B
v Cj
v C
Ġv E
ĠwB wFj
ĠwAj wF
ĠwA wE
y C
ĠyC xG
ĠyCj xGj
y Cj
ĠxA xF
ĠxAj xFj
ĠxFj xDj
ĠxF xD
ĠxG xC
ĠxGj xCj
ĠxDj wB
ĠxE xCj
ĠxD wAj
ĠxCj wA
ĠxC wGj
ĠxDj xC
ĠxF wAj
ĠxE wA
ĠxFj wB
ĠxD wB
ĠxA xD
ĠxAj xDj
ĠwB wG
ĠxB xE
ĠxDj wGj
ĠxD wG
ĠxE wE
ĠxF wF
ĠxFj wFj
ĠxGj xF
ĠxG xE
ĠxCj wAj
ĠxA xFj
ĠxAj xG
u B
ĠxC wA
ĠwGj wDj
ĠwG wD
ĠxB xGj
ĠyD xA
ĠyDj xAj
ĠyC xF
ĠyCj xFj
ĠxDj wDj
ĠxD wD
ĠxG wG
ĠxGj wGj
Ġz C
y D
ĠxCj wCj
Ġz Cj
ĠxC wC
y Dj
ĠxB xG
Ġv Dj
wA wD
Ġv D
wAj wDj
ĠyC xGj
u Aj
wGj wCj
wG wC
ĠyCj xA
wFj vB
ĠxA wA
u A
ĠxAj wAj
ĠyD xAj
wF vAj
ĠyDj xB
ĠxB wB
wE vA
wFj wCj
wF wC
ĠxG wC
ĠxGj wCj
ĠxFj vB
ĠxF vAj
ĠxE vA
ĠxA wD
ĠxAj wDj
ĠwB vB
ĠxE wC
ĠxF wCj
ĠxFj wD
ĠxG wDj
wB wE
ĠxGj wE
ĠxB wE
ĠwAj vAj
ĠwA vA
ĠwFj wCj
ĠwF wC
xC wF
xCj wFj
ĠxCj wFj
ĠxC wF
wDj vGj
wD vG
Ġz D
ĠxDj vGj
Ġz Dj
ĠxD vG
ĠwB wE
ĠxCjwGj wCj
ĠxCwG wC
Ġv Cj
ĠyC xC
ĠwAj wFj
ĠwA wF
ĠyCj xCj
y E
Ġv C
wGj wE
ĠyD xG
ĠyDj xGj
ĠxDwA wD
vB vE
ĠyC wF
ĠyCj wFj
ĠxDjwAj wDj
xDj wB
ĠxF wD
ĠxFj wDj
xD wAj
ĠxD vB
ĠxDj wC
wG wDj
ĠxE wCj
ĠwAjwF vAj
ĠwBwFj vB
ĠxFj wA
wFj wD
ĠxDj vB
ĠxD vAj
ĠwAwE vA
ĠxF wGj
ĠxA wF
ĠxAj wFj
ĠxG wE
ĠxE wG
ĠxG wAj
xD wG
ĠxGj wF
xDj wGj
ĠxCj vA
ĠxEwB wE
ĠyC xA
ĠyE xB
ĠxGj wB
ĠxGj xC
ĠxA xCj
ĠyCj xAj
ĠxC vGj
ĠwAj wDj
ĠyCjxGj xE
ĠxG wB
ĠwA wD
wE wC
ĠwB vG
ĠxGj wDj
ĠxG wD
wF wCj
ĠxAxE xC
ĠxAjxF xCj
ĠxF wC
ĠxFj wCj
ĠxGjxDj wB
ĠxGxD wAj
ĠxBxFj xD
ĠyCxG xDj
ĠxA wFj
ĠxFxC wGj
ĠxFjxCj wA
ĠxEwB wG
ĠxAj wG
y F
ĠxB wGj
ĠxCj vAj
ĠxC vA
ĠxA wE
y Fj
ĠxAj wF
ĠxA xC
ĠxAj xCj
ĠxE vB
ĠxB wFj
ĠwGj wCj
ĠwG wC
ĠwB wGj
wA wF
wAj wFj
ĠwGj vGj
ĠxDj vAj
ĠxD vA
ĠwG vG
ĠyD xD
ĠyDj xDj
ĠxFjxD wA
ĠxGxDj wAj
ĠxGjxE wB
ĠxFxCj wGj
ĠxExC wG
ĠxE wD
ĠxDj wFj
ĠxD wF
ĠxF wDj
ĠxFj wE
ĠyCj xE
xE xC
xF xCj
ĠwGwD vG
ĠwGjwDj vGj
ĠxCj vFj
ĠxFxC wF
ĠxFjxCj wFj
ĠxB wG
ĠxC vF
ĠyC wGj
ĠxB xD
xFj xD
ĠwAj wG
ĠwGj wE
ĠwF wCj
ĠwE wC
ĠwG wDj
ĠyCj wA
xG xDj
vAj vDj
ĠxB vB
ĠwFj wD
ĠwG wE
ĠyC xDj
ĠyE xA
ĠxDj wCj
ĠxD wC
ĠxA vA
ĠxAj vAj
ĠyFj xB
ĠyD wAj
ĠyDj wB
ĠyF xAj
ĠyD wG
ĠyDxA xF
ĠyDjxAj xFj
ĠxAxF xC
ĠxAjxFj xCj
ĠyDj wGj
vA vD
xGj xE
ĠxG wF
ĠxGj wFj
ĠyC wC
ĠyCj wCj
ĠxCj wE
ĠxC wDj
ĠyD wD
ĠyDj wDj
ĠwB wD
ĠwAj vFj
ĠwA vF
ĠyF yC
ĠyFj yCj
ĠwA wFj
wFjwCj vFj
wFwC vF
ĠwGj wF
ĠyD xF
ĠyDj xFj
ĠxC vAj
ĠxCj vB
ĠxGjxDj wGj
ĠxGxD wG
ĠxGj vGj
ĠxG vG
ĠyD xB
ĠwB vA
wA vA
ĠxGjxDj xC
wB wG
ĠyC wG
ĠyCj wGj
ĠxAxE xCj
ĠxF wG
ĠxAj xD
ĠxCj vGj
ĠxC vG
ĠwFjwCj vFj
ĠwFwC vF
ĠxFj wGj
ĠyCjxA xE
ĠxB xDj
ĠxFj wAj
Ġz E
y G
ĠyDj yC
u Gj
ĠyE xE
ĠyDxAj xF
ĠyDjxB xFj
ĠxF wA
Ġ uB
ĠxE wFj
ĠxAj xC
ĠxA wG
ĠxAj wGj
ĠxDj wF
ĠxD wE
ĠyE yCj
ĠxFjxDj wB
ĠxE wGj
ĠwFj vB
vGj vCj
vG vC
ĠxFxD wAj
ĠxGxDj xC
ĠxGjxE xCj
u G
ĠwAj wCj
ĠwA wC
ĠwF vAj
ĠyF xA
ĠyFj xAj
wDj vB
ĠxB xCj
wD vAj
ĠxGj wAj
ĠwE vA
ĠxDj wG
vB vG
ĠyE wE
ĠxBxG xD
ĠxF vF
ĠxFj vFj
ĠxG wA
ĠwFj vFj
wCj vA
ĠwF vF
ĠxG vAj
y Gj
ĠxFj vA
ĠxGj vB
ĠxF vGj
wC vGj
ĠxFjxD wB
ĠyCxGj xDj
ĠxD wFj
ĠxDjxC wGj
ĠwE vB
ĠxDwB wG
ĠxC wE
ĠxE vG
ĠyF xF
ĠyFj xFj
ĠxCj wF
ĠxA wB
ĠwB vE
ĠxFjxCj wAj
ĠxFxCj wAj
ĠxC wD
ĠxCj wDj
ĠxA wC
ĠxAj wCj
xD wD
xDj wDj
ĠyC wA
ĠyCj wAj
ĠxBxGj xE
ĠxDj xCj
ĠxD xC
ĠxCjwA wE
ĠxFj xE
ĠxFxC wA
ĠxCwGj wDj
ĠxGjxF xCj
ĠxGxE xC
ĠwB vGj
ĠxDjwB wFj
ĠxDwAj wF
ĠwDj vAj
ĠwD vA
xF wAj
ĠxAj xDwAj
ĠxB xDjwB
ĠyC xE
ĠwBwG wD
yD xAj
Ġ uAj
ĠwAj vGj
ĠwA vG
ĠxGjxC wGj
ĠxGxD wB
yDj xB
ĠxGwB wG
Ġ uA
ĠxGj vAj
ĠxGj xFj
ĠxA vB
ĠxAj wC
ĠxB wD
ĠxB wCj
ĠxE vE
ĠxG vA
ĠxC wAj
ĠwAj vG
xF wF
ĠyF wF
ĠyFj wFj
ĠxAjxF xD
ĠxBxFj xDj
ĠxFj xC
ĠyD xFj
ĠxBxG xE
ĠyCjxA xFj
ĠyC wDj
ĠyCj wE
ĠxG xCj
wA wE
ĠyDxAj xG
ĠyDjxB xGj
ĠxCj wB
ĠwA vFj
ĠxE xD
ĠxF xDj
ĠxGxC wG
ĠxGjxCj wGj
ĠyCj xF
Ġz F
ĠxDwA wF
ĠxDjwAj wFj
ĠwE vE
ĠyDj xG
Ġz Fj
ĠxAjxDj wAj
ĠwGj vF
ĠxExC wA
ĠxBxE wB
ĠyE wA
ĠwG vE
ĠxAxF xD
ĠxAjxFj xDj
ĠyF wAj
ĠwE vBvE
ĠyE xGj
ĠyFj wB
ĠxB wA
xE wA
ĠyC xExC
ĠyCj xFxCj
ĠxExCj wA
ĠwB wCj
ĠyD xFjxD
ĠyDj xGxDj
ĠxEwA wE
ĠxG xF
ĠxAxE wA
ĠxAxD wA
ĠxDjwGj wDj
ĠxDwG wD
ĠyC wAj
ĠyCj wB
ĠwFj wDj
ĠwF wD
ĠwDj vGj
ĠwD vG
ĠyE xGjxE
ĠxAj xE
ĠyD wA
ĠyDj wAj
ĠxFwAj wF
ĠxFjwB wFj
ĠxA xDj
ĠxAjxF wAj
ĠxBxFj wB
ĠxF wB
ĠwCj vGj
ĠyG yC
ĠyGj yCj
ĠxEwB wGj
ĠxF vG
ĠxFj vGj
ĠwC vG
ĠyE xC
ĠyF xCj
ĠyC wD
ĠyCj wDj
vB vFj
ĠyDj xC
ĠyE xCj
ĠyG xG
ĠwAj wC
ĠwA vB
vAj vF
ĠyGj xGj
ĠxGj xD
wGj wDj
ĠyFj xD
xFj wB
ĠyG xDj
ĠyCxF xC
ĠyCjxFj xCj
ĠxA xG
vA vE
ĠxFxCj wGjwCj
ĠxExC wGwC
ĠxAxFj xD
ĠxAjxG xDj
ĠyD wB
ĠyGj xE
ĠyCxGj xF
ĠxG vB
ĠxAj xGj
ĠxFjxD wAwD
ĠxCjwA wEvA
ĠyCjxAj xFj
ĠxB wDj
ĠwAj vDj
ĠxDj vFj
ĠxGj wC
ĠxA wCj
ĠxAj wD
ĠwB wA
ĠyE xG
ĠxGxDj wAjwDj
ĠxDjwB wFjvB
ĠxDwAj wFvAj
ĠxCwGj wDjvGj
ĠwBwG wDvG
ĠxD vF
ĠwA vD
ĠxGjxE wBwE
ĠxCjwAj wFj
ĠxCwA wF
ĠxAxCj wA
ĠyC xD
ĠyCj xDj
ĠxEwB wGjwE
ĠxAjxDj xC
y A
ĠwB vFj
ĠyF xGj
ĠxFjxDj vB
ĠxFxD vAj
ĠxBxE xCj
ĠyDjxAj xG
y Aj
ĠwGj vAj
ĠwG vA
ĠwDj vAjvDj
ĠxGjxF wCj
ĠxGxE wC
ĠxAxFj wD
ĠxAjxG wDj
ĠwB wDj
ĠxExCj vA
ĠwA wCj
ĠyCxG xE
ĠyG yD
ĠxDjxC vGj
ĠxE vFj
ĠwAj wD
ĠyE wB
ĠxDjwAj wGwDj
yDj xAj
ĠyE yC
ĠyG yE
ĠxDwA wFjwD
ĠwAj vF
ĠwA wG
ĠwA vE
ĠwGj vB
ĠyG xC
ĠyGj xCj
ĠyGj yF
ĠxDj vF
ĠwGj wC
wGj wDjvGj
ĠyC vA
ĠyCj vAj
ĠyF yCj
ĠyG wG
ĠyCjxGj xF
ĠyDxA xFj
ĠxF vA
ĠxFj vAj
ĠyGj wGj
ĠxFjxD wD
ĠxGxDj wDj
ĠxFxCj wCj
ĠxExC wC
ĠwD vAvD
ĠyFj xA
ĠxCjwGj wFwCj
ĠxCwG wEwC
ĠxD vE
ĠxB xF
ĠwG vB
ĠyCj xG
wD vA
ĠyD vB
ĠyA yFj
ĠyAj yG
ĠxGjxE wE
yD xA
wE vB
ĠyDj wC
ĠyE wCj
ĠxDwB vG
ĠxBxGj wE
ĠyFjxAj xFj
ĠyC xFj
ĠyG xAj
wDj vAj
ĠyGj yDj
ĠxAxD wB
ĠwGj vFj
ĠyD wF
ĠxE wAj
ĠwG vAj
ĠwG vF
wCj vGj
wC vG
ĠyDj wFj
xGj xCj
ĠxFxC wG
ĠxDjwAj wG
ĠxA vFj
ĠxAj vG
ĠxB vGj
ĠyGj xB
ĠxDwA wFj
ĠxDj vDj
ĠxD vD
ĠxGj vF
ĠyDj xA
ĠwDj vDj
ĠwD vD
ĠxDj wA
ĠyF wD
ĠyFj wDj
ĠxFxC wAwF
ĠxFjxCj wAjwFj
ĠyAj xFj
ĠxCwG wE
ĠxG vE
ĠyA xF
ĠxGjxCj wAj
ĠyCxA xF
ĠwB wGjwE
ĠyGj yE
ĠxCjwGj wF
ĠxGjxDj wAj
wGj vGj
ĠxGxC wC
ĠxGjxCj wCj
ĠxAxF xCwF
ĠxAjxFj xCjwFj
ĠxE wF
ĠxE vGj
ĠxF wFj
ĠxFj wG
ĠxG wGj
wG wDvG
ĠwFj vDj
ĠwF vD
ĠyE xAj
ĠxGxD wA
ĠxB xA
ĠwAj wFjwCj
ĠwA wFwC
ĠwFj vA
ĠyD xC
ĠyDj xCj
ĠvB vFj
ĠxFjxCj wGj
ĠwAj wGj
ĠwE wCj
xG xC
ĠyA xD
ĠyAj xDj
ĠxD wGj
ĠwDj wC
ĠwCj vFj
ĠwC vF
ĠxAxD wD
ĠxAjxDj wDj
ĠvAj vF
ĠxEwB wFj
ĠxDjwAj wF
y B
ĠxF wAwF
ĠxFj wAjwFj
ĠxGj wA
ĠxA wAj
ĠxAj wB
ĠwF vGj
ĠyF yD
ĠyFj yDj
ĠvA vE
ĠxDwA wE
ĠxAxF wF
ĠxAjxFj wFj
ĠwE vG
ĠyF xD
ĠyFj xDj
ĠxDjwB vB
ĠxDwAj vAj
ĠxCjwA vA
ĠyFxA xF
ĠwBwG vG
ĠxCj vCj
ĠxC vC
ĠxA vG
ĠwAj wGwDj
ĠwA wFjwD
ĠwGj vCj
ĠwG vC
ĠyC xAj
ĠyCj xB
wE vBvE
ĠyA xA
ĠyAj xAj
ĠxCwGj vGj
ĠxF vFj
ĠxFj vG
ĠxG vGj
ĠxA vAj
ĠxAj vB
ĠxAj vGj
ĠwGj wFwCj
ĠwG wEwC
ĠxFwAj vAj
ĠxEwA vA
ĠxFjwB vB
ĠxBxE wE
ĠxE vF
ĠxGj vA
ĠwDj vB
ĠwD vAj
ĠxGxD wBwG
ĠxAxE wB
ĠxAjxF xC
ĠxCjwGj wDj
ĠxCwG wD
ĠxFjxDj wAj
ĠxB wC
ĠwAj wFjwCjvFj
ĠwA wFwCvF
ĠyC wCj
ĠyCj wD
ĠyD wDj
ĠwD vB
ĠyA yE
ĠyB yGj
ĠxGxC wA
ĠxDj vG
ĠxD vFj
ĠyC wE
ĠyD wE
ĠyD xGj
ĠxGxD wD
ĠxBxFj xCj
ĠxB vA
ĠyC vAj
ĠyCj wF
ĠyCj vB
ĠwFj vGj
ĠyDj wE
ĠxBxFj xDjwB
ĠxDjwGj vGj
ĠxDwG vG
ĠyDxB xG
ĠwGj vE
ĠyDj wF
ĠxFxC wC
ĠxFjxCj wCj
ĠxGjxDj wDj
ĠyAj yF
ĠxAjxF xDwAj
ĠxFxD wA
u Fj
ĠxCj vF
wCj vFj
ĠwF vG
wC vF
ĠyDj wG
ĠwCj vA
ĠyF xC
ĠyFj xCj
ĠyG xB
ĠyExB xGj
u F
ĠxC vE
ĠxB vG
ĠwGj vDj
ĠwG vD
ĠyC vGj
ĠyD wFj
ĠyD vAj
ĠyDj vB
ĠyE wFj
ĠyA yF
ĠyAj yFj
ĠxAxExCj wA
wG wD
ĠyCj vA
Ġz G
ĠyGj yC
ĠxAxE wE
ĠyB yFj
ĠxFjxDj wAjwDj
ĠxFxD wAwD
ĠyDjyC xGj
ĠxEwB vB
ĠxFxC wAj
ĠxFjxCj wB
ĠxExCj wGjwCj
ĠxDjxC wGwC
ĠxDwB wFjvB
ĠwFj vAj
ĠwF vA
ĠyD xE
ĠwC vGj
Ġz Gj
ĠxAjxF wF
ĠxBxFj wFj
ĠxCjwAj vFj
ĠxCjwAj wFvAj
ĠxCwA vF
ĠxE wGjwE
ĠxDj wE
ĠwCj vGjvCj
ĠwC vGvC
ĠvB vG
ĠxCwA wEvA
ĠyCxF xD
ĠyCjxFj xDj
wG vG
ĠyDj xF
ĠxC wCj
xE wE
ĠxGjxDj vGj
ĠxGxD vG
ĠyA yCj
ĠwBwFj wDjvB
ĠwAjwF wDvAj
ĠxEwA wFj
ĠxGjxF xC
ĠyCxF wF
ĠyCjxFj wFj
ĠxDj wGwDj
ĠxD wFjwD
ĠxCj wD
ĠxCj wFjwCj
ĠxC wFwC
ĠwB wC
xCj wCj
ĠyD wC
ĠyDj wCj
ĠwCj vAj
ĠwC vA
ĠyE wGj
ĠyE xFj
ĠyA yD
ĠyAj yDj
ĠyB xE
ĠyB yE
ĠxDjwGj wF
ĠxDwG wE
ĠxD wDj
ĠxDjwAj vAj
ĠwAwE wCjvA
ĠxGxE wB
ĠxG vF
ĠxGj vFj
ĠxCj wG
ĠxCj wFwCj
ĠxC wEwC
ĠxFxC wD
ĠxFxC vF
ĠxFjxCj wDj
ĠxFjxCj vFj
ĠxDwA vA
ĠyB xB
ĠwGjwDj wCvGj
ĠwGwD vBvG
ĠyEyCj xA
ĠxCj vE
ĠxC vDj
ĠwGj wFj
ĠwG wF
ĠwG vDj
xC wC
ĠyFj yD
ĠyG yDj
vDj uGj
ĠxExCj wCj
ĠxDjxC wC
ĠxDwB vB
ĠxAxD wAj
ĠxAjxDj wB
ĠyExB xG
ĠxAxExC vA
ĠxAjxFxCj vAj
ĠyFjyCj xA
ĠxC wFj
ĠxA vF
ĠxAj vFj
ĠyG yDxAj
ĠyGj yDjxB
vD uG
ĠxFjxDj wDj
ĠxFxD wD
ĠxExCj wGj
ĠxDjxC wG
ĠxDwB wFj
ĠxCjwAj vAj
ĠxCwA vA
ĠyCjxGjxE wCj
ĠxBxFjxD vB
ĠyCxGxDj wC
ĠyFyC xA
ĠyFjyCj xAj
ĠxFjxDjwB vB
ĠxFxDwAj vAj
ĠwE vFj
ĠxGjxF wF
ĠxGjxF xCwF
ĠxGxE wE
ĠxGxE wBwE
ĠxAxFj wFj
ĠxAxFj xCjwFj
ĠxAjxG wG
ĠyCxA wF
ĠyCjxAj wFj
ĠwB vD
ĠwDj vF
ĠwD vE
ĠxAxE vA
ĠxAjxF vAj
ĠxBxFj vB
ĠxExCj wAvA
ĠxAxD wAwD
ĠxAxFj xCj
ĠxAxFj xDwD
ĠxAjxG xD
ĠxAjxG xDwG
ĠxAjxG xDjwDj
ĠxBxGj xDj
ĠxBxGj xDjwGj
ĠxGjxDjxC wGj
ĠxDwBwG vG
ĠxGjxFxCj wCj
ĠxGxExC wC
ĠyE wC
ĠyF wCj
ĠyFj wD
ĠyG wDj
ĠxEwB wCj
ĠxDwA vB
ĠxDjwAj wC
ĠxFwAj wG
ĠxFjwB wGj
ĠxAjxDj wAjwDj
ĠxBxE wBwE
ĠxAxExC wC
ĠxAjxFxCj wCj
ĠxBxFjxD wD
ĠyCxGxDj wDj
ĠyFyC xGj
ĠwB wF
ĠwFj vD
ĠxCwG wDj
ĠwBwFj wD
ĠxGxC wGwC
ĠxGjxCj wGjwCj
ĠxFwAj wFj
ĠxEwA wF
ĠxCjwAj wF
ĠxCwA wE
ĠxBxGj wGj
ĠxBxG wG
ĠyCxGj wGj
ĠyCjxGjxE wE
ĠxGjxDjwB vB
ĠxGxDwAj vAj
ĠxFxCwGj vGj
ĠxFjxCjwA vA
ĠxEwBwG vG
ĠxDjxCwGj vGj
ĠwFj wE
ĠwF wDj
ĠwE wD
xFj wFj
ĠxCjwGj vAj
ĠxCwG vA
ĠxCwG vG
ĠxFwAj wFvAj
ĠxEwA wEvA
ĠxFjwB wFjvB
ĠxDjwGj wDjvGj
ĠxDwG wDvG
ĠyCjxA wA
ĠyDxAj wAj
ĠyDjxB wB
ĠwFj vE
xB xE
ĠxCjwGj vGj
ĠxAjxFxD vAj
ĠxBxFjxDj vB
vAj vFj
vA vF
ĠxCjwGj wE
ĠwAjwF wCj
ĠwAwE wC
yC xF
yCj xFj
ĠxBxGjxE wE
xC wGj
xCj wA
ĠwF vCj
ĠwE vC
ĠyGj wE
ĠxEwB vE
ĠyCxG wC
ĠyCjxGj wCj
ĠzC yF
ĠzCj yFj
ĠxGjxDjxC vGj
ĠxB xC
ĠwF vDj
ĠyB xG
ĠzC xGj
ĠzCj xA
ĠzD xAj
ĠzDj xB
ĠxAxExCj vA
ĠyC xCj
ĠyF wG
ĠyF yDxAj
ĠyFj wGj
ĠxGjxDj wF
ĠxGxD wE
ĠyCxG xC
ĠyCjxGj xCj
yDjxAj xDj
ĠxF vDj
ĠxFj vE
ĠwB uB
ĠyCj xD
xD wAwD
xDj wAjwDj
ĠwE vD
ĠyD xDj
ĠyE wD
ĠyFj yDjxB
vE uA
ĠyDxAxF wD
ĠyDjxAjxFj wDj
Ġ uGj
ĠxE vD
ĠxCj vDj
ĠxC vD
ĠyF wDj
ĠyFj wE
ĠyG wE
ĠxFjxD vB
ĠxGxDj wC
ĠxFxCj vAj
ĠxExC vA
ĠxGjxE wCj
ĠzC xF
ĠzCj xFj
ĠxBxG xDwG
ĠyCxGj xDjwGj
ĠxGxDwB vG
vBvFj uB
vAjvF uAj
ĠwDj vFj
ĠwD vF
ĠxAxE wFj
ĠxAjxF wG
ĠxBxFj wGj
ĠwE vCj
ĠyGj wF
ĠxDjwGj wCj
ĠxDwG wC
ĠyCxF xCwF
ĠyCjxFj xCjwFj
ĠwAjwFj vFj
ĠwAwF vF
ĠyDxG xD
ĠyDjxGj xDj
ĠxGjxDjwB vGj
ĠxGxDwAj vG
ĠxFxCwGj vF
ĠxFjxCjwA vFj
ĠxF vD
ĠxFj vDj
ĠwAj uAj
ĠwA uA
ĠyDj xE
ĠwDj vC
ĠxEwB wA
ĠxBxE xC
ĠyCxF xCj
ĠyFjxB xGj
ĠyFxAj xG
ĠyCjxAxE wA
ĠyDxAjxF wAj
ĠyDjxBxFj wB
vAvE uA
ĠyCxGxE wC
ĠyCjxGjxF wCj
ĠxA vE
ĠxAj vF
ĠxB vFj
wD vAvD
vGj vDj
vG vD
ĠxGjxDj xCj
ĠxGxD xC
ĠyA wFj
ĠyAj wG
ĠxFjxD wFj
ĠxGxDj wG
ĠxFxCj wF
ĠxExC wE
ĠyB wGj
ĠxFwAj wDj
ĠxEwA wD
ĠxFjwB wE
ĠyCjxFj xD
ĠyDjxGj xE
ĠxEwBwG vE
ĠxFjxDwA vB
ĠxGxDjwAj wC
ĠxGjxEwB wCj
ĠyDjxAjxG wDj
ĠyDxAxFj wD
yDxA xD
ĠwD uB
ĠwCj vCj
ĠwC vC
ĠxGjxE wGj
ĠyDxG xDj
ĠxFxCjwGj vAj
ĠxExCwG vA
ĠyCxExC vA
ĠyCjxFxCj vAj
wDj vAjvDj
ĠwFj uB
ĠwF uAj
vFj uB
vF uAj
ĠyF wA
ĠvB vE
ĠyFj wAj
ĠyG xE
ĠyGj xF
ĠyA xFj
ĠyAj xG
ĠyDxA wD
ĠyDjxAj wDj
ĠyDxFjxD vB
ĠyDjxGxDj wC
ĠyExGjxE wCj
vFj vCj
vF vC
ĠyB xGj
ĠxCjwA wFj
ĠxCwGj wF
ĠwBwG wE
ĠyDxG xE
ĠyDjxGj xF
ĠwGjwE vBvE
ĠyExA xE
ĠyFjxB xFj
ĠyFxAj xF
ĠxGxDjxC wGwC
ĠxGjxExCj wGjwCj
ĠxFjxDwB wFjvB
ĠyGyE yC
ĠyGjyF yCj
ĠxDj vA
ĠxEwB vA
ĠxFxC vAj
ĠxFjxCj vB
ĠyA wA
ĠyAj wAj
ĠxBxFj xE
ĠxGjxCj wA
ĠxCjwFj wDj
ĠxCwF wD
ĠxFjxDjwB wFjvB
z C
z Cj
Ġ uG
ĠwE uA
ĠyE xD
ĠyF xDj
ĠxAxF wD
ĠxAjxFj wDj
ĠxGxC wGj
ĠxFjwB wG
ĠyCjxGjxE wB
ĠyCxGxDj wAj
ĠwGwDj vAjvDj
ĠyExA xFj
ĠxFxDwAj wFvAj
ĠyGxB xG
ĠxE vAj
ĠwE vGj
ĠyAj yD
ĠyB yDj
ĠyCxG xExC
ĠyCjxGj xFxCj
ĠxFjxDwA wFjwD
ĠxGxDjwAj wGwDj
ĠxGjxEwB wGjwE
ĠxFxCjwGj wFwCj
ĠxExCwG wEwC
ĠxFjxCjwAj vFj
ĠxFxCwA vF
ĠxAxFxD wAwD
ĠxAjxFjxDj wAjwDj
ĠyGjyC xGj
ĠxF vB
ĠxFj wC
ĠxD vGj
ĠyC vG
ĠyCj vGj
ĠwDj wCj
ĠwD wC
ĠyFj xE
xA xF
ĠxFxC wAwD
ĠxFjxCj wAjwDj
ĠxGxC wF
ĠxGjxCj wFj
ĠxDjwB wGj
ĠxDwAj wG
ĠxAxD wG
ĠxAjxDj wGj
ĠwBwE vB
ĠyCxA xFwF
ĠxAxExC wG
ĠwFjwD vAvD
ĠxAxFxC wD
ĠxAjxFjxCj wDj
ĠyCjxAjxFj wFj
ĠxGj wD
ĠxAj wA
ĠxB wAj
ĠwAj vCj
ĠwA vC
ĠwFj wDjvB
wCj vGjvCj
ĠwF wDvAj
wC vGvC
ĠwDj vG
ĠwD vFj
ĠxEwB wGjwCj
ĠxFxC vA
ĠxFjxCj vAj
ĠxDwA wFjvB
ĠxDjwAj wGwC
ĠxCjwGj wFvAj
ĠxCwG wEvA
yCj xAj
ĠzC yG
ĠzCj yGj
ĠxAjxFxCj wGj
ĠxBxFjxD wA
ĠxA wGj
ĠxA wBwG
wB wFj
wA wFj
ĠyF xG
ĠyFj xGj
ĠvAj vFj
ĠvA vF
ĠxEwB vG
ĠxExC wAvA
ĠwBwFj wCj
ĠxGxC vA
ĠxGjxCj vAj
ĠxDjwB wDj
ĠxDwAj wD
ĠxCjwA vFj
ĠxCwGj vF
ĠwBwG vE
ĠxAxCj wAvA
ĠwFwCj vGjvCj
ĠwEwC vGvC
ĠxGxDjxC wC
ĠxGjxExCj wCj
ĠxFjxDwB vB
ĠxFxCjwAj vAj
ĠxAjxDwAj vAj
ĠxBxDjwB vB
ĠxDwAwF vF
ĠxDjwAjwFj vFj
ĠxF wBwG
ĠxG wCj
wGj vAj
wG vA
wA wEvA
wAj wF
ĠwFj vCj
ĠwF vC
ĠwE wCjvA
ĠyD xDwAj
ĠyDj xDjwB
ĠyG wF
ĠyGj wFj
ĠxFxC vGj
ĠxFjxCj vA
ĠxGjxDj vB
ĠxGxD vAj
ĠxGxD wAwD
ĠxFjxD wE
ĠxGxDj wF
ĠxFxCj wDj
ĠxExC wD
ĠwBwFj wDj
ĠwAjwF wD
ĠwAwE wCj
ĠxAxF xDwD
ĠxAjxFj xDjwDj
ĠxDjwB vGj
ĠxDwAj vG
ĠxAxD vB
ĠxAjxDj wC
ĠxBxE wCj
ĠyDxA xFjxD
ĠyCxGj xFwF
ĠyExB xE
ĠwAjwDj vAj
ĠwAwD vA
ĠyDjyC xG
ĠyEyCj xGj
ĠxAjxDwAj vG
ĠxBxDjwB vGj
ĠxGjxCwGj vF
ĠxGwBwG vE
ĠxBxGxE wE
ĠyCjxAxFj wFj
ĠyDxAjxG wG
ĠyDjxBxGj wGj
ĠxExCjwA wEvA
ĠxAxCjwA vFj
ĠyFjxAjxFj wDj
ĠyFxAxF wD
ĠxA wDj
ĠxAj wE
ĠyC xDwAj
ĠyCj xDjwB
wFj vGj
wF vG
ĠyD vA
ĠyDj vAj
vAj vCj
vA vC
ĠwDj wCvGj
ĠwCj vF
ĠwCj uAj
ĠwC vE
ĠwC uA
ĠyE wG
ĠyG xD
ĠxGjxDj wAjwDj
ĠxDwA vG
ĠxDwA vD
ĠxDjwAj vGj
ĠxDjwAj vDj
ĠyA yC
ĠyAj yDxAj
ĠxAxE xD
ĠxAxE wBwE
ĠxAjxF xDj
ĠxAjxF xCwF
ĠxBxFj xCjwFj
ĠxGjxE wFj
ĠyB yDjxB
ĠwAjwF wC
ĠwAwE vB
ĠyCxG wG
ĠyCjxGj wGj
ĠyDxA xD
ĠyDjxAj xDj
ĠyDjxAj xGxDj
ĠzC yC
ĠzD yG
ĠzDj yGj
ĠxGjxFxCj wGjwCj
ĠxGxExC wGwC
ĠyCxExC wC
ĠyCjxFxCj wCj
ĠyDxFjxD wD
ĠyDjxGxDj wDj
ĠxEwBwGj vE
ĠxAxFjxD wAwD
ĠxAjxGxDj wAjwDj
ĠyEyC xG
ĠyFyCj xGj
ĠyDxBxG xDwG
ĠyDjyCxGj xDjwGj
ĠyAyCj xA
z D
ĠxCj vG
ĠxA xDjwB
ĠyE xExC
ĠyF xFxCj
ĠyFj xFjxD
ĠyGj xDj
ĠyGj xGjxE
ĠxEwB vGj
ĠxGjxDj wCj
ĠxGxD wC
ĠxDwA vFj
ĠxDjwAj vG
ĠxCjwGj vF
ĠxCwG vE
ĠxDjwB wCj
ĠxDwAj wC
ĠxCjwA wCj
ĠxCjwA vB
ĠxCwGj wC
ĠxCwGj vAj
ĠwBwG vB
ĠwBwG vA
ĠyCxF wD
ĠyCjxFj wDj
ĠxBxG wE
ĠyCxGj wF
ĠyCjxA wFj
ĠxCjwFj vFj
ĠxCwF vF
ĠyCxA xE
ĠyCjxAj xF
ĠwGjwE vB
ĠwGwDj vAj
ĠwFjwD vA
ĠxGjxCwGj vGj
ĠxGwBwG vG
ĠxGxCwG vA
ĠxGjxCjwGj vAj
ĠyCjxAjxFj xCjwFj
ĠyGyD xB
ĠyCxAxF xCwF
ĠyExBxGj wE
ĠxGj vE
ĠxGj xDwAj
ĠxAj xExC
ĠxB xFxCj
wGj wF
wB wFjvB
wAj wFvAj
ĠwD vBvG
xFj xCj
Ġz A
Ġz Aj
ĠyG xGxDj
ĠxFxC wGwC
ĠxFjxCj wGjwCj
ĠxCjwGj wFj
ĠxCwG wF
ĠyB yG
ĠwBwFj wE
ĠwAjwF wDj
ĠwAwE wD
ĠxFwAj vG
ĠxEwA vFj
ĠxFjwB vGj
ĠwGjwDj wC
ĠwGwD vB
ĠyCxF wAj
ĠyCjxFj wB
ĠzC yA
ĠzCj yAj
ĠyDxAj wG
ĠyDjxB wGj
ĠxFjwA wFj
ĠxFwGj wF
ĠxEwG wE
ĠxGwAj wG
ĠxFxCwGj wF
ĠxFjxCjwA wFj
ĠxEwBwG wE
ĠxAxFxC wA
ĠxAxFxC wAwF
ĠxAjxFjxCj wAj
ĠxAjxFjxCj wAjwFj
ĠyDxAjxF xDwAj
ĠyDjxBxFj xDjwB
ĠxBxGxD wBwG
ĠxFxCjwAj wFvAj
ĠxBxGjxE wBwE
ĠxAjxDjwAj wC
ĠxExCwA wEvA
ĠxBxEwB wCj
ĠxAxDwA vB
ĠyExGjxE wE
ĠyExBxG wE
z Dj
ĠxF wE
ĠxFj wF
ĠxDj vCj
ĠxD vC
ĠxG wFj
ĠxGj wG
ĠxC vFj
ĠwAj vB
ĠwA wDj
ĠwA vAj
ĠwA wFjwCjvFj
ĠwGj wD
ĠwGj wFwCvF
wFj wDj
wF wD
xC wGwC
ĠyGj xAj
ĠxGjxDj wC
ĠxGxD vB
ĠxDwA wG
ĠxAxE wD
ĠxAxE wC
ĠxAjxF wCj
ĠxBxFj wD
ĠyB wB
ĠwBwFj vGj
ĠwAjwF vG
ĠwAwE vFj
ĠyCxG wDj
ĠyCjxGj wE
yCj xA
ĠxBxE wA
ĠzC yGj
ĠxGjwB wGj
ĠxGjxDjwB wFj
ĠxGxDwAj wF
ĠxFxCwGj wDj
ĠxFjxCjwA wE
ĠxEwBwG wD
ĠwBwGj wDjvGj
ĠwAjwG wDvG
ĠwFwCj vGj
ĠwEwC vG
ĠwGwE vBvE
ĠyDxB xFj
ĠyCjxAxE xCjwA
ĠyCxGjxDj xCwGj
ĠxFjxE wBwE
ĠxExD wAwD
ĠxFxDj wAjwDj
ĠxCjwAjwFj vFj
ĠxCwAwF vF
ĠxE vCj
ĠxDj vC
ĠwB wAwE
ĠwAj wE
ĠwGj vA
ĠyC xFjxD
wG wE
ĠyCj xGxDj
ĠwCj vDj
ĠyE vB
ĠxEwB wFjvB
ĠxDwA wEvA
ĠxDjwAj wFvAj
ĠxAjxF wDj
ĠxCjwGj vFj
ĠxCwG vF
ĠyCxG xF
ĠxDwB wE
ĠzCj yA
ĠxFjxDwA wFj
ĠxGxDjwAj wG
ĠxGjxEwB wGj
ĠxFxCjwGj wF
ĠxExCwG wE
ĠyCjxAxE wFj
ĠyDxAjxF wG
ĠyDjxBxFj wGj
ĠyFxA xFwF
ĠyCxGjxDj wF
ĠxDjxCwGj wDjvGj
ĠxDwBwG wDvG
ĠxGjxFj xCjwFj
ĠxGxF xCwF
ĠyGjyCj xAj
ĠyFjxAjxFj wFj
ĠvBvFj uB
ĠyFjyCjxA wFj
ĠyGyDxAj wG
ĠyGjyDjxB wGj
ĠyFyCxGj wF
ĠxE wDj
ĠxDj wD
ĠxD wCj
ĠxD uB
ĠxG vFj
ĠxG wBwE
ĠxGj vG
ĠxGj xCwF
ĠxCj xCj
ĠxCj wC
ĠxC vB
ĠxA vGj
ĠxA xCwF
ĠxA xCjwFj
ĠxAj vA
ĠxAj xCjwFj
ĠxAj xDwG
ĠwB vF
ĠxB vAj
ĠxB xDwG
ĠxB xDjwGj
ĠwA wFjwCj
ĠyC xDjwGj
wB wGj
wB vB
wA vB
wDj wC
ĠwDj vCj
ĠwD vC
ĠwC vD
ĠyF wC
ĠyFj wCj
ĠvGj vDj
ĠvG vD
ĠxEwB wGwC
ĠxFxC wGjwCj
ĠxFjxCj wAwD
ĠxGjxDj wBwE
ĠxGxD wAjwDj
ĠxDjwAj wGj
ĠxAxE wCj
ĠxAjxF wD
ĠxBxFj wE
ĠxCjwAj wDj
ĠxCwA wD
ĠzD yAj
ĠzDj yB
ĠwAjwFj vAj
ĠwAwF vA
ĠyDxG wG
ĠyDjxGj wGj
ĠxGjxDjwB wGj
ĠxGxDwAj wG
ĠwBwGj wDj
ĠwAjwG wD
ĠyDxAxF wF
ĠyDxAxF xC
ĠyDjxAjxFj wFj
ĠyDjxAjxFj xCj
ĠxBxGxD wE
ĠyGyC xA
ĠxC xC
ĠxB wF
ĠwAj wGjwDj
ĠwGj wGj
ĠwG wG
wE wCj
wD vB
ĠwE uB
ĠwCj vE
ĠyF wGj
ĠyFj yDxA
ĠyG yDjxAj
ĠxBxFj wDj
yC xGj
ĠyCxG xDwG
ĠyCjxGj xDjwGj
ĠxFjxDj wGj
ĠxFxD wG
ĠxExCj wFj
ĠxDjxC wF
ĠxFwAj wD
ĠxEwA wCj
ĠxFjwB wDj
ĠxDjwGj wC
ĠxDjwGj vF
ĠxDwG vB
ĠxDwG vE
ĠxCjwAj wFjwCjvFj
ĠxAjxG xC
ĠxCwA wFwCvF
ĠwGjwDj vF
ĠwGwD vE
ĠxBxGj xCj
ĠxAxCj wAwE
ĠyCjxGjxE xCj
ĠyDxB wG
ĠxAjxC wGj
ĠxBxCj wA
ĠxAjxDwAj wF
ĠxBxDjwB wFj
ĠxGjxCwGj wDj
ĠxAxG xDwG
ĠxAjxGj xDjwGj
ĠyGjyE xB
ĠvAjvF uAj
ĠyFyCxA wF
ĠyFjyCjxAj wFj
ĠxE vC
ĠxF vCj
ĠxF wAwD
ĠxFj vD
ĠxFj wAjwDj
ĠxG vDj
ĠxG vD
ĠxGj vDj
ĠyC wFj
wAj wG
ĠyD yC
ĠyD xExC
ĠyDj xFxCj
ĠwC vDj
ĠyF xB
ĠvB vD
ĠyFj wA
ĠyG wD
ĠyGj wDj
ĠxDwA vF
ĠxDjwAj vFj
ĠwBwFj wDjvGj
ĠwAjwF wDvG
ĠxGxC wE
ĠxGjxCj wF
ĠxAxD wFj
ĠxAjxDj wG
ĠxAxFj xC
ĠxAjxG xCj
ĠyDxA wA
ĠzCj yCj
ĠwGjwCj vGj
ĠwGwC vG
ĠxDjxCj wGjwCj
ĠxDxC wGwC
ĠxGwBwG wD
ĠxDwAwF vD
ĠxDjwAjwFj vDj
ĠyDjxGxDj wAj
ĠyCxFxC wD
ĠyCjxFjxCj wDj
ĠyEyC xA
ĠyFyCj xAj
ĠvAvE uA
ĠyByGj yE
ĠxE xE
ĠwAj wAj
ĠyD xGjxE
ĠyE xFjxD
ĠyF xGxDj
ĠyFj xGjxE
ĠvAj vDj
ĠvA vD
ĠyG xF
ĠyGj xFj
ĠyAj yCj
ĠxFjxD vA
ĠxGxDj vAj
ĠxFxCj vGj
ĠxExC vG
ĠxGjxE vB
ĠwAwE wCjvFj
ĠwGjwDj wCvF
ĠwGwD vBvE
ĠzD yA
ĠzDj yAj
ĠyExB xGjxE
ĠyFyC xF
ĠyFjyCj xFj
ĠyCjxAxE xCj
ĠyCxGjxDj xC
ĠyCxExC wG
ĠyCjxFxCj wGj
ĠyDxFjxD wA
ĠxEwAwE vFj
ĠxDjwGjwDj vF
ĠxDwGwD vE
ĠyExGjxE wB
ĠxFwAjwF vG
ĠxFjwBwFj vGj
ĠxBxA xEwA
ĠyEyCjxA xEwA
ĠxE wGwC
ĠxF xF
ĠxF vC
ĠxF wGjwCj
ĠxFj vCj
ĠxG wAwF
ĠxGj wAjwFj
ĠxCj wFjvB
ĠxC wFvAj
ĠwB wEvA
ĠwGj wFjwCj
ĠwGj wFwC
ĠwG wCj
ĠwG wFwC
ĠyCj wG
wA vG
wAj wC
wAj vGj
wFj vA
wF vGj
wDj vF
ĠyG wAj
ĠyGj wB
ĠyA xE
ĠyAj xF
ĠyB xFj
ĠyCjxGj xFj
ĠxCwGj wCj
ĠwBwG wC
ĠxBxE wGj
ĠxBxGj xD
ĠyDxA xG
ĠyDjxAj wAj
ĠyDjxAj xGj
ĠxAwA wF
ĠxAjwAj wFj
ĠxGjxC vGj
ĠxAxCj vA
ĠxGwB vG
ĠwGwE vB
ĠyExA wA
ĠyFjxB wB
ĠyFxAj wAj
ĠxAjxD vAj
ĠxBxDj vB
ĠyDxAjxF xD
ĠyDjxBxFj xDj
ĠxBxGxD wB
ĠxBxGxE wBwE
ĠyCjxAxFj xCjwFj
ĠyDxAjxG xDwG
ĠyDjxBxGj xDjwGj
ĠxEwAwE wCjvA
ĠxDjwGjwDj wCvGj
ĠxDwGwD vBvG
ĠxFwAjwF wDvAj
ĠxFjwBwFj wDjvB
ĠyGyC xG
ĠyGjyCj xGj
ĠyCxFxC wAwF
ĠyCjxFjxCj wAjwFj
ĠyCxGjxF xCwF
ĠxE uB
ĠxFj wAwD
ĠxG wAjwDj
ĠxGj wBwE
ĠxCj uAj
ĠxCj wFjwCjvFj
ĠxC uA
ĠxC wFwCvF
ĠwG vGj
wB wCj
wB vA
wD vF
wD vE
xC vAj
xCj vB
ĠwFj vG
ĠwF vFj
ĠwE vF
ĠyFj yC
ĠvAj vCj
ĠvA vC
ĠyA yDxA
ĠyAj yDjxAj
ĠxCjwGj vCj
ĠxCwG vC
ĠxAxF wG
ĠxAxF wC
ĠxAjxFj wGj
ĠxAjxFj wCj
ĠxDjwB wGjwDjvGj
ĠxDwAj wGwDvG
ĠxCjwA wFjwCjvFj
ĠxCwGj wFwCvF
ĠwBwG wEvBvE
ĠyCxF wA
ĠyCjxFj wAj
ĠzC xC
ĠzCj xCj
ĠxBxG wD
ĠxBwB wG
ĠyCxC wGj
ĠwAjwFj wDj
ĠwAjwFj vDj
ĠwAwF wD
ĠwAwF vD
ĠyCjxCj wA
ĠxFjwA vA
ĠxGwAj vAj
ĠyCxA xDj
ĠyExB wE
ĠxGjwB vB
ĠyCjxAj xE
ĠxGjxDjwB wDj
ĠxGxDwAj wD
ĠxFxCwGj wC
ĠxFjxCjwA wCj
ĠxEwBwG vB
ĠxAxC wA
ĠxAxC wC
ĠxAjxCj wAj
ĠxAjxCj wCj
ĠwGjwCj vFj
ĠwGwC vF
ĠyCjxE wE
ĠyCjxE wA
ĠyCjxE xCj
ĠyCjxE vA
ĠxBxD wB
ĠxBxD wD
ĠxBxD vG
ĠyCxDj wDj
ĠyCxDj xC
ĠyCxDj vGj
ĠyDxF wAj
ĠyDxF vAj
ĠyDjxFj wB
ĠyDjxFj vB
ĠzE yA
ĠxCjwAwE vFj
ĠxCwGjwDj vF
ĠxDjwBwFj vGj
ĠxDwAjwF vG
ĠyCxE wC
ĠwBwGwD vE
ĠxGxCwG wEwC
ĠxGjxCjwGj wFwCj
ĠyCjxF wCj
ĠzF yAj
ĠxAjxDjwAj wGwDj
ĠxBxEwB wGjwE
ĠxAxDwA wFjwD
ĠyCxAj xFwAj
ĠyCjxB xFjwB
ĠyFyCxA xF
ĠxE wGjwCj
ĠxF vE
ĠxFj xFj
ĠxFj vF
ĠxDj xDj
ĠxDj wGwC
ĠxD xD
ĠxD wFjvB
ĠxCj wFvAj
ĠxC wEvA
ĠxA wAwD
ĠxAj wAjwDj
ĠwB wB
wE vG
wDj vFj
ĠwFj wC
wCj vE
wC vDj
vB vD
ĠyDj yCj
ĠyG wB
ĠyGj xC
ĠxGjxDj xCwF
ĠxGxD wBwE
ĠyA wF
ĠyA xCj
ĠyAj wFj
ĠyAj xD
ĠxAxE xCjwFj
ĠwBwFj vFj
ĠwAjwF vF
ĠyCxG xD
ĠyCjxGj xDj
ĠxGxC wAwD
ĠxGxC wGjvGj
ĠxGjxCj wAjwDj
ĠxGjxCj wAvA
ĠxFjwB wGvG
ĠxAxC wD
ĠxAjxCj wDj
ĠwBwGj vE
ĠyDxF xD
ĠyDjxFj xDj
ĠxAjxDwAj wGwDvG
ĠxBxDjwB wGjwDjvGj
ĠxGjxCwGj wFwCvF
ĠxGwBwG wEvBvE
ĠxFjxC wGj
ĠzFj yB
ĠxAxCjwA wFjwCjvFj
ĠyByE xB
ĠxAxDwAj vAj
ĠxAjxDjwB vB
ĠyFjyCjxAj xFj
ĠxFwAjwFj vFj
ĠxEwAwF vF
ĠyFyDxAj xFwAj
ĠxG xG
ĠxGj xGj
ĠwA wA
ĠyC vB
ĠyCj wC
wE vFj
wAj vAj
ĠyD wCj
ĠyDj wD
vGj vE
ĠyE wDj
Ġz B
ĠyG xA
ĠxDwA wFvAj
ĠxDjwAj wFjvB
ĠxAxE xCwF
ĠxAjxF xCjwFj
ĠxAjxF xDwG
ĠxBxFj xDwG
ĠxBxFj xDjwGj
ĠxFjxD wBwG
ĠxFxCj wAjwFj
ĠxExC wAwF
ĠyCxG wA
ĠyCjxGj wAj
ĠxAxF wA
ĠxAxF xDwAj
ĠxAjxFj wAj
ĠxAjxFj xDjwB
ĠxAxD wBwG
ĠxBxE vA
ĠxBxE xCwC
ĠyCxF vAj
ĠyCxF xDwAj
ĠyCxF xDwG
ĠyCxF xCjwCj
ĠyCjxFj vB
ĠyCjxFj xDjwB
ĠyCjxFj xDjwGj
ĠyCjxFj xDwD
ĠyCxGj wDj
ĠyCjxA wE
ĠyDxAj wF
ĠyDjxB wFj
ĠyDxG xDjwDj
ĠyDjxGj xEwE
xDjwB wFj
xDwAj wF
ĠxFwGj vGj
ĠxEwG vG
wBwG wD
ĠxFjwAj wFjwCj
ĠzE yB
ĠxFwA wFwC
ĠxGxDjxC wGj
ĠxGxDjxC vGj
ĠxGjxExCj wA
ĠxGjxExCj vA
ĠxFjxDwB vG
ĠxFxCjwAj vFj
ĠxBxGxE wC
ĠyCjxAxFj wD
ĠyDxAjxG wDj
ĠyDjxBxGj wE
ĠxDwAwF vA
ĠxDjwAjwFj vAj
ĠxExCwA vF
ĠxAxFxD vAj
ĠxAjxFjxDj vB
ĠyCxGjxF wCj
ĠyAyFj yDxAxD
ĠyAjyG yDjxAjxDj
ĠwBwGjwE vBvE
ĠyFjyDjxB xFjwB
ĠyGyEyC xGxC
ĠyGjyFyCj xGjxCj
ĠxCj uB
ĠxC uAj
ĠwB uA
ĠwAj vE
ĠwAj wDjvGj
ĠwA vDj
ĠwA wDvG
ĠwGj uGj
ĠwG uG
xD wC
xDj wCj
xE wD
ĠwDj uAj
ĠwD uA
xF wDj
xFj wE
xG xDwG
ĠxEwB wAvA
ĠxDwA vAj
ĠxDjwAj vB
ĠyB xDj
ĠwAwE vE
ĠyCxG wF
ĠyCxG xDjwGj
ĠyCjxGj wFj
ĠxGxC wD
ĠxFwAj vDj
ĠxEwA vD
ĠxFjwB vE
ĠxAxD wBwE
ĠxGjxF wAj
ĠxGxE wA
ĠxAxFj wB
ĠwGjwDj wCj
ĠwGjwDj vAj
ĠwGwD wC
ĠwGwD vA
ĠyDxA xE
ĠxGwG wC
ĠxGjwGj wCj
yD xG
yDj xGj
ĠxBwB wE
ĠzD yD
ĠzDj yDj
ĠwAjwFj vGj
ĠwAwF vG
ĠxGwAj wC
ĠyCxA xEwA
ĠxGjwB wCj
ĠyCjxGjxE wA
ĠwGjwE vE
ĠyDxB xF
ĠxGjxDjxC wGjwDjvGj
ĠyDjyC xFj
ĠxFjxCjwAj wFjwCjvFj
ĠxFxCwA wFwCvF
ĠxCwAj wF
ĠyDxFj wD
ĠxCjwB wFj
ĠxDwAwF wD
ĠxDjwAjwFj wDj
ĠyDjxG wDj
ĠxEwAwE wCj
ĠxDjwGjwDj wC
ĠxDwGwD vB
ĠxFwAjwF wD
ĠxFjwBwFj wDj
ĠxEwBwGjwE vBvE
ĠxAjxDjxC vGj
ĠxBxExCj vA
ĠyEyC xC
ĠwAwG wD
ĠyFyCj xCj
ĠxAxDwB vG
ĠxDjwAjwG vDj
ĠxDwAwFj vD
ĠyGjyE xE
ĠxGxDwBwG wDvG
ĠxFxCwAj vAj
ĠxFjxCjwB vB
ĠyCxFxD vAj
ĠyCjxFjxDj vB
ĠyFjyD xD
ĠyGyDj xDj
ĠxDj uAj
ĠxD uA
ĠwFj wEvB
ĠwF vB
ĠyD wGj
xF xC
ĠyG wA
ĠxDwA wFwC
ĠxDjwAj wFjwCj
ĠyA xG
ĠyAj xGj
ĠxGxC wAwF
ĠxGxC wAvA
ĠxGjxCj wDj
ĠxGjxCj wAjwFj
ĠxDwAj wDj
ĠxCjwA wD
ĠxFwAj wC
ĠxFwAj wGwC
ĠxEwA vB
ĠxEwA wFjvB
ĠxFjwB wCj
ĠxFjwB wGjwCj
ĠxAxD vG
ĠxAjxDj vGj
ĠxAjxDj xCwF
ĠxBxE xCjwFj
ĠxDjwGj vAj
ĠxDjwGj wFvAj
ĠxDwG vA
ĠxDwG wEvA
ĠyCxF xDwD
ĠyCjxFj xDjwDj
ĠwBwE vE
ĠyCjxAj xFwAj
ĠyCjxGjxE wGj
ĠxAxExC wE
ĠxAjxFxCj wF
ĠxBxFjxD wFj
ĠyCxGxDj wG
ĠyCxGxDj xC
ĠxDjwFj wDj
ĠxDwF wD
ĠyCjxE wFj
ĠxBxD wE
ĠyCxDj wF
ĠyExA xF
ĠyFjxB xG
ĠyFxAj xFj
ĠyEyCj xG
ĠxGxCj wA
ĠyExGj wE
ĠyGyC xGj
ĠyGjyCj xA
ĠxAjxDjxC wC
ĠxBxExCj wCj
ĠyAyFj yD
ĠyAjyG yDj
ĠxAxDwB vB
ĠxCwGwE vC
ĠxGjxCjwAj vAj
ĠxCjwGjwF vCj
ĠyFyD xGj
ĠyFjyDj xA
ĠxAxExCjwA wEvA
ĠxE xDwG
ĠxF xDjwGj
ĠxG xFwAj
ĠxA wFjwD
ĠxAj wGwDj
ĠwB wGjwCj
ĠxB wGjwE
ĠwAj wGwC
ĠwAj wFjvB
ĠwA wFjvB
ĠwA wFvAj
ĠwGj wFvAj
ĠwG wEvA
wGj vFj
wG vF
xD wA
xDj wAj
ĠyD xDwG
ĠyDj xDjwGj
ĠwDj uGj
ĠvGj vCj
ĠvG vC
ĠyGj wAj
ĠxGjxDj xCjwCj
ĠxGxD xCwC
ĠxDwA wGvG
ĠxDjwAj wGjvGj
ĠyA yDxAj
ĠyAj yDjxB
ĠxCjwGj vA
ĠxCjwGj wDjvGj
ĠxCwG vGj
ĠxCwG wDvG
ĠwBwFj vG
ĠxDjwB wE
ĠxAxD wE
ĠxAjxDj wF
ĠxBxE wFj
ĠxEwE vA
ĠxFwF vAj
ĠxFjwFj vB
ĠyDxA wB
ĠyDjxAj xC
ĠyDjxAj xF
ĠyCxF wG
ĠyCjxFj wGj
ĠzC yE
ĠzCj yF
ĠxBxG xExC
ĠyCxGj xFxCj
ĠyCjxA xFjxD
ĠyDxAj xGxDj
ĠyDjxB xGjxE
ĠwFjwCj vAjvFj
ĠwFwC vAvF
ĠwBwE vBvE
ĠxFjwA vB
ĠxFwGj vAj
ĠxEwG vA
ĠyExB wB
ĠyExB xCj
ĠyExB xFj
ĠwAjwDj vAjvDj
ĠxFjxDwA wFjvB
ĠxGxDjwAj wGwC
ĠxGjxEwB wGjwCj
ĠxAxFxC wAwD
ĠxAjxFjxCj wAjwDj
ĠxCjwE wCj
ĠxCwDj wC
ĠwBwD vB
ĠyDxB xFjwB
ĠyDjyC wGj
ĠyDjyC xGxC
ĠyEyCj xGjxCj
ĠxCwGjwDj wC
ĠwBwGwD vB
ĠxFjxC wAwD
ĠxGxCj wAjwDj
ĠxGxCwG wE
ĠxGjxCjwGj wF
ĠzF zC
ĠzFj zCj
ĠxAjxDjwAj wG
ĠxBxEwB wGj
ĠxAxDwA wFj
ĠxAjxE xCj
ĠxAxDj xC
ĠxFwB wGjwCj
ĠyCxFxC wA
ĠyCjxFjxCj wAj
ĠyExG wC
ĠxAjxDjxC wGj
ĠyFxGj wCj
ĠxBxExCj wA
ĠyGyE xAj
ĠyGjyF xB
ĠxEwAj wGwC
ĠxGjxCjwAj vFj
ĠxFwAwF wDvAvD
ĠxFjwAjwFj wDjvAjvDj
ĠxGxCwA vF
ĠyAyF xF
ĠyAyF yC
ĠyAjyFj xFj
ĠzCyF yC
ĠzCjyFj yCj
ĠyGxBxG wE
ĠyGjyCxGj wF
ĠyAjyDxAj wG
ĠyByDjxB wGj
ĠyAyCjxA wFj
ĠxD wGjwE
ĠxAj xAj
ĠwB vDj
ĠxB vE
ĠwGj vD
ĠwG vCj
ĠyC vF
ĠyC xCwF
ĠyC wAwF
ĠyCj vFj
ĠyCj xCjwFj
ĠyCj wAjwFj
ĠyD vG
ĠyDj vGj
xE wB
ĠvB vGj
ĠvB uB
ĠvAj uAj
xA xD
ĠyG yCj
ĠyGj yD
ĠxEwB wC
ĠxFxC wCj
ĠyA xC
ĠyA xB
ĠyAj xCj
ĠxCjwGj wEvA
ĠxCwG wDjvGj
ĠxFjxD wAjwDj
ĠxGxDj wBwE
ĠxFxCj wAwD
ĠxExC wGjwCj
ĠxGjxE xCwF
vCj uFj
vC uF
ĠwBwFj vE
ĠwBwFj uB
ĠwBwFj wCjvGj
ĠwAjwF uAj
ĠwAjwF wCvG
ĠwAwE uA
ĠwAwE vBvFj
ĠxAxF xCjwFj
ĠxAjxFj xDwG
ĠxFjxDj vAj
ĠxFxD vA
ĠxGxC vGj
ĠxGxC vF
ĠxGjxCj vA
ĠxGjxCj vFj
ĠxDjwB wGwC
ĠxExCj vB
ĠxExCj vGj
ĠxDwAj wFjvB
ĠxCjwA wFvAj
ĠxCwGj wEvA
ĠxDjxC vAj
ĠxDjxC vG
ĠxFwAj vFj
ĠxEwA vF
ĠxFjwB vG
ĠxDwB vA
ĠxDwB vFj
ĠxAxD vAj
ĠxAjxDj vB
ĠxDjwGj vCj
ĠxDwG vC
ĠyDxA xEwA
ĠyDjxAj xFwAj
ĠxBxG wB
ĠxBxG xDjwGj
ĠyCxGj xC
ĠyCjxA xCj
ĠwBwE wCj
ĠyDxG wC
ĠyDxG xDwG
ĠyDjxGj wCj
ĠyDjxGj xDjwGj
ĠxGwE wC
ĠxGjwF wCj
ĠyExB xFjwB
ĠwAwD vAvD
ĠxAxExC wA
ĠxAjxFxCj wAj
ĠxBxFjxD wB
yFj xB
ĠxAxC vF
ĠxAjxCj vFj
ĠwGjwCj vGjvCj
ĠwGwC vGvC
ĠwBwGj vGj
ĠxFjxDwA vD
ĠxGxDjwAj vDj
ĠxGjxEwB vE
xExC wG
xFxCj wGj
xFjxD wA
ĠwFwCj vCj
ĠwEwC vC
ĠwGwDj vDj
xGxDj wAj
ĠwFjwD vD
ĠyExA xEwA
ĠyFjxB xFjwB
ĠyFxAj xFwAj
ĠyDxAxF xD
ĠyDjxAjxFj xDj
ĠxAxFxC vF
ĠxAjxFjxCj vFj
xGjxE wB
ĠwFjvB vFj
ĠwAjwCj vAj
ĠwAwC vA
ĠwFvAj vF
ĠyFxA wF
ĠyFjxAj wFj
ĠwEvA vE
ĠxDjxCj wCj
ĠxDxC wC
ĠxGjxFj xCj
ĠxCwAj vAj
ĠxFjxC wA
ĠxGxCj wAj
ĠxCjwB vB
ĠxExD wA
ĠxFxDj wAj
ĠxFwB wGj
ĠyExG xC
ĠyFxGj xCj
ĠxDjwAjwGwDj vAjvDj
ĠxDwAwFjwD vAvD
ĠyFjxA wD
ĠyFjxA xD
ĠyAyFj yC
ĠyGxAj wDj
ĠyGxAj xDj
ĠyGjxB xE
ĠxDjwA wFj
ĠxDjwA wFjvB
ĠxDwGj wFvAj
ĠxFwAwF vD
ĠxFjwAjwFj vDj
ĠxBxFjxDjwB wFjvB
ĠxAjxFxDwAj wFvAj
ĠxEwGjwE wCjvGjvCj
ĠxDjwGwDj wCvGvC
ĠxDwFjwD vBvFjuB
ĠxCjwG wEvA
ĠxCjwFwCj vAjvFuAj
ĠxCwEwC vAvEuA
ĠxCwGwDj wC
ĠwBwFjwD vB
ĠxCjwGjwE wCj
ĠwAjwFwCj vAj
ĠwAwEwC vA
ĠxFjxDwAwFjwD vFj
ĠxGxDjwAjwGwDj vG
ĠxGjxEwBwGjwE vGj
ĠxFxCjwGjwFwCj vF
ĠxExCwGwEwC vE
vAjvCj uFj
vAvC uF
ĠxAxFxCwAwF vA
ĠxAjxFjxCjwAjwFj vAj
ĠyDxAjxFxDwAj wD
ĠyDjxBxFjxDjwB wDj
ĠxBxGxDwBwG vB
ĠyCjxAxExCjwA wCj
ĠyCxGjxDjxCwGj wC
z E
ĠxE wAjwFj
ĠxE xDwD
ĠxF xDjwDj
ĠxDj wFjvB
ĠxDj wAwF
ĠxD wFvAj
ĠxG xFwF
ĠxCj wEvA
ĠxC wAjwDj
ĠxC wDjvGj
ĠwB wAj
ĠwB wAwD
ĠwB wDvG
ĠwAj vD
ĠwAj wGjwCj
ĠwA vCj
ĠwA wGwC
ĠwGj vC
wG vAj
ĠyCj xC
ĠyCj xFwAj
ĠwF wDjvAj
ĠwE vAj
ĠwE wDvA
ĠyD xCj
ĠyDj wA
ĠyDj xD
ĠwDj uB
ĠwDj wCjvGj
ĠwD vGj
ĠwD uAj
ĠwD uG
ĠwD wCvG
ĠwCj uA
ĠyE wAj
ĠyE xDj
ĠyE vA
xGj xDjwGj
ĠyF vAj
ĠyFj vB
ĠyFj yDxAxD
ĠvA uA
ĠyG yDjxAjxDj
ĠvG vE
ĠyAj yC
ĠxFxCj wAjwDj
ĠxExC wAwD
ĠyB yCj
ĠyB yD
ĠwBwFj vDj
ĠwBwFj wDvG
ĠwAjwF vFj
ĠwAjwF vDj
ĠwAjwF wCjvFj
ĠwAwE vF
ĠwAwE wCvF
ĠxFjxDj wCj
ĠxFxD wC
ĠxDjwGj wE
ĠxDwG wDj
ĠxGjxF wDj
ĠxGxE wD
ĠxCjwAj vF
ĠxAxFj wE
ĠxAjxG wF
ĠxCwA vE
ĠwGjwDj vDj
ĠwGjwDj vAjvF
ĠwGwD vAvE
ĠxBxGj wFj
ĠyDxA wG
ĠyDjxAj wGj
ĠzC yDj
ĠzCj yE
ĠxCjwFj wD
ĠxCwF wCj
ĠzDj yG
ĠwBwE wC
ĠyDxG xExC
ĠyDjxGj xFxCj
wGwDj vAj
wFjwD vA
ĠyCxA wA
ĠxGjxC wDj
ĠxAxCj wE
ĠyCjxAj wAj
ĠwAjwDj wC
ĠwAwD vB
wEwC vG
wFwCj vGj
ĠxFjxDwA vA
ĠxGxDjwAj vAj
ĠxGjxEwB vB
ĠxFxCjwGj vCj
ĠxFxCjwGj wFvAj
ĠxExCwG vC
ĠxExCwG wEvA
ĠxDjwFj vFj
ĠxDwF vF
ĠyExA xFjxD
ĠyFjxB xGjxE
ĠyFxAj xGxDj
ĠyDxAxF wAj
ĠyDjxAjxFj wB
ĠxAjxD wF
ĠyCjxAxE xCjwFj
ĠzE yGj
ĠyEyCj wA
ĠxBxGxD vG
ĠxBxGxD wBwE
ĠyCxGjxDj vGj
ĠyCxGjxDj xCwF
ĠxCjwAwE wCj
ĠxFjxE wE
ĠxDjwBwFj wDj
ĠxDwAjwF wD
ĠwDvA vE
ĠyCxE wA
ĠxGjxFj wFj
ĠyDxFj wB
ĠyDjxG xC
ĠyExGj xCj
ĠxGjxD wB
ĠyEyC xGxC
ĠyFyCj xGjxCj
ĠxCjwGjwFwCj vGjvCj
ĠxCwGwEwC vGvC
ĠyAjyG yCj
ĠyGjyDj yC
ĠyGjyDj yCxGj
ĠyGjyE yCj
ĠyGjyE xBxE
ĠxDwGj wF
ĠyAyE yCjxA
ĠyAjyF yDxAj
ĠwCjvAj vFj
ĠwCvA vF
ĠyFjyD xB
ĠyGyDj yC
ĠyExBxG xD
ĠyFjyCjxA xE
ĠxCwFj wDjvGj
ĠyFyCxGj xDj
ĠwBwF wDvG
yCjxAj xFj
ĠyGyDxB wG
ĠyByGjyE xBxE
ĠxFj wGjwE
ĠxCj wGwDj
ĠxC wFjwD
ĠxA vD
ĠxAj vDj
ĠwB wAvA
ĠwAj wEwC
ĠwGj wEvA
wGj vF
wGj wFvAj
ĠyC wB
wG wEvA
wB wGjwCj
wA vFj
wA wFjvB
wAj wGwC
ĠyD yCxF
ĠyDj yCjxFj
ĠwCj uGj
ĠwC uG
ĠvGj vE
ĠxFxC wFwC
ĠxFjxCj wD
ĠxFjxCj wFjwCj
ĠxFjxCj wGjwDj
ĠxGjxDj wE
ĠxGxD wDj
ĠxFjxD wBwE
ĠxGxDj xCwF
ĠxGjxE xCjwFj
ĠwAjwF vD
ĠwAwE vD
ĠwAwE vCj
ĠxAjxFj xC
ĠxCjwAj vGj
ĠxBxG xCj
ĠzD xG
ĠzDj xGj
ĠyDxG wE
ĠyDjxGj wF
ĠxEwBwE vB
ĠxGwB wD
ĠwGjwCj vAj
ĠwGwC vA
ĠxFjxDwA wE
ĠxGxDjwAj wF
ĠxGjxEwB wFj
ĠxFxCjwGj wDj
ĠxFxCjwGj vGj
ĠxExCwG wD
ĠxExCwG vG
ĠyDxF wG
ĠyDjxFj wGj
ĠyDxB wB
ĠyCjxAxE vA
ĠyDjyC xC
ĠyDxAjxF vAj
ĠyDjxBxFj vB
ĠyEyCj xCj
ĠxCjwAwE wCjvA
ĠxFjxE xCj
ĠxCwGjwDj wCvGj
ĠxDjwBwFj wDjvB
ĠxDwAjwF wDvAj
ĠyCxE vA
ĠwBwGwD vBvG
ĠxFjxC wGjvGj
ĠyDxFj vB
ĠxGxCj wAvA
ĠyCjxF vAj
ĠyDjxG wC
ĠyExGj wCj
ĠxGxF xC
ĠxAxG wG
ĠxAxG xC
ĠxAjxGj wGj
ĠxAjxGj xCj
ĠyCjxAjxFj xCj
ĠxEwAj wG
ĠxFxCwG wD
ĠyGjxB wE
ĠyDjxA xF
ĠyCxAxF xC
ĠwBwGjwE vE
ĠyExAj xFj
yB yE
ĠyAyE yCj
ĠyByFj yDjxB
ĠyFjxBxGj wE
ĠyFxAjxG wDj
ĠyDxGxE wC
ĠyDjxGjxF wCj
ĠyExAxFj wD
ĠzCjyGj yE
ĠxFwBwG vG
ĠxAxDjwB vB
ĠxGjxDwAj vAj
ĠxAjxExC wC
ĠxBxFxCj wCj
ĠyEyCxA xEwA
ĠyFyCjxAj xFwAj
ĠzEyA yE
ĠzFyAj yF
ĠxE vDj
ĠxDj vD
ĠxD xCj
ĠxD vCj
ĠxCj xC
ĠxCj vC
ĠxCj wBwE
ĠxC uB
ĠxA xA
ĠwB wFwCj
ĠwG uB
ĠwG wDjvGj
wGj vB
wG vE
wB vGj
wAj vG
wFj vDj
wFj wDjvGj
wF wDj
wF vD
wF wDvG
ĠwFj vC
ĠwFj wDvG
ĠwFj vBvE
ĠwF uB
ĠwF vAjvDj
ĠwE vAvD
ĠwE vBvG
ĠwDj vA
ĠwCj vB
ĠwCj vG
ĠwC vAj
ĠyE wF
ĠyF yDxA
ĠvB vA
ĠyFj yDjxAj
ĠvAj vG
ĠvA vFj
ĠyG wC
ĠyG xAxF
ĠyGj wCj
ĠxEwB wD
ĠxEwB wFjwCj
ĠxEwB wAwE
ĠxFxC wDj
ĠxFjxCj wE
ĠxGjxDj wFj
ĠxGxD wF
ĠxDwA wEvB
ĠxDjwAj wFwC
ĠyA wG
ĠyAj wGj
ĠxAxE xDwD
ĠxAjxF xDjwDj
ĠxBxFj xEwE
ĠxCjwGj wDjvAj
ĠxCwG wDvA
ĠyB xD
ĠxFjxDj wFj
ĠxFjxDj wAvB
ĠxFxD wF
ĠxFxD wGjvAj
ĠxExCj wGvA
ĠxDjxC wFjvGj
ĠxFwAj wGvG
ĠxFjwB wGjvGj
ĠxDwB wFvG
ĠxBxE wC
ĠxGjxF wC
ĠxGjxF wBwCj
ĠxGxE vB
ĠxGxE wAjwC
ĠxCjwAj wFjwCj
ĠxAxFj wCj
ĠxAjxG wD
ĠxCwA vG
ĠxCwA wFwC
ĠwGwD vD
ĠxBxGj wDj
ĠyDxA wF
ĠyDjxAj wFj
ĠyCxF wCj
ĠyCxF vF
ĠyCjxFj wD
ĠyCjxFj vFj
ĠzC xDj
ĠzC xE
ĠzCj xE
ĠzCj xF
ĠzCj xAj
ĠyDxAj xD
ĠyDjxB xDj
ĠwFjwCj vGj
ĠwFwC vGj
ĠwFwC vG
ĠzD xFj
ĠyDxG wDj
ĠyDxG vG
ĠyDjxGj wE
ĠyDjxGj vGj
ĠxDwAwD vA
ĠxDjwAjwDj vAj
ĠxFwD vAj
ĠxFjwDj vB
ĠxDvB vG
ĠxDjwC vGj
ĠxEwCj vA
ĠxFjwA vFj
ĠxFwGj vF
ĠxEwG vE
ĠxGjwB vE
ĠxGjxC vF
ĠxAxCj vFj
ĠxGwB vE
ĠxAxC vA
ĠxAjxCj vAj
ĠwBwGj vB
ĠwAjwG vG
ĠwGwE vE
ĠyExA wD
ĠyExA vA
ĠyFjxB wE
ĠyFjxB vB
ĠyFxAj wDj
ĠyFxAj vAj
ĠyFyC xGxC
ĠyFjyCj xGjxCj
ĠwAwFj vFj
ĠwGjwF vF
ĠxAjxD vG
ĠxBxDj wFj
ĠxBxDj vGj
wDjvB vFj
wDvAj vF
ĠxFjxE wB
ĠxGjxFj wB
ĠzF yA
ĠzFj yAj
ĠwFjwDj vAjvDj
ĠwFwD vAvD
ĠwDjvGj vDj
ĠwDvG vD
ĠyGyC wC
ĠyGjyCj wCj
ĠxGjxD wBwE
ĠyFjxAjxFj xCj
ĠxFxCwG vA
ĠyDjxA xFwF
ĠwBwGjwE vB
ĠyExAj xFjwFj
ĠxBxA xD
ĠwAjwFjwCj vDj
ĠwAwFwC vD
ĠxFjxCjwGj vAj
ĠxEwBwFj vGj
ĠxDjwAjwF vG
ĠyFyD wAj
ĠyFjyDj wB
ĠxDwAwE vFj
ĠyFxAxF xC
ĠwAjwGwDj vAj
ĠwAjwGwDj vAjvDj
ĠwAwFjwD vA
ĠwAwFjwD vAvD
ĠyCxAj xDj
ĠyCjxB xE
ĠwGjwFwCj vGj
ĠwGjwFwCj vGjvCj
ĠwGwEwC vG
ĠwGwEwC vGvC
ĠxCjwGjwDj vF
ĠxCwGwD vE
ĠyAyF yD
ĠyAjyFj yDj
ĠzG zC
ĠzG zD
ĠzGj zCj
ĠzGj zDj
ĠxEwAwFj vFj
ĠyGyDxAj xF
ĠyGjyDjxB xFj
ĠxCwGwDj vC
ĠwBwFjwD uB
ĠxCjwGjwE vCj
ĠyDxGxD wE
ĠyDjxGjxDj wF
ĠyExAxE wFj
ĠyFjxBxFj wGj
ĠyFxAjxF wG
ĠyCjxGjxEwB wGjwE
ĠyCxGxDjwAj wGwDj
ĠxAxExCwG wEwC
ĠxAjxFxCjwGj wFwCj
ĠxBxFjxDwA wFjwD
ĠzDyG yD
ĠzDjyGj yDj
ĠzA zD
ĠzAj zDj
ĠxCjwGjwFj vFj
ĠxCwGwF vF
ĠyGjxAj xFj
ĠxGjxDjwBwFj wDjvB
ĠxGxDwAjwF wDvAj
ĠxFxCwGjwDj wCvGj
ĠxFjxCjwAwE wCjvA
ĠxEwBwGwD vBvG
ĠyCxFjxD wD
ĠyCjxGxDj wDj
ĠyDxAxFxC wAwF
ĠyDjxAjxFjxCj wAjwFj
ĠxAxFjxC wD
ĠxAjxGxCj wDj
ĠyDxGjxE wE
ĠzFjyB yFj
ĠzB zE
ĠxFjxDwBwG vB
ĠxFxCjwAjwFj vAj
ĠxExCwAwF vA
ĠxAxFxDwAj wD
ĠxAjxFjxDjwB wDj
ĠxGxDjxCwGj wC
ĠxGjxExCjwA wCj
ĠxBxGxExC wE
ĠyCxGjxFxCj wF
ĠyCjxAxFjxD wFj
ĠyDxAjxGxDj wG
ĠyDjxBxGjxE wGj
ĠxE wFjwD
ĠxF wGwDj
ĠxDj vE
ĠxG vC
ĠxGj vCj
ĠwB vAj
ĠxB xB
ĠwAj wA
ĠwAj vA
ĠwA vGj
ĠwA wDjvB
ĠwGj vG
ĠwGj uB
ĠwGj vBvE
ĠwG vFj
ĠwG vAjvDj
wGj wFj
wG wF
wFj wE
ĠwFj vF
ĠwFj vAvD
ĠwFj wFjvA
ĠwF vE
ĠwF wFvGj
ĠwE wEvG
ĠwDj wDjvFj
ĠwD wDvF
vGj vF
vG vE
ĠwCj wCjvE
ĠwC wCvDj
xG wG
xGj wGj
ĠyF wE
ĠyF wFj
ĠvB vBvD
ĠyFj wG
ĠyFj wF
ĠvAj vGj
ĠvAj vAjvCj
ĠvA vG
ĠvA vAvC
ĠyG wGj
ĠvGj vF
ĠvGj vDjuGj
ĠyGj wA
ĠxFxC wAvA
ĠxGjxDj xCjwFj
ĠxGxD xCwF
ĠyA wB
ĠyAj xC
ĠxAxE wG
ĠxAjxF wGj
ĠxAjxF xDwD
ĠxBxFj wA
ĠxBxFj xDjwDj
ĠyB xCj
ĠyB xA
ĠyCxG xEwA
ĠyCjxGj xFwAj
ĠxAxF xDwG
ĠxAjxFj xDjwGj
ĠxFjxDj vFj
ĠxFxD vF
ĠxGxC wEwC
ĠxGjxCj wFwCj
ĠxDjwB wGjwCj
ĠxDjwB wFjwCj
ĠxExCj wE
ĠxExCj vE
ĠxDwAj wGwC
ĠxDwAj wFwC
ĠxDjxC wDj
ĠxDjxC vDj
ĠxFwAj wGwDj
ĠxFwAj wDvAj
ĠxEwA wFjwD
ĠxEwA wCjvA
ĠxFjwB wGjwE
ĠxFjwB wDjvB
ĠxDwB wD
ĠxDwB vD
ĠxAxD wFjwD
ĠxAjxDj wGwDj
ĠxBxE vE
ĠxBxE wGjwE
ĠxDjwGj wFwCj
ĠxDjwGj wCvGj
ĠxDwG wEwC
ĠxDwG vBvG
ĠxEwE wC
ĠxFwF wCj
ĠxGjxF vGj
ĠxGxE vG
ĠxAxFj vA
ĠxAjxG vAj
ĠwGjwDj vCj
ĠwGjwDj vC
ĠwGwD vC
ĠwGwD uB
ĠyDxA xFjwB
ĠyCxF wAwF
ĠyCjxFj wAjwFj
ĠxDjwDj vGj
ĠxDwD vG
ĠzC wA
ĠzC xG
ĠzC xAj
ĠzC yD
ĠzCj wAj
ĠzCj xGj
ĠzCj xB
ĠzCj yDj
ĠyCxGj xFwAj
ĠxAwA vA
ĠxAjwAj vAj
ĠxBwB vB
ĠwFjwCj vDj
ĠwFwC vD
ĠxCjwFj uB
ĠxCwF uAj
ĠzD xD
ĠzD xF
ĠzD yF
ĠzDj xDj
ĠzDj xFj
ĠzDj xG
ĠzDj yFj
ĠwBwE uA
ĠxCjwGjwCj vF
ĠxCwGwC vE
ĠyCxC wC
ĠyCjxCj wCj
ĠxDwAwD vFj
ĠxDjwAjwDj vG
ĠxGwAj vG
ĠxEwBwE vGj
ĠyExB xGjxCj
ĠxGjwB vGj
ĠwAjwDj vDj
ĠwAwD vD
ĠxAxExC wAwEvA
ĠxAjxFxCj wAjwFvAj
ĠxGjxDjwB wGjwDjvGj
ĠxGxDwAj wGwDvG
ĠxBxFjxD wBwFjvB
ĠyCxGxDj xCwGwC
ĠxFxCwGj wFwCvF
ĠxFjxCjwA wFjwCjvFj
ĠxEwBwG wEvBvE
yF xAj
ĠyDxD wD
ĠyDjxDj wDj
ĠxFjxDwA vFj
ĠxGxDjwAj vG
ĠxGjxEwB vGj
ĠxFxCjwGj vF
ĠxExCwG vE
ĠxDjwFj vGj
ĠxDwF vG
ĠyCjxE wCj
ĠxFxCwF vA
ĠxFjxCjwFj vAj
ĠxBxD vB
ĠwGjwE vCj
ĠwFwCj vFj
ĠwFwCj uAj
ĠwEwC vF
ĠwEwC uA
ĠwGwDj vC
ĠwFjwD uB
ĠyCxDj wC
ĠyDxAxF xDwAwD
ĠyDjxAjxFj xDjwAjwDj
ĠxAxFxC vA
ĠxAjxFjxCj vAj
ĠyFyC wF
ĠyFjyCj wFj
ĠyDxF wD
ĠyDjxFj wDj
ĠxGjxDjwGj wC
ĠxGxDwG vB
ĠxGjxDjxC wC
ĠxAxExCj wCj
ĠxFjwAj wCj
ĠyDxAjxF xDwG
ĠyDjxBxFj xDjwGj
ĠxFwA wC
ĠxFjxDjwB wDj
ĠxFxDwAj wD
ĠyFxA wD
ĠyFjxAj wDj
vBvG vD
wCjvA vE
wCvGj vDj
ĠxDjxCwGj wC
ĠwEvB vFj
ĠxDwBwG vB
ĠxFjxCjwAj vAj
ĠxBxGjxE wGj
ĠxFjxE wA
ĠxGjxFxCj wF
ĠxGxExC wE
ĠwDjvAj vF
ĠyCxE wG
ĠxGxDwB vB
ĠxCwAj wFvAj
ĠyDxFj wA
ĠxBxGxE wA
ĠyCjxAxFj wB
ĠxGxCj vA
ĠxCjwB wFjvB
ĠxFxDj xC
ĠyCjxF wGj
ĠyDjxG wAj
ĠxExCjwA wCj
ĠxAxEwA wCj
ĠwFjwDj vDj
ĠwFwD vD
ĠyExGjxE xCj
ĠxAjxE wC
ĠxAxDj vB
ĠxAjxFwAj wD
ĠxBxFjwB wDj
ĠwCjvGj vDj
ĠwCvG vD
ĠxGjxD vAj
ĠxAxFjxD wFj
ĠxAjxGxDj wG
ĠyDjxAjxG xC
ĠyGyE xB
ĠxBxF wCj
ĠyCjxG wDj
ĠyCxFj wD
ĠxFxCwG wEwC
ĠxGjxDjwAj wC
ĠxGjxDjwAj wGwDj
ĠxGxDwA vB
ĠxGxDwA wFjwD
ĠxFjxCjwGj wFwCj
ĠxEwBwFj wDjvB
ĠxDjwAjwF wDvAj
ĠxFwAwF vF
ĠxFjwAjwFj vFj
ĠxDwAwE wCjvA
ĠxAxEwB wCj
ĠxAxEwB wGjwE
ĠxAjxFxC wD
ĠxAjxFxC wAwF
ĠxCjwGjwDj wCvGj
ĠxCwGwD vBvG
ĠxBxFjxCj wDj
ĠxBxFjxCj wAjwFj
ĠxFxCwAj wFvAj
ĠxFjxCjwB wFjvB
ĠxDjwGjwF vF
ĠxDwGwE vE
ĠyEyCjxA xE
ĠxAxDwAj vG
ĠxAjxDjwB vGj
ĠwAjwFwCj uAj
ĠwAwEwC uA
ĠxEwBwA wEvA
ĠxBxExC vA
ĠyCxFxCj vAj
ĠyCjxFjxD vB
ĠyDjxGjxE wCj
ĠyDxGxDj wC
ĠyCxGxExC wGwC
ĠyCjxGjxFxCj wGjwCj
ĠwGjwGj vB
ĠwGwG vAj
ĠyCjxGjxExCj wGjwCj
ĠwBwAj wFjwCj
ĠxDj wFwCj
ĠxD wEwC
ĠxCj uGj
ĠxC uG
ĠwB vCj
ĠwAj vC
ĠwA uB
ĠwGj wDvAj
ĠwG wCjvA
wGj vDj
wGj wFwCj
wG vD
wG wEwC
wE wCjvFj
wD vBvE
wDj wCvF
ĠwFj wFj
ĠwF wF
ĠwF vGjvCj
xD vG
xDj vGj
ĠwE wE
ĠwE vGvC
ĠyD vD
ĠyDj vDj
ĠwDj vGjvCj
ĠwD vGvC
ĠwC uGj
ĠyE vE
ĠyF vF
ĠyF yDxAxD
ĠvB uG
ĠyFj xG
ĠyFj vFj
ĠyFj yE
ĠyFj yDjxAjxDj
ĠyG vG
ĠyG xGj
ĠvG vDuG
ĠyGj vGj
ĠyGj xA
xB xG
ĠxEwB wAwD
ĠxFxC wAjwDj
ĠxFjxCj wBwE
ĠxDwA wGwC
ĠxDjwAj wGjwCj
ĠyA wAj
ĠyA wD
ĠyA xAj
ĠyAj wB
ĠyAj wDj
ĠyAj yE
ĠxAxE xDwAwD
ĠvFj vCj
ĠvFj uB
ĠxAjxF xDjwAjwDj
ĠvF vC
ĠvF uAj
ĠxFjxD wCj
ĠxFjxD vG
ĠxGxDj wD
ĠxGxDj vGj
ĠxFxCj wFj
ĠxFxCj wC
ĠxFxCj vFj
ĠxExC wF
ĠxExC vB
ĠxExC vF
ĠxGjxE wDj
ĠxGjxE vA
ĠvE uA
ĠyCxG wAj
ĠyCjxGj wB
yCj xGj
ĠxAxF vAj
ĠxAjxFj vB
ĠxFjxDj wC
ĠxFjxDj vGj
ĠxFjxDj wGjwDj
ĠxFxD vB
ĠxFxD vG
ĠxFxD wGwD
ĠxDjwB vAj
ĠxExCj vAj
ĠxExCj wAwE
ĠxDwAj vA
ĠxDjxC vA
ĠxDwB vGj
ĠxAxD xC
ĠxAxD wAwE
ĠxAjxDj xCj
ĠxGjxF wGj
ĠxGjxF vAj
ĠxGjxF wAjwF
ĠxGxE wG
ĠxGxE vA
ĠxGxE wAwE
ĠxCjwAj wCj
ĠxCjwAj vG
ĠxAxFj wA
ĠxAxFj vB
ĠxAxFj wBwFj
ĠxAjxG wAj
ĠxAjxG wC
ĠxCwA wC
ĠxCwA vFj
ĠxBxGj wCj
ĠyCjxFj xE
ĠxGwG vG
ĠxGjwGj vGj
ĠzC xA
ĠyCxGj xD
ĠyCjxA xDj
ĠyDxAj xE
ĠyDjxB xF
ĠwFjwCj vAj
ĠwFjwCj vCj
ĠwFwC vA
ĠwFwC vC
ĠxCjwFj vAj
ĠxCjwFj vGj
ĠxCwF vA
ĠxCwF vG
ĠzD wB
ĠzD yFj
ĠzDj xC
ĠwBwE vFj
wGjwE vB
ĠyDxG xEwA
ĠyDxG xEwE
ĠyDjxGj xFwAj
ĠyDjxGj xFwF
ĠwAjwFvAj vF
ĠwBwFjvB vFj
ĠxFjwA wE
ĠxFjwA vD
ĠxFjwA wFjwCj
ĠxFjwA wFjwD
ĠwAwEvA vE
ĠxFwGj wDj
ĠxFwGj wFwC
ĠxFwGj wFwCj
ĠxEwG wD
ĠxEwG wEwC
ĠxEwG wEvB
ĠxGwAj vDj
ĠxGwAj wGwDj
ĠxGwAj wGwD
ĠyCxA xDwA
ĠxGjwB wGjwE
ĠxGjwB wGjwDj
ĠyCjxAj xDjwAj
ĠwAjwDj wCj
ĠwAjwDj vF
ĠwAwD wC
ĠwAwD vE
ĠxDjwFj wDjvAj
ĠxDwF wDvA
ĠyExA xFjwB
ĠyFjxB xGjxCj
ĠyFxAj xGxC
ĠxAxFxC wC
ĠxAjxFjxCj wCj
ĠxCjwE wCjvGj
ĠxCwDj wCvG
ĠwBwD vBvFj
ĠyDxF wF
ĠyDjxFj wFj
ĠyDxB xEwB
ĠyCjxAxE wE
ĠxFjwAj vFj
ĠzE xCj
ĠyDjyC xFxC
ĠyExE wE
ĠyExE wA
ĠyDxAjxF wF
ĠyDjxBxFj wFj
ĠxFwA vF
ĠyEyCj xFjxCj
ĠwFjvB vFjuB
ĠwAjwCj vAjvF
ĠwAwC vAvE
ĠwFvAj vFuAj
ĠwEvA vEuA
ĠxBxGxD wD
ĠyCxGjxDj wDj
ĠyFxF wAj
ĠyFjxFj wB
ĠxDjxCj vGj
ĠxDxC vG
ĠxCjwAwE vB
ĠxCwGjwDj vAj
ĠwBwGwD vA
wAwE wD
ĠwDjvGj vDjuGj
ĠwDvG vDuG
ĠxAjxE xCjwFj
ĠxAxDj xCwF
ĠxFwB vG
ĠxCjwAjwFj vAj
ĠxCwAwF vA
ĠyGjyF yC
ĠyCjxG xCj
ĠyAyFj yCj
ĠyAjyG yD
ĠyCxFj xC
ĠwAjwFjwCj vAjvFj
ĠwAwFwC vAvF
ĠwCjvFj vCjuFj
ĠwCvF vCuF
ĠyAyE yC
ĠyByGj yDj
ĠyAjyF yD
ĠyByFj yDj
ĠxFxCwAj vF
ĠxFjxCjwB vFj
ĠxCjwFjwCj vDj
ĠxCwFwC vD
ĠxCjwG wE
ĠxCwFj wDj
ĠwBwF wD
ĠxFwAjwFj vDj
ĠxEwAwF vD
ĠzCyF xF
ĠzCjyFj xFj
ĠxGjxDjxCj wGjwCj
ĠxGxDxC wGwC
vFjvCj uFj
vFvC uF
ĠxBxFjxE wBwE
ĠxGjxCjwA vFj
ĠxGxCwGj vF
ĠxFjwBwG vE
ĠyDxAxFjxD wAwD
ĠyDjxAjxGxDj wAjwDj
ĠyGyDxB xG
ĠxFjwAwFj wFj
ĠxFwGjwF wF
ĠxEwGwE wE
ĠxGwAjwG wG
ĠxGjwBwGj wGj
ĠxDjwFjwDj wDj
ĠxDwFwD wD
ĠxCjwEwCj wCj
ĠxCwDjwC wC
ĠwBwDvB vB
ĠyGjyDjyC wGj
ĠyAyEyCj wA
ĠxE uA
ĠxE xDwAjwF
ĠxF uAj
ĠxF xDjwBwFj
ĠxFj uB
ĠxFj xCwF
ĠxFj xExCwG
ĠxD vDj
ĠxG xCjwFj
ĠxG xFxCjwGj
ĠxGj xDwG
ĠxGj xFjxDwA
ĠxCj vD
ĠxCj wBwGwD
ĠxC vCj
ĠxA xDjwGj
ĠxA xGxDjwAj
ĠxAj xEwA
ĠxAj xGjxEwB
ĠwB vC
ĠwB wDjvB
ĠxB xAj
ĠxB xFwAj
ĠwAj wDvAj
ĠwA wCjvA
ĠwGj wCvGj
ĠwG uAj
ĠwG vBvG
ĠyC vC
ĠyC yC
ĠyC xFjwB
ĠyCj vCj
ĠyCj yCj
wB vFj
wE vCj
wA vE
wAj vF
xC vA
xCj vAj
ĠwFj uA
ĠwF uGj
xD vA
xDj vAj
ĠwE uG
ĠyD xGjxCj
ĠwDj vBvFj
ĠwD vAjvF
xF wC
xFj wD
xFj wCj
ĠwCj uB
ĠwCj vAvE
ĠwC vFj
xG wDj
xG wFwDj
xGj wFjwE
ĠyF xE
ĠvB vCj
ĠyFj xF
ĠvAj vC
ĠvA uB
ĠyG xFj
ĠyGj xG
ĠyGj yDjxAjxDj
ĠxEwB vD
ĠxFxC vDj
ĠxFjxCj vE
ĠxGjxDj vFj
ĠxGxD vF
ĠxDwA wC
ĠxDjwAj wCj
ĠyA vA
ĠyA yDj
ĠyAj vAj
ĠyAj xB
ĠxAxE xDwG
ĠxAjxF xDjwGj
ĠxBxFj xEwA
ĠxFjxD wGj
ĠxGxDj wA
ĠxFxCj wG
ĠxExC wFj
ĠxExC wAwE
ĠxGjxE wA
ĠxGjxE wAj
ĠyB vB
ĠyCxG wE
ĠyCxG xFwAj
ĠyCxG xFwF
ĠyCxG xDwAwD
ĠyCjxGj wF
ĠyCjxGj xFjwB
ĠyCjxGj xFjwFj
ĠyCjxGj xDjwAjwDj
ĠxAxF wB
ĠxFjxDj xDjwCj
ĠxFxD xDwC
ĠxGxC wAjwG
ĠxGjxCj wBwGj
ĠxDjwB vFj
ĠxDjwB wGjwDj
ĠxExCj vFj
ĠxExCj xCjvB
ĠxDwAj vF
ĠxDwAj wGwD
ĠxCjwA vGj
ĠxCjwA vE
ĠxCjwA wFjwCj
ĠxCwGj vG
ĠxCwGj vDj
ĠxCwGj wFwC
ĠxDjxC vF
ĠxDjxC xCvAj
ĠxFwAj wGwDvG
ĠxFwAj wGjwF
ĠxEwA wFjwCjvFj
ĠxEwA wGwE
ĠxFjwB wGjwDjvGj
ĠxFjwB wAwFj
ĠxDwB vE
ĠxDwB wBvA
ĠxAxD vD
ĠxAjxDj vDj
ĠwBwG vFj
ĠwBwG wEvB
ĠxDjwGj wFwCvF
ĠxDjwGj wFjwDj
ĠxDwG wEvBvE
ĠxDwG wFwD
ĠxEwE wCj
ĠxFwF wD
ĠxFjwFj wDj
ĠxGjxF wD
ĠxGjxF xFwDj
ĠxGxE wCj
ĠxGxE xEwD
ĠxCjwAj wAjvGj
ĠxAxFj wDj
ĠxAxFj xFjwE
ĠxAjxG wE
ĠxAjxG xGwFwDj
ĠxCwA wAvG
ĠxBxGj wF
ĠxBxGj vB
ĠxBxGj xGjwFjwE
ĠyDxA wFj
ĠyDxA xC
ĠyDjxAj wG
ĠyDjxAj xCj
ĠxDjwDj wC
ĠxDwD vB
ĠxGwG wE
ĠxGjwGj wF
ĠxCjwCj vFj
ĠxCwC vF
ĠxBxG wA
ĠyCxGj wAj
ĠyCjxA wB
ĠxAwA wFj
ĠxAjwAj wG
ĠyDxAj xC
ĠyDjxB xCj
ĠxBwB wGj
ĠwFjwCj vB
ĠwFwC vAj
ĠxCjwFj wEwCj
ĠxCwF wDjwC
ĠwBwE vGj
ĠwBwE wDvB
ĠyCxC vF
ĠwAjwFj vF
ĠwAjwFj wDjvAj
ĠwAwF vE
ĠwAwF wDvA
ĠyCjxCj vFj
ĠxFwGj vCj
ĠxEwG vC
ĠxGwAj wF
ĠyCxA wD
ĠyExB wGj
ĠxGjwB wFj
ĠxGjxC wC
ĠxAxCj wCj
ĠyCjxAj wDj
ĠwAjwDj uGj
ĠxGwB vB
ĠwAwD uG
ĠxAxC wG
ĠxAjxCj wGj
ĠwGjwCj uFj
ĠwGwC uF
ĠwBwGj vDj
ĠyDxD vG
ĠyDjxDj vGj
ĠwAjwG vAj
ĠwAjwG vD
ĠwGwE vG
ĠwGwE uB
ĠyExA wFj
ĠyExA xFjwFj
ĠyFjxB wGj
ĠyFxAj wG
ĠyFyC xC
ĠyFyC xGxDwG
ĠyFjyCj xCj
ĠyFjyCj xGjxDjwGj
ĠwAwFj vA
ĠwAwFj vCj
ĠwGjwF vGj
ĠwGjwF vC
ĠxFwG wCjvGj
ĠxAjxD wD
ĠxAjxD xC
ĠxFjwGj wDvA
ĠxBxDj wDj
ĠxBxDj xCj
ĠxFjwAj vDj
ĠzE yE
ĠxFwA vD
ĠxEwFj wCvG
ĠxDjwF vBvFj
ĠxDwE vAjvF
ĠwAjwCj vFj
ĠwAwC vF
ĠxGjwAj vGj
ĠxGjwAj wEvB
ĠxGwA vG
ĠxGwA wDjvAj
ĠxFjxDwB wFj
ĠwEvB vA
ĠxFxCjwAj wF
ĠxCwD vGjvDj
ĠxCjwDj vAvE
ĠxDjxCj wGj
ĠxDjxCj vAj
ĠxDjxCj wAwE
ĠxDxC wG
ĠxDxC vA
ĠxDxC wGjwDj
ĠxFjxE wCj
ĠwDjvAj vGj
ĠwDvA vG
ĠxGjxFj wDj
ĠxCwAj vF
ĠxCwAj wFjwCj
ĠxFjxC wD
ĠxFjxC vGj
ĠyDxFj xE
ĠxGxCj wDj
ĠxCjwB vFj
ĠxExD wB
ĠxExD vB
ĠxFxDj wC
ĠxGxCwG wD
ĠxGjxCjwGj wDj
ĠxAjxDjwAj wF
ĠxBxEwB wFj
ĠyExGj wB
ĠwBwCj vGvD
ĠxGxF wD
ĠwFjwDj vAj
ĠwFwD vA
ĠxAjxE wFj
ĠxAjxE xCjwCj
ĠxAxDj wF
ĠxAxDj xCwC
ĠxFwB wCj
ĠwCjvGj vFj
ĠyGyC wF
ĠyGyC xGxC
ĠyGjyCj wFj
ĠyGjyCj xGjxCj
ĠwCvG vF
ĠwAjwC vFjvCj
ĠwAvB vFvC
ĠxGjxD wE
wGjwDj wCj
ĠxAxG wE
ĠxAjxGj wF
ĠwBwA vE
ĠwBwA wEvA
ĠwBwA wFwC
ĠxAjxDjxC wGwC
ĠxBxExCj wGjwCj
ĠyGyD wG
ĠyGyD xAxD
ĠyEyC wA
ĠyFyCj wAj
ĠxBxF xD
ĠxBxF xDwD
ĠyCjxG xC
ĠyCjxG xE
ĠyCjxG xEwE
ĠyCxFj xDj
ĠyCxFj xDjwDj
ĠyGjyDj wGj
ĠyGjyDj xGj
ĠxAxDwB wFjvB
ĠxEwAj wC
ĠyDjxA xD
ĠxGjxCjwAj wFvAj
ĠyGjyE xCj
ĠxGjxDjwAj wFvAj
ĠyExAj xDj
ĠxGxDwA wEvA
ĠxBxA wFj
ĠwAjwFjwCj vAj
ĠwAwFwC vA
ĠwAjwGj vDj
ĠyCxAj wG
ĠyCjxB wGj
ĠxAxEwB wFjvB
ĠxAjxFxC wGwC
ĠxFjxDjwAj wEvB
ĠyAyE wA
ĠyAyE xBxE
ĠxGxCwA wEvA
ĠxBxFjxCj wGjwCj
ĠyDxBxG xD
ĠyAjyF wAj
ĠyAjyF yCxF
ĠxFxDwA wDjvAj
ĠyAyF yCxF
ĠyAjyFj yCjxFj
ĠyByFj wB
ĠyByFj yD
ĠyByFj yCjxFj
ĠyDjyCxGj xDj
ĠxEwGjwE vB
ĠxEwGjwE vE
ĠyCxFxD wAwD
ĠyCjxFjxDj wAjwDj
ĠyAyD xB
ĠyAjyDj yC
ĠyByE yCj
ĠyFjyD wB
ĠyGyDj xC
ĠxExCjwGj wDvA
ĠxDjxCwG wCjvGj
ĠxDwBwFj wCvG
ĠxFwAjwFj vAj
ĠxEwAwF vA
ĠxCjwAjwF vBvFj
ĠxCwAwE vAjvF
ĠyFyDxAj xF
ĠyFjyDjxB xFj
ĠxEwBwA vE
ĠyFjxBxGj wGj
ĠyFxAjxG wG
ĠxGjxCjwA wCj
zC yF
zCj yFj
ĠxGxCwGj wC
ĠxFjwBwG vB
xAxF xC
ĠwFjwDjvB vFj
ĠwFwDvAj vF
ĠzCyG xC
ĠzCyG yDj
ĠzCyG yE
ĠzCjyGj xCj
ĠwEwCjvA vE
ĠwDjwCvGj vDj
ĠyAyC wF
ĠyEyCxG xE
ĠyFyCjxGj xF
ĠwDvBvG vD
ĠwBwFjwE vE
ĠwAjwFwDj vDj
ĠwAwEwD vD
ĠzCyA yF
ĠzCjyAj yFj
ĠwAwFjwCj vGvD
ĠwBwGjwDj vAvE
ĠwAjwGwD vGjvDj
ĠyFjyDxA xFj
ĠyGyDjxAj xG
ĠxAjxGxC wGwEwC
ĠxBxGjxCj wGjwFwCj
ĠyGjyExB xGj
ĠyAjyCj wFj
ĠzDyA xD
ĠzDjyAj xDj
ĠzDjyAj yG
ĠzEyB xE
ĠyDxAxE wBwE
ĠyDjxAjxF xCwF
ĠyExBxFj xCjwFj
ĠzFzC xF
ĠzFjzCj xFj
ĠxFjxDjwGjwDj wCvGj
ĠxFxDwGwD vBvG
ĠxGjxFwAjwF wDvAj
ĠxGxEwAwE wCjvA
ĠxAxFjwBwFj wDjvB
ĠyCxAxDwA wFjwD
ĠyCjxAjxDjwAj wGwDj
ĠwAjwDjwCj vAjvCjuFj
ĠwAwDwC vAvCuF
ĠyDxBxEwB wGjwE
ĠyDjyCxFxC wAwF
ĠyEyCjxFjxCj wAjwFj
ĠxFjxDjxDjwCj vB
ĠxFxDxDwC vAj
ĠxGxCwAjwG vAjvDj
ĠxGjxCjwBwGj vBvE
ĠxExCjxCjvB vA
ĠxDjxCxCvAj vGj
ĠxFwAjwGjwF vGjvCj
ĠxEwAwGwE vGvC
ĠxFjwBwAwFj vAvD
ĠxDwBwBvA vG
ĠxDjwGjwFjwDj vFjuB
ĠxDwGwFwD vFuAj
ĠxGjxFxFwDj wCj
ĠxGxExEwD wC
ĠxCjwAjwAjvGj vFj
ĠxAxFjxFjwE wD
ĠxCwAwAvG vF
ĠxCjwFjwEwCj vEuA
ĠxCwFwDjwC vDjuGj
ĠwBwEwDvB vDuG
Ġ uFj
ĠxE xDj
ĠxDj xD
ĠxDj wFjwCj
ĠxDj xCjwFj
ĠxD wFwC
ĠxD xCwF
ĠxGj wEvA
ĠxC wB
ĠxA wFvAj
ĠxAj wFjvB
ĠxB wGwC
ĠwGj wFjvB
ĠwG wFj
ĠwG wFvAj
ĠyC wGjwCj
wG wCj
ĠyCj wAwD
wFj wC
wF vB
wD uB
wDj vC
ĠwFj wF
ĠwFj wEvA
ĠwF wE
ĠwF wDjvGj
xD vB
xDj wC
ĠwE vDj
ĠwE wDvG
ĠwE wCjvGj
ĠyD yD
ĠyD wAjwDj
ĠyDj yDj
ĠyDj wBwE
xE vA
vAj vG
vA vFj
ĠwDj wDj
ĠwDj vD
ĠwDj wCvG
ĠwD wD
ĠwD vCj
ĠwD vBvFj
ĠwD wCjvAvE
xF vAj
xFj vB
ĠwCj vC
ĠwCj vAjvF
ĠwCj wCvGjvDj
ĠwC uB
ĠwC uAj
ĠwC vAvE
ĠwC vBvGvD
ĠyE xF
ĠyF wB
ĠyF xFj
ĠvB vF
ĠvB uA
ĠvB vEuA
ĠyFj xC
xA wA
ĠyG xCj
ĠyG yF
ĠyGj yFj
ĠxEwB wB
ĠxEwB wDj
ĠxEwB vFj
ĠxFxC xC
ĠxFxC vG
ĠxFjxCj xCj
ĠxFjxCj vGj
ĠxGjxDj xDj
ĠxGjxDj vAj
ĠxGxD xD
ĠxGxD vA
ĠxDwA wA
ĠxDwA wCj
ĠxDwA wGwDvG
ĠxDjwAj wAj
ĠxDjwAj wD
ĠxDjwAj wGjwDjvGj
ĠxAxE vB
ĠxAxE vG
ĠxAjxF vGj
ĠxBxFj vA
ĠxCjwGj wGj
ĠxCjwGj wC
ĠxCjwGj vB
ĠxCjwGj vE
ĠxCjwGj wFjwCjvFj
ĠxCwG wG
ĠxCwG vB
ĠxCwG vAj
ĠxCwG vDj
ĠxCwG wFwCvF
ĠxFjxD wG
ĠxFjxD vFj
ĠxFjxD wGjwE
ĠxGxDj wGj
ĠxGxDj vG
ĠxGxDj wAwF
ĠxFxCj vF
ĠxFxCj wGwDj
ĠxExC vE
ĠxExC wFjwD
ĠxGjxE vGj
ĠxGjxE wAjwFj
ĠyB wG
ĠyB wE
ĠwBwFj vAj
ĠwBwFj vD
ĠwAjwF vA
ĠwAjwF vCj
ĠwAwE vGj
ĠwAwE vC
yC xG
ĠyCxG vAj
ĠyCjxGj vB
ĠyCjxGj xFwF
ĠyCjxGj xFjxCj
yCj wAj
ĠxAxF wAj
ĠxAxF vA
ĠxAjxFj wB
ĠxAjxFj vAj
ĠxGxC wAjvGj
ĠxGjxCj wBvA
ĠxDjwB wGjwE
ĠxDwAj wGwDj
ĠxCjwA wFjvB
ĠxCjwA wFjwD
ĠxCwGj wE
ĠxCwGj wFvAj
ĠxCwGj wFwCj
ĠxFwAj wFwC
ĠxFwAj wGjvFj
ĠxEwA wGvF
ĠxFjwB wFjwCj
ĠxFjwB wAvG
ĠxAxD xCvAj
ĠxAjxDj xCjvB
ĠwBwG wDj
ĠwBwG wEvA
ĠwBwG wEwC
ĠxBxE xDwC
ĠxDjwGj vB
ĠxDwG vAj
ĠxEwE uA
ĠxFwF uAj
ĠxFjwFj uB
ĠxGjxF wBwGj
ĠxGxE wAjwG
ĠxCjwAj wEvFj
ĠxCwA wDjvF
ĠwGjwDj vB
ĠwGjwDj vG
ĠwGwD vAj
ĠwGwD vFj
ĠyDxA wC
ĠyDxA xDwAwD
ĠyDjxAj wCj
ĠyDjxAj xDjwAjwDj
ĠyCxF xDjwCj
ĠyCjxFj xEwD
ĠxDjwDj vB
ĠxGwG vC
ĠxGjwGj vCj
ĠzC wGj
ĠzC xD
ĠxCjwCj vAj
ĠzCj wA
ĠzCj xDj
ĠxCwC vA
ĠxBxG vB
ĠyCxGj wC
ĠyCjxA wCj
ĠxAwA vD
ĠxAwA wFwD
ĠxAjwAj vDj
ĠxAjwAj wFjwDj
ĠyDxAj wD
ĠyDjxB wDj
ĠxBwB vE
ĠxBwB wGwE
wFjwCj vB
wFwC vAj
ĠxEwC vF
ĠxFwCj vFj
ĠxFjwD vG
ĠxGwDj vGj
ĠwFjwCj vA
ĠwFjwCj vF
ĠwFwC vE
ĠxCjwFj vA
ĠxCjwFj wDjvGj
ĠxCwF vGj
ĠxCwF wDvG
ĠwBwE vG
ĠxCjwGjwCj vGj
ĠxCwGwC vG
ĠyCxC wGjwF
ĠwAjwFj wDjvGj
ĠwAwF wDvG
ĠyCjxCj wAwFj
ĠyDxG wA
ĠyDxG xFwDj
ĠyDjxGj wAj
ĠyDjxGj xFjwE
ĠxFjwA wCj
ĠxFwGj wC
ĠxEwG vB
ĠxGjxC vG
ĠxAxCj vGj
ĠxGwB vFj
ĠxGjxDjwB vAj
ĠxGxDwAj vA
ĠxFxCwGj vG
ĠxFjxCjwA vGj
ĠxEwBwG vFj
ĠxAxC vD
ĠxAjxCj vDj
ĠwGwC vGj
ĠwBwGj wDvE
ĠxDjwFj wDjvB
ĠxDwF wDvAj
ĠyCjxE wB
ĠyCjxE vB
ĠyCjxE vFj
ĠxBxD wA
ĠxBxD vA
ĠxBxD vE
ĠwAjwG vDj
ĠwGjwE vFj
ĠwGwE vC
ĠyCxDj wAj
ĠyCxDj vAj
ĠyCxDj vF
ĠyExA xC
ĠyFxAj xCj
ĠxAxFxC wG
ĠxAjxFjxCj wGj
ĠxCjwE vFj
ĠxCjwE wCjvA
ĠxCwDj vF
ĠxCwDj wCvGj
ĠwBwD vE
ĠwBwD vBvG
ĠwAwFj vD
ĠwGjwF vCj
ĠxGjxDjwGj wDj
ĠxGxDwG wD
ĠxFwG vF
ĠxAjxD vA
ĠxFjwGj vFj
ĠyCjxAxE wCj
ĠxBxDj vAj
ĠxFjwAj vF
ĠyDxAjxF wD
ĠxFwA vE
ĠxEwFj vE
ĠxAjxC wGjvGj
ĠxDjwF vDj
ĠxDwE vD
ĠxFjxDjwB wFj
ĠxEwGj vB
ĠxEwGj vE
ĠwFjvB vGj
ĠwFjvB vG
ĠxFxDwAj wF
ĠxGxDjxC wG
ĠxGjxExCj wGj
ĠwFvAj vG
ĠyFxA xD
ĠyFjxAj xDj
ĠxBxCj wAvA
ĠwEvA vFj
ĠxBxGxD vB
ĠyCxGjxDj wC
ĠxDjxCwGj wDj
ĠwEvB vGj
ĠxDwBwG wD
ĠxFjxCjwAj wFjwCj
ĠxCwD vC
ĠxCjwDj vCj
ĠxFjxE vB
ĠxFxCwA wFwC
ĠxDjwBwFj vDj
ĠxDjwBwFj wDjvGj
ĠxDwAjwF wDvG
ĠxCwAj wC
ĠxCwAj wFwCvF
ĠxBxGxE wB
ĠyCjxAxFj xCj
ĠyDxAjxG xC
ĠyDxAjxG xD
ĠyDjxBxGj xCj
ĠyDjxBxGj xDj
ĠxCjwB wCj
ĠxCjwB wFjwCjvFj
ĠxExD vA
ĠxFxDj vAj
ĠxGxCwG vE
ĠxGjxCjwGj vF
ĠxAjxDjwAj vG
ĠxBxEwB vGj
ĠyCxExC wAwEvA
ĠyCjxFxCj wAjwFvAj
ĠwBwCj uB
ĠyDxFjxD wBwFjvB
ĠyDjxGxDj xCwGwC
ĠxAxEwA wEvA
ĠxAxDwA vFj
ĠwFwD vGj
ĠxAjxFwAj wFvAj
ĠxBxFjwB wFjvB
ĠyGyC xC
ĠyGjyCj xCj
ĠyCxFxC vA
ĠyCjxFjxCj vAj
ĠxAxG xD
ĠyCxGjxF xC
ĠxAjxGj xDj
ĠwBwA vB
ĠyExG wA
ĠyExG xE
ĠyExG xExC
ĠxEwBwGjwE vB
ĠyFxGj wAj
ĠyFxGj xF
ĠyFxGj xFxCj
ĠyDjxAjxG wG
ĠyCxGxE wE
ĠyGyD xGxDwG
ĠxDjwAjwGwDj vAj
ĠyGyE xC
ĠyGyE xE
ĠxDwAwFjwD vA
ĠyGjyF xCj
ĠyGjyF xF
ĠyDxAxFj wFj
ĠyFjxA wB
ĠyFjxA xFjxD
ĠyAyFj xD
ĠyAyFj xFj
ĠyAjyG xDj
ĠyAjyG xG
ĠyGxAj xGxDj
ĠyGjyDj xGjxDjwGj
ĠyGjxB xGj
ĠyGjxB xGjxE
ĠyDjxA wF
ĠyExAj wFj
ĠxDwGj vE
ĠwCjvFj vCj
ĠwCjvFj uB
ĠwCvF vC
ĠwCvF uAj
ĠyFyD xD
ĠyFjyDj xDj
ĠwAjwGwDj vDj
ĠwAwFjwD vD
ĠwGjwFwCj vCj
ĠwGwEwC vC
ĠyByGj xE
ĠyByGj xGj
ĠyDxGj wE
ĠyGxB wE
ĠyAyF xD
ĠyAjyFj xDj
wGwD wC
ĠyGjyC wF
ĠyAyCj wFj
ĠxEwAwFj vD
ĠyAyD xD
ĠyAjyDj xDj
ĠyByE xE
ĠxDjwGjwF vCj
ĠxDwGwE vC
ĠxFwAjwG vDj
ĠxFjwBwGj vE
ĠyCxGxC wGwC
ĠyCjxGjxCj wGjwCj
ĠyDxGxD vB
ĠyDjxGjxDj wC
ĠxGjxDjxCj vGj
ĠxGxDxC vG
ĠyExAxE wCj
ĠyFjxBxFj wDj
ĠyFxAjxF wD
ĠxBxFjxE vB
ĠyGxBxG wG
ĠyAjyD wG
ĠyByDj wGj
ĠyGjyCxGj wGj
yCjxAj wAj
ĠzCjyGj yF
ĠxAwBwG vG
ĠxAwBwG vE
wBwFj wE
ĠyDxDwAj wG
ĠyDjxDjwB wGj
ĠyExBxE wBwE
ĠyCxDwAj vAj
ĠyCxDwAj vG
ĠyCjxDjwB vB
ĠyCjxDjwB vGj
ĠxAxExD vA
ĠxAjxFxDj vAj
ĠyByG xG
ĠyByG yD
ĠzCyA xF
ĠzCjyAj xFj
ĠzCyGj xGj
ĠwBwAwE vBvE
ĠyCxGxF wC
ĠzCjyA yE
ĠxAxCjwAwE wCjvA
ĠxAjxCwGj vF
ĠxBxCjwA vFj
ĠxAjxDwAjwF wDvAj
ĠxBxDjwBwFj wDjvB
ĠxGjxCwGjwDj wCvGj
ĠyDyC xGxC
ĠxAxFjxC wA
ĠxAjxGxCj wAj
ĠxGwBwGwD vBvG
ĠzDyA yFj
ĠyFyCxF xCwF
ĠyFjyCjxFj xCjwFj
ĠxGwAwF vF
ĠxGjwAjwFj vFj
ĠyCjxGjxFj wCj
ĠxBxGjxD wE
ĠyCxAxDj wF
ĠyCjxAjxE wFj
ĠyDjyCj xGjxCj
ĠzEyB yG
ĠzCyE yC
ĠzFzC yGj
ĠzFjzCj yA
ĠwAjwCjvAj vAjvCjuFj
ĠwAwCvA vAvCuF
ĠzGzC yG
ĠzGzD yAj
ĠzGjzCj yGj
ĠzAzD yA
ĠzAjzDj yAj
ĠwAjwA wFwC
ĠyExGjxExCj wGjwCj
ĠxFjwAwFjwFj vAvD
ĠxFwGjwFwF vGjvCj
ĠxEwGwEwE vGvC
ĠxGwAjwGwG vAjvDj
ĠxGjwBwGjwGj vBvE
ĠxDjwFjwDjwDj vFjuB
ĠxDwFwDwD vFuAj
ĠxCjwEwCjwCj vEuA
ĠxCwDjwCwC vDjuGj
ĠwBwDvBvB vDuG
Ġ j
Ġ uF
ĠxE xEwE
ĠxF wGwC
ĠxF wBwE
ĠxF wAvA
ĠxF xFwF
ĠxFj wGjwCj
ĠxFj xFjwFj
ĠxDj uB
ĠxDj xDjwDj
ĠxD uAj
ĠxD xDwD
ĠxG wAwD
ĠxG wAvA
ĠxGj wAjwDj
ĠxCj uA
ĠxCj xCjwCj
ĠxC xCwC
ĠxA wBwE
ĠxAj xA
ĠxAj xCwF
ĠwB wBvB
ĠxB wEvA
ĠxB xCjwFj
ĠwAj uGj
ĠwAj wGjwDjvGj
ĠwAj wEvB
ĠwA wAvA
ĠwA wDjvAj
ĠwA wGjwEvB
ĠwGj wEwC
ĠwGj wDvA
ĠwGj wGwDjvAj
ĠwG wCjvGj
ĠwG wFjwDvA
ĠyC wFvAj
ĠyC xDwD
ĠyCj wFjvB
ĠyCj xDjwDj
ĠyCj xFwF
wA vD
wAj vDj
wD vGj
xC wAwD
xCj wAjwDj
ĠwFj wDjvGj
ĠwFj wCvGj
ĠwFj wCvG
ĠwFj wFwCjvGj
ĠwF wDvG
ĠwF vBvG
ĠwF vBvFj
ĠwF wEwCvG
ĠwE vAjvF
ĠwE wDjvBvFj
ĠyD wGwC
ĠyD wBwG
ĠyDj wGjwCj
ĠyDj yCjxAj
xE wCj
ĠwDj vE
ĠwDj vAvE
ĠwDj vBvFjuB
ĠwDj wDvAjvF
ĠwD vDj
ĠwD vBvE
ĠwD vBvFjuB
ĠwD vAjvFuAj
ĠwD vGjvDj
ĠwCj vEuA
ĠwCj vAjvFuAj
ĠwCj vGvD
ĠwC vDjuGj
ĠwC vAvEuA
ĠwC vFjvCj
ĠyE yD
ĠyE wAwD
ĠyF yDj
ĠyF wAjwDj
ĠyF xDwAj
ĠvB vDuG
ĠvB vFvC
ĠyFj wBwE
ĠyFj xDjwB
ĠyG yCjxAjwAj
ĠxEwB vF
ĠxFxC vFj
ĠxFjxCj vG
ĠxGjxDj vA
ĠxGxD vGj
ĠxDjwAj wGjwDj
ĠyA yDxAxD
ĠyAj yDjxAjxDj
ĠyAj yCjxAj
ĠyAj yCjxAjxFj
ĠxAxE vAj
ĠxAjxF wC
ĠxAjxF vB
ĠxBxFj wCj
ĠxBxFj wC
ĠxCjwGj wFjwCj
ĠxCjwGj wEvBvE
ĠxCwG wFwC
ĠxFjxD vE
ĠxFjxD wGwD
ĠxFjxD wGwE
ĠxGxDj vF
ĠxGxDj wGjwDj
ĠxGxDj wGjwF
ĠxFxCj vDj
ĠxFxCj wFjwCj
ĠxFxCj wFjwDj
ĠxExC vD
ĠxExC wFwC
ĠxExC wFwD
ĠxGjxE vFj
ĠxGjxE wAwFj
ĠyB xC
ĠwBwFj wFj
ĠwBwFj vA
ĠwAjwF wF
ĠwAjwF vGj
ĠwAwE wE
ĠwAwE vG
ĠyCxG wD
ĠyCxG wCj
ĠyCxG vA
ĠyCjxGj wDj
ĠyCjxGj vAj
ĠxAxF wBwG
ĠxAxF wAjwG
ĠxAjxFj xCwGj
ĠxAjxFj wBwGj
ĠxFjxDj wE
ĠxFjxDj wAwFj
ĠxFxD wDj
ĠxFxD wAvA
ĠxFxD wGjwF
ĠxGxC wAj
ĠxGjxCj wB
ĠxDjwB wG
ĠxDjwB vCj
ĠxDjwB wGjvGj
ĠxDjwB wEwCj
ĠxExCj wD
ĠxExCj wGwE
ĠxDwAj wFj
ĠxDwAj vC
ĠxDwAj wGvG
ĠxDwAj wDjwC
ĠxCjwA wF
ĠxCjwA uB
ĠxCjwA wDvB
ĠxCwGj uAj
ĠxDjxC wCj
ĠxDjxC wFjwDj
ĠxFwAj wGj
ĠxEwA wG
ĠxFjwB wA
ĠxDwB wC
ĠxDwB wFwD
ĠxAxD wAvA
ĠwBwG vD
ĠwBwG uA
ĠxBxE wG
ĠxBxE xD
ĠxEwE vB
ĠxEwE vG
ĠxFwF wC
ĠxFwF vGj
ĠxFwF vF
ĠxFjwFj wD
ĠxFjwFj wCj
ĠxFjwFj vA
ĠxFjwFj vFj
ĠxCjwAj wE
ĠxCjwAj vCj
ĠxCjwAj wEwCj
ĠxAxFj xCjwCj
ĠxAjxG xDwD
ĠxCwA wDj
ĠxCwA vC
ĠxCwA wDjwC
ĠwGjwDj vBvFjuB
ĠwGwD vAjvFuAj
ĠxBxGj wB
ĠxBxGj xDjwDj
ĠyDxA wE
ĠyDxA vB
ĠyDjxAj wF
ĠyDjxAj wC
ĠyCxF wGj
ĠyCxF xDj
ĠyCjxFj wA
ĠxDjwDj vFj
ĠxDwD vF
ĠxGwG wDj
ĠxGwG vAj
ĠxGwG wDjvAj
ĠxGjwGj vB
ĠxGjwGj wEvB
ĠzC wF
ĠzC xCj
ĠxCjwCj vE
ĠzCj wFj
ĠzCj xD
ĠxCwC vDj
ĠxBxG wC
ĠxBxG xCjwA
ĠyCxGj wCj
ĠyCxGj xDwAj
ĠyCjxA wD
ĠyCjxA xDjwB
ĠyDxAj wDj
ĠyDxAj xExC
ĠyDjxB wE
ĠyDjxB xFxCj
ĠxBwB vG
ĠxAwD vG
ĠxAjwDj vGj
ĠwBvB vD
ĠxEwC vD
ĠxFwCj vDj
ĠxFjwD vE
ĠxGwDj vF
ĠxGjwE vFj
ĠwFjwCj vAjvDj
ĠwFjwCj vAvEuA
ĠwFwC vAvD
ĠxCjwFj vDj
ĠxCwF vD
ĠzD wG
ĠzD wAj
ĠzD xDj
ĠzD xA
ĠzD xB
ĠzD yFjxB
ĠzDj wGj
ĠzDj wB
ĠzDj xE
ĠzDj xAj
ĠyCxC wA
ĠyCxC vGj
ĠwAjwFj vCj
ĠwAjwFj wDjvAjvDj
ĠwAwF wCj
ĠwAwF vC
ĠwAwF wDvAvD
ĠyCjxCj wAj
ĠyCjxCj vA
ĠyDxG wAj
ĠyDjxGj wB
ĠxFjwA wAwD
ĠxFwGj wGjwCj
ĠxAwF vG
ĠxAjwFj vGj
ĠxGwE uA
ĠxEwG wGwC
ĠxGwAj wAjwDj
ĠxGjwF uAj
ĠyCxA wG
ĠyCxA wE
ĠyCxA wC
ĠyCxA xEwE
ĠyExB wA
ĠyExB wCj
ĠyExB xGxC
ĠxGjwB wBwE
ĠxGjxC wCj
ĠxGjxC wAjvF
ĠxAxCj wD
ĠxAxCj wBvFj
ĠyCjxAj wF
ĠyCjxAj wCj
ĠyCjxAj xFwF
ĠwAjwDj vB
ĠwAjwDj vG
ĠwAjwDj vFj
ĠyCjxGjxE wBwE
ĠxGwB wC
ĠxGwB wAvE
ĠwAwD vAj
ĠwAwD vFj
ĠwAwD vF
ĠxAxExC wGwC
ĠxAjxFxCj wGjwCj
ĠxGjxDjwB wFjvB
ĠxGxDwAj wFvAj
ĠxBxFjxD wAwD
ĠyCxGxDj wAjwDj
ĠxAwFj uB
ĠxFxCwGj wDjvGj
ĠxFjxCjwA wEvA
ĠxEwBwG wDvG
ĠxAjwG vC
ĠxBwGj vCj
ĠxAxC wE
ĠxAxC vG
ĠxAxC wFwC
ĠxAxC xCwF
ĠxAjxCj wF
ĠxAjxCj vGj
ĠxAjxCj wFjwCj
ĠxAjxCj xCjwFj
ĠwGjwCj vA
ĠwGjwCj vF
ĠwGjwCj vE
ĠwGjwCj vDj
ĠwGwC vE
ĠwGwC vDj
ĠwBwGj wD
ĠwBwGj wDvB
ĠyDxD vAj
ĠyDjxDj vB
ĠyCjxE wGj
ĠyCjxE wAwE
ĠyCjxE xEwA
ĠwGwDvG vD
ĠwGjwDjvGj vDj
ĠxBwG vA
ĠyCwGj vAj
ĠxBxD wFj
ĠxBxD xDwG
ĠwGjwE wCj
ĠwFwCj vAj
ĠwFwCj vDj
ĠwEwC vA
ĠwEwC vD
ĠwGwDj wC
ĠwGwDj vB
ĠwGwDj vF
ĠyCjwA vB
ĠwFjwD vB
ĠwFjwD vE
ĠyCxDj wG
ĠyCxDj xDjwGj
ĠyExA wB
ĠyExA xExC
ĠyFjxB xCj
ĠyFjxB xD
ĠyFjxB xFjxD
ĠyDwAj wC
ĠyDjwB wCj
ĠyFxAj xC
ĠyFxAj xFxCj
ĠyDxAxF xCwF
ĠyDjxAjxFj xCjwFj
ĠyFyC wAj
ĠyFyC xGjxCj
ĠyFjyCj wB
ĠyDxF wA
ĠyDxF xC
ĠyDxF xFwAj
ĠyDxF wAjwF
ĠyDjxFj wAj
ĠyDjxFj xCj
ĠyDjxFj xFjwB
ĠyDjxFj wBwFj
ĠyDxB xFjwFj
ĠxGjxDjxC wGjwDj
ĠxFwG vAj
ĠxFwG vG
ĠxAjxD wDj
ĠxFjwGj vB
ĠxFjwGj vGj
ĠxBxDj wE
ĠxFjwAj vAj
ĠxFjwAj wGjvDj
ĠyDjxBxFj wDj
ĠxFwA wGvD
ĠxEwFj vA
ĠxAjxC wAj
ĠxAjxC wDj
ĠxAjxC wC
ĠxAjxC vAj
ĠxDjwF vGj
ĠxDwE vG
ĠxEwGj vCj
ĠwFjvB vD
ĠwFvAj vFj
ĠwFvAj vCj
ĠxBxCj wB
ĠxBxCj wCj
ĠxGjwAj wCj
ĠxGjwAj vAj
ĠwEvA vF
ĠwEvA vC
ĠxDjwG vDj
ĠxDjwG vC
ĠxGwA wC
ĠxDwFj vD
ĠxDwFj uB
ĠwEvB uB
ĠxCwE uA
ĠyFxF wF
ĠyFjxFj wFj
ĠxCjwF uAj
ĠxAwB wA
ĠxAwB wD
ĠxAwB vB
ĠxAwB vA
ĠxFjxCjwAj vGj
ĠxCwD wC
ĠxCjwDj wCj
ĠyCwA vD
ĠyCjwAj vDj
ĠxBxGjxE wB
ĠxDjxCj wDj
ĠxDjxCj wGjvGj
ĠxDxC wD
ĠxDxC wGvG
ĠxCjwAwE wD
ĠxCjwAwE vE
ĠxCjwAwE vCj
ĠxFjxE wFj
ĠxFxCwA vG
ĠxCwGjwDj wCj
ĠxCwGjwDj vDj
ĠxCwGjwDj vC
ĠxGjxFxCj wGj
ĠxGxExC wG
ĠxDjwBwFj wE
ĠxDjwBwFj vFj
ĠxDwAjwF wDj
ĠxDwAjwF vF
ĠxDwAjwF vD
ĠwDjvAj vFj
ĠwDjvAj uAj
ĠwDvA vF
ĠwDvA uA
ĠxAjxDwAj wD
ĠxAjxDwAj wFvAj
ĠxBxDjwB wDj
ĠxBxDjwB wFjvB
ĠyCxE wE
ĠyCxE xDvA
ĠwBwGwD wC
ĠwBwGwD vD
ĠwBwGwD uB
ĠxGjxCwGj wC
ĠxGjxCwGj wDjvGj
ĠxGwBwG vB
ĠxGwBwG wDvG
ĠxGjxFj wGj
ĠxGjxFj wCj
ĠxGjxFj xDjvGj
ĠxFjxC vF
ĠyDxFj wFj
ĠxBxGxE vE
ĠyCjxAxFj vFj
ĠxGxCj vFj
ĠyDxAjxG vG
ĠyDjxBxGj vGj
ĠxExD wE
ĠxFxDj wF
ĠxGxCwG vGj
ĠxGxCwG vG
ĠxGjxCjwGj vA
ĠxGjxCjwGj vGj
ĠyCjxF xDjvAj
ĠxDwAwF vE
ĠxDjwAjwFj vF
ĠyDjxG wG
ĠyDjxG xFwC
ĠxAjxDjwAj vB
ĠxAjxDjwAj vAj
ĠxBxEwB vB
ĠyExGj wGj
ĠyExGj xFjwCj
ĠyCxExC wGwC
ĠyCjxFxCj wGjwCj
ĠyDxFjxD wAwD
ĠyDjxGxDj wAjwDj
ĠxEwAwE vB
ĠxEwAwE vF
ĠxGxF wG
ĠxGxF wC
ĠxGxF xDvG
ĠxAxDwA vAj
ĠxDjwGjwDj vAj
ĠxDwGwD vA
ĠwFjwDj vFj
ĠwFwD vF
ĠxAjxE wG
ĠxAjxE wAj
ĠxAjxE vA
ĠxFwAjwF vFj
ĠxFjwBwFj vG
ĠxAxDj wA
ĠxAxDj wFj
ĠxAxDj vGj
ĠxFwB vE
ĠwCjvGj uGj
ĠyGyC xDj
ĠyGjyCj xE
ĠxEwBwGj vGj
ĠxEwBwGj vFj
ĠyDjxC vF
ĠyExCj vFj
ĠxGjxD wGj
ĠxGjxD wF
ĠxGjxD vG
ĠxGjxD wBvB
ĠxAxG wD
ĠxAxFjxD wA
ĠxAjxGxDj wAj
ĠyDwB vE
ĠyCxGjxF vF
ĠxAxCjwA wCj
ĠxAxCjwA wEvA
ĠyGyD xC
ĠyGyD xG
ĠwAwG vD
ĠwAwG wDvG
ĠyFjxA xFj
ĠxBxF wGj
ĠxBxF wB
ĠxBxF vAj
ĠyCjxG wAj
ĠyCjxG wC
wDvA vG
ĠyAyFj yDxA
ĠyAjyG yDjxAj
ĠyFjxAjxFj xDjwAjwDj
ĠyCxFj wA
ĠyCxFj vB
ĠyGxAj xG
ĠyGjyDj xCj
ĠxEwAj wE
ĠxEwAj vFj
ĠxDjwAjwG vF
ĠxDwAwFj vE
ĠyDjxA wD
ĠyDjxA xC
ĠyDjxA xFjwFj
ĠxDjwA wDj
ĠxDjwA vB
ĠxDjwA vF
ĠxCwGwE vD
ĠxGjxCjwAj vGj
ĠxCjwGjwF vDj
ĠxEwF wDvA
ĠxFwFj wDjvAj
ĠxFjwG wEvB
ĠxGwGj wFwC
ĠyExAj wDj
ĠyExAj xGwG
ĠxBxA xE
ĠwAjwFjwCj vB
ĠwAjwFjwCj vGj
ĠwAjwFjwCj vCj
ĠwAwFwC vAj
ĠwAwFwC vG
ĠwAwFwC vC
ĠwEwCj vFj
ĠwEwCj vE
ĠwEwCj vGjvCj
ĠxDwGj vAj
ĠwDjwC vF
ĠwDjwC vDj
ĠwDjwC vGvC
ĠxGjwA wFjwCj
ĠxAwAj wGwD
ĠxAjwB wGjwDj
ĠyFxD vG
ĠyFjxDj vGj
ĠyFxAxF xDwAwD
ĠyCxAj xF
ĠyCxAj xG
ĠyCjxB xFj
ĠyCjxB xGj
ĠxGxDwBwG wD
ĠxFjxDjwAj vAj
ĠxFjxDjwAj wFjvB
ĠwDvB vD
ĠyAyE xD
ĠxGxCwA vG
ĠyDxGj wB
ĠyDxGj wCj
ĠyDxGj xF
ĠyDxGj xFwF
ĠyDxBxG wG
ĠyAjyF xDj
ĠyAjyF yCj
ĠxFxDwA wFvAj
ĠyExBxGj wGj
ĠyAjyFj yCj
ĠyAjyFj yCjxAjxFj
ĠzG yByE
ĠyByFj xE
ĠyDjyCxGj wGj
ĠxFxCwAj wFwCvF
ĠxFjxCjwB wFjwCjvFj
ĠwFjvAj vFj
ĠwFvA vF
ĠyDxE wG
ĠwCvGj vDj
ĠzGj zCyF
ĠxEwGjwE vCj
ĠxDjwE wCjvGj
ĠvBvG vD
ĠyDjxF wGj
ĠxCwCj vAjvF
ĠxEwAwFj vE
ĠxGjxFxC wC
ĠxGjxFxC wGjwCj
ĠxGjxFxC wFjwCj
ĠxDjwGwDj vDj
ĠxDjwGwDj vC
ĠxDwFjwD vD
ĠxDwFjwD uB
ĠxCjwD vBvFj
ĠxCjwFjwCj vGj
ĠxCwFwC vG
ĠwBwC vAvE
ĠwCjvAj vCj
ĠwCvA vC
ĠyExFj wA
ĠyAyD wG
ĠyAyD xBxE
ĠyAjyDj wGj
ĠyAjyDj yCxF
ĠyByE xBxE
ĠyByE yCjxFj
ĠxDjwGjwF vDj
ĠxDwGwE vD
ĠxDwDj wCvG
ĠxGxEwB vB
ĠxGxEwB wGwC
ĠxGxEwB wFwC
ĠxCjwFwCj vCj
ĠxCwEwC vC
ĠwGjwFj vCj
ĠwGwF vC
ĠxAxDwAj wD
ĠxAjxDjwB wDj
ĠyFjyCjxA xD
ĠxCwFj vGj
ĠyGyDxAj xDj
ĠyGjyDjxB xE
ĠxExCjwGj wEvA
ĠxDjxCwG wDjvGj
ĠxDwBwFj wDvG
ĠxAxFjxCj wAwD
ĠxAjxGxD wAjwDj
ĠxBxGjxDj wBwE
ĠxFwAjwG vF
ĠxFjwBwGj vFj
ĠwBwF vG
ĠxCwGwDj vG
ĠxCwGwDj vAjvDj
ĠwBwFjwD vFj
ĠwBwFjwD vAvD
ĠxCjwGjwE vGj
ĠwAjwFwCj vF
ĠwAjwFwCj vGjvCj
ĠwAwEwC vE
ĠwAwEwC vGvC
ĠzCyF yCxF
ĠzCjyFj yCjxFj
ĠwDjvFj uB
ĠwDvF uAj
ĠxBxExC wE
ĠyCxFxCj wF
ĠxGjxDjxCj wGjwDjvGj
ĠxGxDxC wGwDvG
ĠyCjxFjxD wFj
ĠyDjxGjxE wGj
ĠyDxGxDj wG
ĠxCjwAwFj vFj
ĠxCwGjwF vF
ĠwBwGwE vE
ĠyGyEyC xG
ĠyGjyFyCj xGj
ĠxBxFjxE wBwFjvB
ĠyGxBxG xD
ĠyFxG wAj
ĠyFjxGj wB
wAjwF wDj
ĠwBwFjwDj vCj
ĠwAjwFwD vC
ĠwAwEwCj uB
ĠwAjwDjvAj vG
ĠwAwDvA vFj
ĠyDjyCxG wG
ĠyEyCjxGj wGj
ĠyAyC xAxF
ĠxAxExD wAwEvA
ĠxAjxFxDj wAjwFvAj
ĠyEyCxG xExC
ĠyFyCjxGj xFxCj
zD yG
ĠyExExC wA
ĠyFxFxCj wAj
ĠyFjxFjxD wB
ĠyGjxGjxE xCj
ĠwGjwEvB vA
ĠwGwDjvAj vGj
ĠwGwDjvAj vG
ĠwFjwDvA vG
ĠwFjwDvA vFj
ĠyGyDxB xGxDwG
ĠzA zCjyFj
ĠzAj zDyG
ĠyGxGxDj xC
zDj yGj
ĠwAwDj wCvF
ĠwGjwD vBvE
ĠyGjxAj xCj
ĠzCyGj yDj
ĠwFwCjvGj vFj
ĠwFwCjvGj vF
ĠwEwCvG vF
ĠwEwCvG vE
ĠwBwAwE vE
ĠwBwAwE vD
ĠwAjwE wCjvFj
ĠyCxGxF xCwGwC
ĠzCjyA xA
ĠyGjyCjxAj xDj
ĠxBxDwG wD
ĠyCxDjwGj wDj
ĠzDyAj xAj
ĠzDyAj yF
ĠzDjyB xB
ĠzDjyB yFj
ĠyGyCxA xD
ĠwAjwGjwDj vCj
ĠyFjyDxA xFjxD
ĠyGyDjxAj xGxDj
ĠyGjyExB xGjxE
ĠyDyC xG
ĠyDyC xA
ĠyDxExC wC
ĠyDjxFxCj wCj
ĠyFxB xGjwGj
ĠwGjwCjvGj vF
ĠwGwCvG vE
ĠyByGjyE xB
ĠwAjwAj vAj
ĠyExFjxD wD
ĠyFxGxDj wDj
ĠyFjxGjxE wE
ĠyExBxGjxE wBwE
ĠxEwGwC vG
ĠxFwGjwCj vGj
ĠwGjwFjwCj uB
ĠwGwFwC uAj
ĠxCwGjwCj vAj
ĠwBwGwC vA
ĠyDxAxG wD
ĠyDxAxG xDwAwD
ĠyDjxAjxGj wDj
ĠyDjxAjxGj xDjwAjwDj
ĠxFjwAwD vA
ĠxGwAjwDj vAj
ĠxGjwBwE vB
ĠyFjyC xAwA
ĠvAjvCj uFj
ĠvAvC uF
ĠyFyCxAxF xCwF
ĠyDjyCj xGj
ĠyFjyCjxAjxFj xCjwFj
ĠxGxG wG
ĠxGjxGj wGj
ĠzB zDjyGj
ĠyGxA xC
ĠzEyB yGj
ĠxCwAjwF vF
ĠxCwAjwF vDj
ĠxCjwBwFj vFj
ĠxCjwBwFj vE
ĠwAwGwD vC
ĠwFjwEvB uA
ĠzCyE xA
ĠzCjyF xAj
ĠzCjyF yCj
ĠyAyFyC xAxF
ĠyAxB xD
ĠwFwDjvAj uGj
ĠwEwDvA uG
ĠwDjwCjvGj uFj
ĠwDwCvG uF
ĠyAjyC xDj
ĠyByCj xE
ĠyByD xBxG
ĠzCyDj yCxGj
ĠzCjyE yCjxA
ĠzDjyG yC
ĠzEyGj yCj
ĠyGjyDjyCxGj xDjwGj
ĠyAyEyCjxA xEwA
ĠyAjyFyDxAj xFwAj
ĠxFjxExCj vFj
ĠyByFjyDjxB xFjwB
ĠwEvBvG vDuG
ĠxEwBwAwE vBvE
ĠwFwCvGj vDjuGj
ĠzFyA yD
ĠzFjyAj yDj
ĠzGzD xG
ĠzGjzDj xGj
ĠzBzE yB
ĠzCyD xF
ĠzCjyDj xFj
ĠzDyF yDxAj
ĠzDjyFj yDjxB
ĠxFxDjxC vF
ĠyAjyFyD wAj
ĠyByFjyDj wB
ĠxAjxDxC vG
ĠxBxDjxCj vGj
ĠyDxFjxE vB
ĠxExDwB vE
ĠyCjxGjxFjxCj wGjwCj
ĠxE xDjwB
ĠxE xDjwBwFj
ĠxE xExCwG
ĠxF xE
ĠxF xExC
ĠxF xExCwG
ĠxF xFxCjwGj
ĠxFj xF
ĠxFj xFxCj
ĠxFj xFxCjwGj
ĠxFj xFjxDwA
ĠxDj xDwAj
ĠxDj xDjwBwFj
ĠxDj xDwAjwF
ĠxD wGjwDjvGj
ĠxD xDwAjwF
ĠxG xFjxD
ĠxG xFjxDwA
ĠxG xGxDjwAj
ĠxGj xGxDj
ĠxGj xGxDjwAj
ĠxGj xGjxEwB
ĠxCj wGwDvG
ĠxC wFjwCjvFj
ĠxC wBwG
ĠxC uGj
ĠxC wBwGwD
ĠxA xGj
ĠxA xGjxE
ĠxA xGjxEwB
ĠxA xAxFxC
ĠxAj xAxFxC
ĠwB wBwE
ĠwB wDjvGj
ĠwB wFwCvF
ĠwB uG
ĠwB wBwGwD
ĠxB vF
ĠwAj wAjwDj
ĠwAj wDvG
ĠwAj wEvBvE
ĠwA wGj
ĠwA wAwD
ĠwA uG
ĠwA wDjvAjvDj
ĠwGj wG
ĠwGj wGjwCj
ĠwGj wGjwDjvGj
ĠwG wGwC
ĠwG vBvE
ĠwG wGwDvG
wGj vCj
ĠyC vFj
ĠyC xDwG
wG vC
ĠyCj vG
ĠyCj xDjwGj
wD wC
wDj wCj
xC wG
xC wE
xC wGwF
xCj wF
xCj wGjwFj
ĠwFj wFjvB
ĠwFj wFjwCjvFj
wCj vDj
ĠwF wFvAj
ĠwF wFwCvF
wC vD
xDj xCwF
ĠwE wEvA
ĠwE vAjvFj
vB vCj
ĠyD vGj
ĠyD xEwA
ĠyDj vA
ĠyDj xFwAj
vAj vGvC
vA vFjuB
ĠwDj wDjvGj
ĠwDj wCjvFj
ĠwDj vAvF
ĠwD wDvG
ĠwD wCvF
ĠwD vGjvE
vG vEuA
ĠwCj wCj
ĠwCj vD
ĠwCj vAjvDj
ĠwCj uFj
ĠwC wC
ĠwC vAvD
ĠwC uF
ĠyE vAj
ĠyE xFjwB
ĠyF vB
ĠvB vDj
ĠvB vGjvDj
ĠyFj wC
ĠvAj uFj
ĠvAj vDjuGj
ĠvAj vGvD
ĠvA uF
ĠvA vDuG
ĠvA vFjvCj
xA xCwGwF
ĠyG wCj
ĠvGj vFj
ĠvGj vFvC
ĠvG vF
ĠvG vDj
ĠyGj wD
ĠyGj xD
xB wB
ĠxEwB wAj
ĠxEwB wEvA
ĠxEwB wFjwD
ĠxFxC wFvAj
ĠxFxC wGwDj
ĠxFjxCj wFjvB
ĠxFjxCj wGjwE
ĠxFjxCj wGjvGj
ĠxGjxDj wGjwCj
ĠxGxD wGwC
ĠxDwA wGj
ĠxDwA wDvG
ĠxDwA wEwC
ĠxDjwAj wA
ĠxDjwAj wDjvGj
ĠxDjwAj wFwCj
ĠyA wE
ĠyA wDj
ĠyA xDj
ĠyA yG
ĠyAj wE
ĠyAj wF
ĠyAj xE
ĠyAj yGj
ĠxAxE wAwD
ĠxAxE wAwE
ĠxAjxF wAjwDj
ĠxBxFj wBwE
ĠxCjwGj wG
ĠxCjwGj wDjvB
ĠxCjwGj wEvB
ĠxCwG wFj
ĠxCwG wDvAj
ĠxCwG wDjvAj
ĠxFjxD wAj
ĠxFjxD wF
ĠxFjxD vD
ĠxGxDj wFj
ĠxGxDj vDj
ĠxFxCj wE
ĠxFxCj wA
ĠxFxCj vCj
ĠxExC wGj
ĠxExC wDj
ĠxExC vC
ĠxGjxE wG
ĠxGjxE vE
ĠxGjxE wAwE
ĠyB wFj
ĠyB yF
ĠwBwFj wF
ĠwBwFj wCjvA
ĠwBwFj wDvA
ĠwAjwF wE
ĠwAjwF wCvGj
ĠwAjwF wCjvGj
ĠwAwE wDj
ĠwAwE vBvG
ĠwAwE wCvG
ĠyCjxGj wD
ĠxAxF wGj
ĠxAxF vG
ĠxAxF vF
ĠxAjxFj wA
ĠxAjxFj vGj
ĠxAjxFj vFj
ĠxFjxDj wA
ĠxFjxDj xC
ĠxFjxDj xCj
ĠxFjxDj vE
ĠxFjxDj wAwFjvB
ĠxFxD wB
ĠxFxD xC
ĠxFxD vDj
ĠxFxD wGjwFvAj
ĠxGxC vAj
ĠxGxC wAjwDj
ĠxGxC wGwDj
ĠxGxC wAwE
ĠxGxC wGjwDj
ĠxGjxCj vB
ĠxGjxCj wBwE
ĠxGjxCj wGjwE
ĠxGjxCj wAwE
ĠxDjwB wD
ĠxDjwB vE
ĠxDjwB wEvB
ĠxExCj wG
ĠxExCj wB
ĠxExCj wAj
ĠxExCj vD
ĠxExCj wGvAj
ĠxExCj wGwEvA
ĠxDwAj vDj
ĠxDwAj wDjvAj
ĠxCjwA vD
ĠxCjwA wDvA
ĠxCwGj vCj
ĠxCwGj wCjvGj
ĠxDjxC wA
ĠxDjxC wAj
ĠxDjxC wFj
ĠxDjxC vCj
ĠxDjxC wFjvA
ĠxFwAj vGj
ĠxFwAj wGjwCj
ĠxFwAj wFjwCj
ĠxFwAj wGwD
ĠxEwA vG
ĠxEwA wGwC
ĠxEwA wFjwCj
ĠxEwA wFwC
ĠxFjwB vA
ĠxFjwB wAwD
ĠxFjwB wGjwDj
ĠxFjwB wGwD
ĠxDwB wGj
ĠxDwB wA
ĠxDwB wF
ĠxDwB vC
ĠxDwB wFvGj
ĠxAxD wF
ĠxAxD wC
ĠxAjxDj wFj
ĠxAjxDj wCj
ĠwBwG vC
ĠwBwG wCvG
ĠxDjwGj wFj
ĠxDjwGj vFj
ĠxDjwGj vE
ĠxDjwGj wFwC
ĠxDjwGj wEvB
ĠxDwG wF
ĠxDwG vF
ĠxDwG vDj
ĠxDwG wEvB
ĠxDwG wDjvAj
ĠxEwE vC
ĠxEwE wCjvA
ĠxEwE vAjvF
ĠxEwE wCvG
ĠxEwE wCjvE
ĠxFwF vCj
ĠxFwF wDvAj
ĠxFwF vBvFj
ĠxFwF wCjvGj
ĠxFwF wDvF
ĠxFjwFj vD
ĠxFjwFj wDjvB
ĠxFjwFj wCvG
ĠxFjwFj wDvB
ĠxFjwFj wDjvFj
ĠxGjxF wB
ĠxGjxF xD
ĠxGjxF vFj
ĠxGjxF wBwGjwCj
ĠxGxE wAj
ĠxGxE xCj
ĠxGxE vF
ĠxGxE wAjwGwC
ĠxCjwAj wGj
ĠxCjwAj wFwCj
ĠxCjwAj wEvG
ĠxAxFj xDj
ĠxAxFj vG
ĠxAjxG xE
ĠxAjxG vGj
ĠxCwA wG
ĠxCwA wEwC
ĠxCwA wDjvFj
ĠwGjwDj wD
ĠwGjwDj vE
ĠwGjwDj wCjvGj
ĠwGjwDj vAjvFj
ĠwGwD wCj
ĠwGwD vDj
ĠwGwD wCvG
ĠwGwD vAvF
ĠxBxGj vA
ĠyDxA wDj
ĠyDjxAj wE
ĠxDjwDj vAj
ĠxDjwDj wCvGj
ĠxDjwDj vAvE
ĠxDjwDj wCvDj
ĠxDwD vAj
ĠxDwD vA
ĠxDwD vBvG
ĠxDwD vGjvDj
ĠxDwD vBvD
ĠxGwG wD
ĠxGwG vB
ĠxGwG vF
ĠxGwG vDj
ĠxGwG wCjvGj
ĠxGwG wDjwC
ĠxGwG wEvG
ĠxGjwGj wE
ĠxGjwGj wDj
ĠxGjwGj wC
ĠxGjwGj vFj
ĠxGjwGj vE
ĠxGjwGj wDvA
ĠxGjwGj wEwCj
ĠxGjwGj wFvGj
ĠzC wG
ĠzC yFj
ĠzC yCxF
yD wB
ĠxCjwCj vA
ĠxCjwCj vGj
ĠxCjwCj vAjvFj
ĠxCjwCj vGvD
ĠxCjwCj vAjvCj
ĠzCj wGj
ĠzCj yG
ĠzCj yCjxFj
ĠzCj yCjxA
ĠzCj yCjxAjxFj
ĠxCwC vGj
ĠxCwC vG
ĠxCwC vAvF
ĠxCwC vFjvCj
ĠxCwC vAvC
yDj xC
ĠxBxG wAj
ĠxBxG vG
ĠyCxGj wB
ĠyCxGj vGj
ĠyCjxA xC
ĠyCjxA vA
ĠxAwA wCj
ĠxAwA vG
ĠxAwA vF
ĠxAwA wDjvAj
ĠxAwA wFjvA
ĠxAjwAj wD
ĠxAjwAj vGj
ĠxAjwAj vFj
ĠxAjwAj wEvB
ĠxAjwAj wGvAj
ĠyDxAj xCj
ĠyDxAj vAj
ĠyDjxB vB
ĠxBwB wDj
ĠxBwB vA
ĠxBwB wGvG
ĠxBwB wGjvB
ĠxGwC vF
ĠxGjwCj vFj
ĠxAwD vA
ĠxAjwDj vAj
ĠwBvB vG
ĠwBvB vFj
ĠwBvB vFvC
ĠwAjvAj vFj
ĠwAjvAj vF
ĠwAjvAj vCj
ĠwAvA vF
ĠwAvA vE
ĠwAvA vC
ĠwFjwCj wC
ĠwFjwCj vD
ĠwFjwCj vGjvDj
ĠwFwC vB
ĠwFwC vCj
ĠwFwC vGvD
ĠxCjwFj vD
ĠxCjwFj wDjvB
ĠxCjwFj wDvA
ĠxCwF vCj
ĠxCwF wDvAj
ĠxCwF wCjvGj
ĠzD yGj
ĠzD yDxAj
ĠzDj yDjxB
ĠzDj yA
ĠwBwE vC
ĠwBwE wCjvA
ĠwBwE wCvG
ĠxCjwGjwCj vB
ĠxCjwGjwCj vGjvF
ĠxCwGwC vAj
ĠxCwGwC vGvE
ĠyCxC wE
ĠyCxC vAj
ĠyCxC vA
ĠyCxC wGjvGj
ĠwAjwFj wD
ĠyCjxCj wF
ĠyCjxCj vB
ĠyCjxCj vAj
ĠyCjxCj wAvA
yE xCj
yE xB
ĠyDxG wB
ĠyDxG xDwD
ĠyDjxGj xC
ĠyDjxGj xDjwDj
ĠwAjwFvAj vGj
ĠwBwFjvB vA
ĠxFjwA wG
ĠxFjwA wDj
ĠxFjwA vE
ĠxFjwA uB
ĠwAwEvA vG
ĠxFwGj wFj
ĠxFwGj wD
ĠxFwGj vDj
ĠxEwG wF
ĠxEwG wCj
ĠxEwG vD
ĠxGwAj wGj
ĠxGwAj wD
ĠxGwAj vF
ĠxGwAj vC
ĠyCxA vAj
ĠyExB xD
ĠxGjwB wA
ĠxGjwB wDj
ĠxGjwB vFj
ĠxGjwB vCj
ĠxGjxC wD
ĠxAxCj wDj
ĠyCjxAj wGj
ĠyCjxAj vB
ĠwAjwDj wCvGj
ĠyCjxGjxE wDj
ĠyCjxGjxE vB
ĠyCjxGjxE xCjwCj
ĠxGwB wCj
ĠwAwD vBvG
ĠxGjwDj wC
ĠxGjwDj vFj
ĠxGwD vB
ĠxGwD vF
ĠxAxExC vB
ĠxAxExC vG
ĠxAxExC wAvA
ĠxAjxFxCj wC
ĠxAjxFxCj vGj
ĠxAjxFxCj wGjwDj
ĠxAjxFxCj wAjvAj
ĠxFwC vA
ĠxFwC vDj
ĠxFjwCj vAj
ĠxFjwCj vE
ĠxGjxDjwB vFj
ĠxGjxDjwB wGjwE
ĠxGjxDjwB wGjvGj
ĠxGxDwAj vF
ĠxGxDwAj wGwDj
ĠxGxDwAj wGvG
ĠxBxFjxD wCj
ĠxBxFjxD vA
ĠxBxFjxD wAwE
ĠxBxFjxD wBvB
ĠyCxGxDj wD
ĠyCxGxDj vAj
ĠyCxGxDj xCwC
ĠxFxCwGj vDj
ĠxFxCwGj wFwCj
ĠxFjxCjwA vE
ĠxFjxCjwA wFjwD
ĠxEwBwG vD
ĠxEwBwG wEwC
ĠxAwE wCj
ĠxAwE vG
ĠxAjwF vGj
ĠxAxC wAj
ĠxAxC wAwF
ĠxAjxCj wB
ĠxAjxCj wAjwFj
ĠxEvB vGj
ĠxEvB vD
ĠxBwFj wDj
ĠxBwFj vA
ĠwGwC vD
ĠxDjvAj vCj
ĠxDvA vC
ĠyDxD wFj
ĠyDxD vB
ĠyDxD wBwG
ĠyDjxDj wG
ĠyDjxDj xC
ĠyDjxDj wC
ĠyDjxDj xCwGj
ĠxEwD vF
ĠxEwD vBvD
ĠxDjwFj vDj
ĠxDwF vD
ĠxFwDj vFj
ĠxFwDj wCvDj
ĠxFjwE vG
ĠxFjwE wCjvE
ĠyCjxE xCjwA
ĠwGwDvG vF
ĠwGjwDjvGj vFj
ĠxBxD wBwG
ĠwAjwG wCj
ĠwGjwE wCjvGj
ĠwGjwE wCjvFj
ĠwFwCj vAjvF
ĠwEwC vAvE
ĠwGwDj wCvG
ĠwGwDj wCvF
ĠwFjwD vBvE
ĠwFjwD vBvFj
ĠwGwE vAj
ĠyCxDj xCwGj
ĠyExA xCj
ĠyExA xEwE
ĠxDjwCj vE
ĠxDjwCj vAjvCj
ĠxDwC vDj
ĠxDwC vAvC
ĠyFjxB xDj
ĠyFjxB xFjwFj
ĠyFxAj xD
ĠyFxAj xFwF
ĠxGwF vGj
ĠxGwF wDvF
ĠxGjwFj vA
ĠxGjwFj wDjvFj
ĠxCjwE vB
ĠxCjwE vCj
ĠxCwDj vAj
ĠxCwDj vC
ĠwBwD vA
ĠwBwD uB
ĠyFyC wA
ĠyFyC xDj
ĠyFjyCj wAj
ĠyFjyCj xE
ĠwAwFj wC
ĠwGjwF vB
ĠyDxF wC
ĠyDxF vG
ĠyDxF xDwAj
ĠyDjxFj wCj
ĠyDjxFj vGj
ĠyDjxFj xDjwB
ĠxCvAj vCj
ĠxCjvB vD
ĠxGjxDjwGj wF
ĠxGxDwG wE
ĠyDxB wFj
ĠwBvA vC
ĠxGjxDjxC wDj
ĠxGjxDjxC wFjwDjvGj
ĠyCwG vAj
ĠyCjwGj vB
ĠxAxExCj wE
ĠxAxExCj wAwE
ĠxAxExCj wGwEvA
ĠxAjxD wE
ĠwFjwCjvFj vE
ĠwFwCvF vDj
ĠyCjxAxE wB
ĠxBxDj wF
ĠzE xGj
ĠzE xA
ĠzE xB
ĠzE yAj
ĠyDjyC wG
ĠyExE wGj
ĠyExE xCj
ĠyExE wCj
ĠyExE xCjwA
ĠyDxAjxF xC
ĠyDjxBxFj xCj
ĠxAwG vAj
ĠxAwG wEvG
ĠxAjwGj vB
ĠxAjwGj wFvGj
ĠyEyCj wGj
ĠxEwGj vDj
ĠxGxDjxC vDj
ĠxGjxExCj vE
ĠwAjwCj vAjvFj
ĠwAwC vAvF
ĠyFxA wAj
ĠyFxA xC
ĠyFjxAj wB
ĠyFjxAj xCj
ĠxGjwAj wGj
ĠxDjwG vAj
ĠxDjwG vD
ĠxGwA wG
ĠxFjxDwB vD
ĠyCxGjxDj wAj
ĠxDwFj vA
ĠxDwFj vCj
ĠwEvB vC
ĠwEvB vFjvCj
ĠwEvB vGjvE
ĠxCwE vG
ĠxCwE uB
ĠyFxF wD
ĠyFxF xD
ĠyFxF xDwAj
ĠyFjxFj wDj
ĠyFjxFj xDj
ĠyFjxFj xDjwB
ĠxCjwF vGj
ĠxCjwF vC
ĠxFjxCjwAj wCj
ĠxFxCjwAj vCj
ĠxBxGjxE vFj
ĠxDjxCj wGjwDjvGj
ĠxDjxCj wAjvDj
ĠxDxC wGwDvG
ĠxDxC wAvD
ĠxCjwAwE uA
ĠxFjxE wD
ĠxFjxE wBwFjvB
ĠxFjxE wBvB
ĠxFxCwA wC
ĠxDjwBwFj uB
ĠxDwAjwF uAj
ĠwDjvAj vG
ĠwDjvAj vFvC
ĠwDjvAj vFjvCjuFj
ĠwDvA vFj
ĠwDvA vFvCuF
ĠxAjxDwAj wG
ĠxAjxDwAj vA
ĠxBxDjwB wGj
ĠxBxDjwB vAj
ĠyCxE wF
ĠxGjxCwGj wF
ĠxGjxCwGj vG
ĠxGxDwB wD
ĠxGxDwB wFwDvG
ĠxGwBwG wE
ĠxGwBwG vFj
ĠxGjxFj wE
ĠxGjxFj xCjwCj
ĠxAjxFxD wF
ĠxAjxFxD wGjwFvAj
ĠxBxFjxDj wFj
ĠxBxFjxDj wAwFjvB
ĠxFjxC wAj
ĠxFjxC wDj
ĠxFjxC wGwC
ĠxFjxC wAvA
ĠxFjxC wFjwDj
ĠyDxFj wG
ĠxGxCj wB
ĠxGxCj wE
ĠxGxCj wGjwCj
ĠxGxCj wGwE
ĠxGxCj wAjvAj
ĠxExD wC
ĠxExD wAvA
ĠxExD wAwEvA
ĠxFxDj wCj
ĠxFxDj wAjwFvAj
ĠxFxDj wAjvAj
ĠyCjxF wFj
ĠzF xA
ĠzF xAj
ĠzF yF
ĠxDwAwF vC
ĠxDwAwF wDvAj
ĠxDjwAjwFj vCj
ĠxDjwAjwFj wDjvB
ĠyDjxG wGj
ĠzFj xAj
ĠzFj yFj
ĠxExCwA vC
ĠxAxFxD wA
ĠxAxFxD vF
ĠxAjxFjxDj wAj
ĠxAjxFjxDj vFj
ĠwEvBvE vD
ĠyExGj wA
ĠxBwA wFjvA
ĠyCxExC wE
ĠyCxExC wA
ĠyCjxFxCj wAj
ĠyCjxFxCj wF
ĠyDxFjxD wB
ĠyDxFjxD wFj
ĠyDjxGxDj wG
ĠyDjxGxDj xC
ĠxGxF wDj
ĠxGxF xCwC
ĠxAxEwA wFj
ĠyCwAj wGvAj
ĠyCjwB wGjvB
ĠwFjwDj vA
ĠwDjvGj vF
ĠwDvG vE
ĠyExGjxE wGj
ĠyExGjxE wBwE
ĠxAjxE xD
ĠxAjxE wAjwG
ĠxAxDj xCj
ĠxAxDj wAwFj
ĠxAjxFwAj wG
ĠxBxFjwB wGj
ĠxFwB wD
ĠxFwB wFjvB
ĠxFwB wGjvGj
ĠxFwB wFwD
ĠxEwBwGj vB
ĠwCvG uG
ĠyGxG xC
ĠyGxG xExC
ĠyGjxGj xCj
ĠyGjxGj xFxCj
ĠxGjxD xC
ĠxGjxD wAwD
ĠxGjxD wGjwF
ĠyCxFxC wG
ĠyCxFxC wC
ĠyCjxFjxCj wGj
ĠyCjxFjxCj wCj
ĠxAxG xDwD
ĠxAxFjxD vE
ĠxAjxGxDj vF
ĠxAjxGj xDjwDj
ĠyCjxAjxFj vGj
ĠyExG wE
ĠyExG vA
ĠxAxCjwA wFj
ĠxAxCjwA vGj
ĠxAjxDjxC wG
ĠxAjxDjxC vAj
ĠyFxGj wF
ĠyFxGj vAj
ĠxBxExCj wGj
ĠwDjvAjvDj vCj
ĠwAwCj vFj
ĠyCxGxE wAjwGwC
ĠyGyD xBxE
ĠyEyC xE
ĠyGyE xBxE
ĠwAwG vA
ĠwAwG wDvAvD
ĠyGjyF yCxF
ĠwGjwC vF
ĠyFyCj xF
ĠyCjxGjxF wBwGjwCj
ĠwDvAvD vC
ĠyFjxA wFj
ĠxCjwGjwFwCj vGj
ĠxCwGwEwC vG
ĠxBxF wG
ĠxBxF xDj
ĠxBxF wBwGj
ĠyCjxG wA
ĠyAyFj yCjxFj
ĠyAjyG yDxG
wEvB vA
ĠyFjxAjxFj xCjwFj
ĠyCxFj wGj
ĠyGxAj wG
wDjvAj vGj
ĠyGjyDj yCxF
ĠxAxDwB wFj
ĠxAxDwB vA
ĠxEwAj wFvAj
ĠxEwAj wGvG
ĠxEwAj wEwCj
ĠxFxCwG vG
ĠxDjwAjwG vG
ĠyGjxB wGj
ĠxDwAwFj vFj
ĠxDjwA wEvA
ĠxDjwA wDjwC
ĠxFxCwAwF wD
ĠxFjxCjwAjwFj wDj
ĠxCwGwE vE
ĠxGjxCjwAj wF
ĠyCxAxF vG
ĠyGjyE xGj
ĠxCjwGjwF vF
ĠyExAj xCj
ĠwAjwGj vAj
ĠxDwGj wDvB
ĠxFwAwF vA
ĠxFwAwF vE
ĠxFjwAjwFj vAj
ĠxFjwAjwFj vF
ĠyFxAxF xCwF
ĠyAxA xD
ĠyAxA xF
ĠyAxA xFjxD
ĠyAxA xFwF
ĠyAjxAj xDj
ĠyAjxAj xFj
ĠyAjxAj xGxDj
ĠyAjxAj xFjwFj
ĠxGxDwBwG wE
ĠyAyE yCxF
ĠyAyE yCjxFj
ĠyByGj yD
ĠyByGj yDjxGj
ĠxBxFjxDjwB wGj
ĠxBxFjxDjwB wFj
ĠyAjyF yCjxFj
ĠyAjyF yDxG
ĠxAjxFxDwAj wG
ĠxAjxFxDwAj wF
ĠyExBxGj xD
ĠyAyF xA
ĠyAjyFj xAj
ĠxAxExCjwA wFj
ĠyByFj yDxG
ĠyByFj yDjxGj
ĠxFxCwAj wFwC
ĠxFjxCjwB wFjwCj
ĠxEwGjwE vDj
ĠwBwFjwDjvB vFjuB
ĠwAjwFwDvAj vFuAj
ĠxEwAwFj wFjwCjvFj
ĠxDjwGwDj vD
ĠxDwFjwD vCj
ĠxCjwFjwCj vAj
ĠxCwFwC vA
ĠyAyD wD
ĠyAjyDj wDj
ĠyByE yC
ĠxDjwGjwF wFwCvF
ĠxDwGwE wEvBvE
ĠxCjwG vA
ĠxCjwFwCj vGj
ĠxCjwFwCj vC
ĠxCjwFwCj uAj
ĠxCwEwC uB
ĠxCwEwC uA
ĠyBxB xE
ĠyBxB xGjxE
ĠyFjyD xFj
ĠyGyDj xG
ĠxAxDwAj wF
ĠxAjxDjwB wFj
ĠyFyCxA xD
ĠyFjyCjxAj xDj
ĠxGjxDjxCwGj wF
ĠxFwAjwG wGwDvG
ĠxFjwBwGj wGjwDjvGj
ĠxCwGwDj wCvGj
ĠwBwFjwD vBvG
ĠwFjwE uB
ĠwFwDj uAj
ĠwEwD uA
ĠxCjwGjwE vE
ĠxCjwGjwE wCjvA
ĠwAjwFwCj vAjvFj
ĠwAwEwC vAvF
ĠyCxGxC wA
ĠyCjxGjxCj wAj
ĠyDxGxD wA
ĠyDjxGjxDj wAj
ĠyExAxE wB
ĠyFjxBxFj xCj
ĠyFxAjxF xC
ĠxBxFjxE wFj
ĠxCjwFjwDj wDjvAjvDj
ĠxCwFwD wDvAvD
ĠyCjxGjxEwB wGjwCj
ĠyCxGxDjwAj wGwC
ĠyGjyCxGj xDj
ĠwBwEvB vGj
ĠxAxExCwG wEvA
ĠwFjwDjvB uB
ĠwFwDvAj uAj
ĠzCyG yDjxGj
ĠxAjxFxCjwGj wFvAj
ĠxBxFjxDwA wFjvB
ĠxFwBwG vE
ĠwEwCjvA uA
ĠyDxDwAj vAj
ĠyDjxDjwB vB
ĠwDjwCvGj uGj
ĠyAyC xAxCwGwF
ĠyAjyDxAj xF
ĠxAxExD wE
ĠxAjxFxDj wF
ĠyByDjxB xFj
ĠzCyC xAxF
ĠyEyCxG wA
ĠyFyCjxGj wAj
ĠyAyCjxA xE
ĠxAxDjwB vGj
ĠyExExC wC
ĠyFxFxCj wCj
ĠyFjxFjxD wD
ĠyGjxGjxE wE
ĠwGjwEvB vGj
ĠxGjxDwAj vG
ĠxAjxExC vA
ĠxBxFxCj vAj
ĠyGxGxDj wDj
ĠyByG xB
ĠzCyA yDj
ĠzCjyAj yE
ĠxFxCwGjwF vF
ĠxFjxCjwAwFj vFj
ĠxEwBwGwE vE
ĠxDwAwG vD
ĠzCyGj yC
ĠyCxFjxD vB
ĠyCjxGxDj wC
ĠyCxGxF xCwF
ĠzCjyA yCj
ĠxCjxCj wAwE
ĠxDjwAjwGj vDj
ĠzDyAj yD
ĠzDjyB yDj
ĠyDxAxFxC wAwD
ĠyDjxAjxFjxCj wAjwDj
ĠxCxC wGjwDj
ĠwAjwGjwDj vDj
ĠwAjwGjwDj vAjvDj
ĠyDxExC vA
ĠyDjxFxCj vAj
ĠxAxFjxC wAwD
ĠxAjxGxCj wAjwDj
ĠyDjxGxDjwAj wGwDj
ĠxExE vA
ĠyDxGjxE wCj
ĠyExFjxD vB
ĠyFxGxDj wC
ĠyFjxGjxE wCj
ĠzDyA yF
ĠzDyA yFxAj
ĠzDjyAj yFj
ĠzDjyAj yFjxB
ĠyCxExCwG wEwC
ĠyCjxFxCjwGj wFwCj
ĠyDxFjxDwA wFjwD
ĠxFxF vAj
ĠxGwAwF vD
ĠxGjwAjwFj vDj
ĠwGjwFjwCj vCj
ĠwGjwFjwCj vGjvCj
ĠwGwFwC vC
ĠwGwFwC vGvC
ĠyCjxGjxFj xCjwFj
ĠxBxGjxD wBwE
ĠyDxAxG xDwG
ĠyDjxAjxGj xDjwGj
ĠwAjwFjwDj vDj
ĠwAwFwD vD
ĠyCxAxDj xCwF
ĠyCjxAjxE xCjwFj
ĠyCjxExCj wEvBvA
ĠxBxDwB wDvAvG
ĠyCxDjxC wDjvAjvGj
ĠxFjxFj vB
ĠyDxFxD wFwCvAj
ĠyDjxFjxDj wFjwCjvB
ĠxFjxCwGj vF
ĠxGxG wC
ĠxGjxGj wCj
ĠxFjwAjwFjwCj vAjvFj
ĠxFwAwFwC vAvF
ĠwAwGwD vD
ĠwFjwEvB uB
ĠyExAxF wD
ĠyFjxBxG wE
ĠyFxAjxFj wDj
ĠxGxCjwA vFj
ĠyGyCxGj wF
ĠyGjyCjxA wFj
ĠxAjxAj wDj
ĠxAjxAj xFjxCj
ĠyGjyD xBwB
ĠwBwEwCj wCjvGjvCj
ĠxDjwAwFj vFj
ĠwFwDjvAj uAj
ĠwEwDvA uA
ĠvGvE uB
ĠwAjwDjwC wCvGvC
ĠwAwDvB vBvFjuB
ĠwDvAvE uB
ĠxDwGjwF vF
ĠxFxCwFwC vA
ĠxFjxCjwFjwCj vAj
ĠxEwBwEvB vGj
ĠwGjwCjvAj vAjvFuAj
ĠwGwCvA vAvEuA
ĠyDjxAxF wD
ĠyExAjxFj wDj
ĠzCjyGjyE xA
ĠxDxCj wAwE
ĠxCjxC wGjwDj
ĠxAxA wD
ĠxEwBwAwE vB
ĠxDwAwDvA vFj
ĠxDjwAjwDjvAj vG
ĠzGjzDj yByE
ĠxBxB wE
ĠxEwEwC vA
ĠxFwFwCj vAj
ĠwCjvGjvDj uAj
ĠwCvGvD uA
ĠyCjxGxCj wAj
ĠyCxFjxC wA
ĠyCyC wF
ĠyCjyCj wFj
ĠxEwGjwEvB vGjvE
ĠzCyGyE yC
ĠzDjyAjyG yDj
ĠyDyD wG
ĠyDjyDj wGj
ĠyExGxE wGwDwC
ĠyFxGjxF wGjwDjwCj
ĠyGjxBxGj wBwFjwE
ĠzCjyGjyF yCj
ĠzDyAyFj yD
ĠyAjyCjxAj xCjwGjwFj
ĠyFjxAxFj wAwEwD
ĠyGxAjxG wAjwFwDj
C z
F yD
z Fj
Cj zFj
ĠxE wFjvB
ĠxE xDwAj
ĠxE wFjwDvA
ĠxF xDjwB
ĠxF wGwDjvAj
ĠxFj xExC
ĠxFj xFjxCj
ĠxDj wFvAj
ĠxDj wFwCjvGj
ĠxD wEvA
ĠxD wFjwCj
ĠxD xCjwA
ĠxD wEwCvG
ĠxG xFj
ĠxG wFwC
ĠxG wDvG
ĠxG xFxCj
ĠxGj xG
ĠxGj wFjwCj
ĠxGj wDjvGj
ĠxGj xFjxD
ĠxCj wFwC
ĠxCj xCjwFj
ĠxCj wDjvGj
ĠxCj wBwG
ĠxCj xCwGj
ĠxCj wDjvBvFj
ĠxC xCwF
ĠxC wDvG
ĠxC wDvAjvF
ĠxA uA
ĠxA wEvA
ĠxAj uAj
ĠxAj wFvAj
ĠxAj xAxF
ĠxB uB
ĠxB wFjvB
ĠxB xCwF
ĠwAj wGjvGj
ĠwAj uFj
ĠwA uF
ĠwGj uAj
ĠwGj wDvAvD
ĠwG uA
ĠwG wCjvGjvCj
wGj wGjvFj
ĠyC vE
ĠyC wFwC
ĠyC xCjwFj
wG wGvF
ĠyCj vF
ĠyCj wFjwCj
ĠyCj xDwG
wB wDj
wB wFwCj
wB wBvA
wE wD
wE uA
wA wAvG
wAj wEwC
wAj wAjvGj
wFj uB
wF uAj
wD vC
wDj vCj
xC wA
xC wFjwD
xC xCvAj
xCj wGj
xCj wAj
xCj wGjwCj
xCj wGwDj
ĠwFj uAj
ĠwFj vAjvDj
ĠwFj uFj
ĠwFj wCvGvC
wCj vB
ĠwF uA
ĠwF vAvD
ĠwF uF
ĠwF vBvFjuB
wC vAj
xD wFj
xD wGjwE
xD xDwC
xDj wAwF
xDj xDjwCj
ĠwE uAj
ĠwE wEvBvE
ĠwE vAjvFuAj
vB vA
ĠyD vFj
ĠyD xDjwGj
ĠyDj vG
ĠyDj xFwF
ĠyDj xEwA
xE xCjwFj
xE wAjwFj
xE xEwD
vAj vGj
vAj vC
vA vG
vA uB
ĠwDj vAvEuA
ĠwDj wDjvAjvDj
ĠwD wDvAvD
xF wBwG
xF xFwDj
xFj xFj
xFj xCwGj
xFj xFjwE
vGj uAj
vG uA
ĠwCj vBvFj
ĠwCj wCjvGjvCj
ĠwC vAjvF
ĠwC wCvGvC
ĠwC vFjvCjuFj
ĠyE vGj
ĠyE yDxG
ĠyE xFxC
xG wGj
xG xCjwA
xGj xDwAj
vFj uGj
vF uG
ĠyF xBxE
ĠyF xFjxCj
ĠyF yDjxGj
ĠvB vB
ĠvB vAvE
ĠvB vBvFjuB
ĠvB vFvCuF
ĠyFj xDwD
ĠyFj yCxGj
ĠvAj vAj
ĠvAj vD
ĠvAj uGj
ĠvAj vAjvFuAj
ĠvA vA
ĠvA vCj
ĠvA uG
ĠvA vAvEuA
xA wB
xA xDjwB
ĠyG wFj
ĠyG xExC
ĠyG xDjwDj
ĠyG yCjxA
ĠyG yFxAj
ĠvGj vC
ĠvGj uAj
ĠvGj uGj
ĠvG uB
ĠvG uA
ĠvG uG
ĠyGj wG
ĠyGj xFxCj
ĠyGj yDxAj
ĠyGj yFjxB
ĠxFxC vD
ĠxFjxCj vDj
ĠxFjxCj wDvE
vDj uAj
ĠxGjxDj wA
ĠxGjxDj vF
ĠxGjxDj wAwF
ĠxGjxDj wEvFj
ĠxGxD wGj
ĠxGxD vE
ĠxGxD wGjwE
ĠxGxD wAvA
ĠxGxD wAwE
ĠxGxD wDjvF
vD uA
ĠxDwA vE
ĠxDwA wFjwCjvFj
ĠxDwA wGwD
ĠxDwA wGvA
ĠxDjwAj vF
ĠxDjwAj wGjvAj
ĠyA wGj
ĠyA xFjxD
ĠyAj wA
ĠyAj xGxDj
ĠxAxE wF
ĠxAxE vFj
ĠxAxE vD
ĠxAxE wAjwFj
ĠxAxE wAvA
ĠxAxE wFvG
ĠvFj vD
ĠvFj vCjuFj
ĠxAjxF wFj
ĠxAjxF vG
ĠxAjxF vDj
ĠxAjxF wBwG
ĠxAjxF wFjvGj
ĠxBxFj xC
ĠxBxFj vGj
ĠxBxFj vE
ĠxBxFj xCwGj
ĠxBxFj wGvA
ĠvF vCj
ĠvF vCuF
ĠxCjwGj vDj
ĠxCjwGj wFjvB
ĠxCjwGj wFwCvF
ĠxCwG vD
ĠxCwG wFvAj
ĠxFjxD xCj
ĠxFjxD vAj
ĠxFjxD wGjwFvAj
ĠxFjxD wGvE
ĠxFjxD wAjvG
ĠxFjxD xCwFjwD
ĠxGxDj vB
ĠxGxDj wGjvF
ĠxGxDj wAwFjvB
ĠxGxDj wBvGj
ĠxGxDj xCjwGwDj
ĠxFxCj xC
ĠxFxCj vA
ĠxFxCj wGwEvA
ĠxFxCj wAvFj
ĠxFxCj wFjvDj
ĠxFxCj wBwFwCj
ĠxExC vGj
ĠxExC wGjvF
ĠxExC wFjwDjvGj
ĠxExC wFvD
ĠxExC wAjwEwC
ĠxGjxE wC
ĠxGjxE wAjwC
ĠxGjxE wAvFj
ĠxGjxE wAjwGwC
ĠxGjxE xCvA
ĠxGjxE xDwGjwE
ĠyB wA
ĠyB wAj
ĠyB xAj
ĠyB xGjxE
ĠyB yA
ĠyB yCxG
ĠvE vC
ĠwBwFj vCj
ĠwBwFj wEvA
ĠwBwFj wCjvFj
ĠwAjwF vC
ĠwAjwF wDjvGj
ĠwAjwF wCvF
ĠwAwE wDvG
ĠwAwE vBvE
ĠyCxG xCj
ĠyCxG vF
ĠyCxG xCwC
ĠyCxG xCjwA
ĠyCxG wGjvAj
ĠyCjxGj xD
ĠyCjxGj vFj
ĠyCjxGj xDwAj
ĠyCjxGj xCjwCj
ĠyCjxGj wAvB
ĠxAxF wCj
ĠxAxF wAjwF
ĠxAxF wBwCj
ĠxAxF wBwGjwCj
ĠxAxF wAjvG
ĠxAxF xCjvAj
ĠxAxF xDjwAwF
ĠxAjxFj wD
ĠxAjxFj wBwFj
ĠxAjxFj wBvGj
ĠxAjxFj xDvB
ĠxAjxFj xEwAjwFj
ĠxFjxDj wBwE
ĠxFjxDj wGjvAj
ĠxFjxDj xCjvB
ĠxFxD wGj
ĠxFxD wAjwDj
ĠxFxD wGvA
ĠxFxD xCvAj
ĠxGxC wCj
ĠxGxC vG
ĠxGxC wDvA
ĠxGxC wAjvF
ĠxGjxCj wD
ĠxGjxCj vGj
ĠxGjxCj wDjvAj
ĠxGjxCj wBvFj
ĠxDjwB wF
ĠxDjwB vG
ĠxDjwB wGvE
ĠxDjwB wFwDvG
ĠxExCj wAwD
ĠxExCj wFjvGj
ĠxExCj wBvA
ĠxDwAj wE
ĠxDwAj vFj
ĠxDwAj wFjvDj
ĠxDwAj wEwCjvFj
ĠxCjwA wDj
ĠxCjwA vF
ĠxCjwA wFvD
ĠxCjwA wDjwCvF
ĠxCwGj wD
ĠxCwGj vE
ĠxCwGj wDvBvE
ĠxDjxC wGjwCj
ĠxDjxC wFvG
ĠxDjxC wAjvGj
ĠxDjxC wFjwDjvGj
ĠxFwAj vB
ĠxFwAj vF
ĠxFwAj wCvG
ĠxFwAj wGjvDj
ĠxEwA vAj
ĠxEwA vE
ĠxEwA wGvD
ĠxFjwB wC
ĠxFjwB vFj
ĠxFjwB wCjvGj
ĠxFjwB wAvE
ĠxDwB wGwC
ĠxDwB wAvG
ĠxDwB wFwDvG
ĠxAxD wDj
ĠxAxD vA
ĠxAxD vFj
ĠxAxD wAwF
ĠxAxD wEvB
ĠxAjxDj wE
ĠxAjxDj vAj
ĠxAjxDj vG
ĠxAjxDj wFwC
ĠxAjxDj wAjwFj
ĠwBwG wCj
ĠxBxE wD
ĠxBxE vB
ĠxBxE vGj
ĠxBxE wFjwCj
ĠxBxE xDwG
ĠxBxE wBwG
ĠxBxE xDvA
ĠxDjwGj wGj
ĠxDjwGj vA
ĠxDjwGj vDj
ĠxDwG wG
ĠxDwG vGj
ĠxDwG vD
ĠxFwF vA
ĠxFwF wCvF
ĠxFjwFj vAj
ĠxFjwFj wDvA
ĠxFjwFj wCjvFj
ĠxGjxF wFj
ĠxGjxF xDj
ĠxGjxF xDjwCj
ĠxGxE wF
ĠxGxE xD
ĠxGxE xDwC
ĠxCjwAj vB
ĠxCjwAj vDj
ĠxCjwAj wGjvFj
ĠxAxFj wG
ĠxAxFj xE
ĠxAxFj xDwG
ĠxAxFj xEwD
ĠxAjxG wGj
ĠxAjxG xF
ĠxAjxG xDjwGj
ĠxAjxG xFwDj
ĠxCwA vAj
ĠxCwA vD
ĠxCwA wGvF
ĠwGjwDj vAjvDj
ĠxBxGj wA
ĠxBxGj xFjwE
ĠyDxA xDj
ĠyDxA vG
ĠyDxA xDjwB
ĠyDxA xDwD
ĠyDjxAj xE
ĠyDjxAj vGj
ĠyDjxAj xExC
ĠyDjxAj xDjwDj
ĠyCxF wDj
ĠyCxF wC
ĠyCxF vA
ĠyCxF xDjwGj
ĠyCxF wGwD
ĠyCxF xDjvAj
ĠyCjxFj wE
ĠyCjxFj wCj
ĠyCjxFj vAj
ĠyCjxFj wGjwDj
ĠxDjwDj vBvFj
ĠxDwD vAjvF
ĠxDwD vAjvG
ĠxGwG vA
ĠxGwG wDvG
ĠxGwG wEwC
ĠxGwG wDvBvE
ĠxGjwGj vAj
ĠxGjwGj wDjvGj
ĠxGjwGj wFwCj
ĠxGjwGj wDjwCvF
ĠzC wAj
ĠzC wC
ĠzC yAj
ĠzC xAxF
ĠzC yCjxGj
ĠxCjwCj vAvE
ĠxCjwCj vAvFj
ĠzCj wB
ĠzCj wCj
ĠzCj yDxA
ĠzCj yB
ĠxCwC vGjvDj
ĠxCwC vGjvF
ĠxBxG xCvA
ĠxBxG xDjwC
ĠxBxG xFwBwG
ĠvDj uGj
ĠvD uG
ĠyCxGj xCjvAj
ĠyCxGj xEwCj
ĠyCxGj xFjxCwGj
ĠyCjxA xDvB
ĠyCjxA xGxCjwA
ĠxAwA wE
ĠxAwA vB
ĠxAwA wEvA
ĠxAwA wFjwD
ĠxAwA wEwCjvFj
ĠxAjwAj wF
ĠxAjwAj wC
ĠxAjwAj wFvAj
ĠxAjwAj wGwDj
ĠxAjwAj wFwDvG
ĠyDxAj xDjwC
ĠyDxAj xGjxDwAj
ĠyDjxB xEwCj
ĠyDjxB xAxDjwB
ĠxBwB wFj
ĠxBwB wCj
ĠxBwB wFjvB
ĠxBwB wGjwE
ĠxBwB wFjwDjvGj
ĠxGwC vG
ĠxGjwCj vGj
ĠxFjvB vFj
ĠxFvAj vF
ĠxEvA vE
ĠwBvB vE
ĠwBvB vGvD
ĠwBvB vGvE
ĠxEwC vA
ĠxFwCj vAj
ĠxFjwD vB
ĠxGwDj wC
wBwE vBvE
ĠxGjwE wCj
ĠxBwE vB
ĠwAjvAj vG
ĠwAjvAj vDj
ĠwAjvAj vFjvCj
ĠwAvA vFj
ĠwAvA vD
ĠwAvA vFvC
ĠxCjwFj wFj
ĠxCjwFj vG
ĠxCjwFj wDjvAj
ĠxCwF wF
ĠxCwF vFj
ĠxCwF wDvA
ĠzD xC
ĠzD xE
ĠzD yC
ĠzD yDjxAj
ĠzD yByE
ĠzDj xCj
ĠzDj yC
ĠzDj yCj
ĠzDj zCyF
ĠzDj yExB
ĠwBwE wE
ĠwBwE vF
ĠwBwE wCjvFj
ĠxCjwGjwCj vFj
ĠxCwGwC vF
ĠvCj uFj
ĠyCxC wDj
ĠyCxC wGwEvA
ĠwAjwFj wC
ĠwAjwFj wDjvB
ĠwAwF vB
ĠwAwF wDvAj
ĠyCjxCj wE
ĠyCjxCj wGjwFvAj
ĠvC uF
ĠyDxG xC
ĠyDxG xF
ĠyDxG xDwAj
ĠyDxG xFwAj
ĠyDxG wAwE
ĠyDxG xFwC
ĠyDjxGj xCj
ĠyDjxGj xFj
ĠyDjxGj xDjwB
ĠyDjxGj xFjwB
ĠyDjxGj wAjwF
ĠyDjxGj xFjwCj
ĠxFwD vDj
ĠxFwD vD
ĠxFjwDj vE
ĠxFjwDj vDj
ĠxDvB vC
ĠxDvB uB
ĠxDjwC vCj
ĠxDjwC vC
ĠxEwCj vD
ĠxEwCj vCj
ĠxFjwA wC
ĠxFjwA vDj
ĠxFjwA vCj
ĠxFwGj vB
ĠxFwGj vD
ĠxFwGj vC
ĠxFwGj uAj
ĠxAwF wD
ĠxAjwFj wDj
ĠxGwE vF
ĠxGwE vE
ĠxEwG vAj
ĠxEwG vCj
ĠxEwG uB
ĠxEwG uA
ĠxGwAj wE
ĠxGwAj wCj
ĠxGwAj vE
ĠxGwAj vD
xDwG wDvG
ĠxGjwF vFj
ĠxGjwF vF
xDjwGj wDjvGj
ĠyCxA wAj
ĠyCxA xC
ĠyCxA xD
ĠyCxA xFwAj
ĠyExB vA
ĠyExB xFxCj
ĠxGjwB wF
ĠxGjwB wD
ĠxGjwB vF
ĠxGjwB vDj
ĠxGjxC wG
ĠxGjxC wE
ĠxGjxC wAj
ĠxGjxC vDj
ĠxAxCj wGj
ĠxAxCj wB
ĠxAxCj wF
ĠxAxCj vE
ĠyCjxAj wB
ĠyCjxAj xCj
ĠyCjxAj xDj
ĠyCjxAj xFjwB
ĠwAjwDj wDj
ĠwAjwDj wCvF
ĠyCjxGjxE wFj
ĠxGwB wA
ĠxGwB wFj
ĠxGwB wDj
ĠxGwB vD
ĠwAwD wD
ĠwAwD vBvE
ĠxGjwDj vAj
ĠxGwD vA
ĠxAxExC wD
ĠxAxExC wAwE
ĠxAxExC wGwD
ĠxAjxFxCj wDj
ĠxAjxFxCj wAjwF
ĠxFwC vG
ĠxFwC vF
ĠxFjwCj vGj
ĠxFjwCj vFj
ĠxGjxDjwB wFjwCj
ĠxGjxDjwB wGjwDj
ĠxGxDwAj wFwC
ĠxGxDwAj wGwD
ĠxBxFjxD wE
ĠxBxFjxD wBwFj
ĠyCxGxDj wF
ĠxAwFj vG
ĠxAwFj vFj
ĠxFxCwGj wFwC
ĠxFxCwGj wDjvAj
ĠxFjxCjwA wFjwCj
ĠxFjxCjwA wEvB
ĠxEwBwG wDvA
ĠxEwBwG wEvB
ĠxAjwG vGj
ĠxAjwG vG
ĠxBwGj vA
ĠxBwGj vGj
ĠxCjvAj uAj
ĠxCvA uA
ĠxAjwF wD
ĠxAxC wFj
ĠxAxC wDj
ĠxAxC vFj
ĠxAxC vE
ĠxAjxCj wG
ĠxAjxCj wE
ĠxAjxCj vG
ĠxAjxCj vF
ĠxEvB vFj
ĠwGjwCj wCj
ĠwGjwCj vCj
ĠwGwC wC
ĠwGwC vC
ĠwBwGj wFj
ĠwBwGj vA
ĠwBwGj vFj
ĠwBwGj vF
ĠwBwGj uB
ĠwBwGj wDvF
ĠwGjvGj vF
ĠwGjvGj vDj
ĠwGjvGj vCj
ĠxDjvAj vF
ĠxDvA vE
ĠwGvG vE
ĠwGvG vD
ĠwGvG vC
ĠyDxD wB
ĠyDxD wF
ĠyDxD wC
ĠyDxD wAwFjvB
ĠyDjxDj wFj
ĠyDjxDj wCj
ĠyDjxDj wAjwGwC
ĠxFjxDwA wC
ĠxFjxDwA vG
ĠxFjxDwA vE
ĠxGxDjwAj wCj
ĠxGxDjwAj vGj
ĠxGxDjwAj vF
ĠxGjxEwB wD
ĠxGjxEwB vA
ĠxGjxEwB vFj
ĠxFxCjwGj vB
ĠxFxCjwGj vFj
ĠxFxCjwGj vDj
ĠxExCwG vAj
ĠxExCwG vF
ĠxExCwG vD
ĠxDjwFj wE
ĠxDjwFj wC
ĠxDjwFj vAj
ĠxDjwFj vA
ĠxDjwFj vCj
ĠxDjwFj vC
ĠxDjwFj uAj
ĠxDjwFj uGj
ĠxDwF wDj
ĠxDwF vB
ĠxDwF vA
ĠxDwF vGj
ĠxDwF vC
ĠxDwF uB
ĠxDwF uA
ĠxDwF uG
ĠyCjxE wG
ĠyCjxE wAj
ĠyCjxE vAj
ĠxBwG wE
ĠxBwG vG
ĠyCwGj wF
ĠyCwGj vGj
ĠxBxD wGj
ĠxBxD wF
ĠxBxD vGj
ĠxBxD vFj
ĠwAjwG wF
ĠwAjwG vGj
ĠwAjwG vF
ĠwAjwG vE
ĠwAjwG wCjvE
ĠwGjwE vAj
ĠwGjwE uB
ĠwGjwE wCjvA
ĠwFwCj vA
ĠwFwCj vG
ĠwFwCj vAjvDj
ĠwFwCj uGj
ĠwFwCj vAjvFj
ĠwEwC vGj
ĠwEwC vFj
ĠwEwC vAvD
ĠwEwC uG
ĠwEwC vAvF
ĠwGwDj vA
ĠwGwDj uAj
ĠwGwDj wCvGj
ĠyCjwA wFj
ĠyCjwA vA
ĠwFjwD vAj
ĠwFjwD vGj
ĠwFjwD uA
ĠwFjwD vBvG
ĠwGwE wD
ĠwGwE vF
ĠwGwE vD
ĠwGwE vCj
ĠwGwE vAjvCj
ĠyCxDj wA
ĠyCxDj wFj
ĠyCxDj vA
ĠyExA wF
ĠyExA xD
ĠyExA wBwFj
ĠyFjxB wG
ĠyFjxB xE
ĠyDwAj wG
ĠyDwAj vAj
ĠyDjwB wGj
ĠyDjwB vB
ĠyFxAj wFj
ĠyFxAj xDj
ĠyDwG wD
ĠyDxAxF wG
ĠyDxAxF wB
ĠyDxAxF wA
ĠyDjxAjxFj wGj
ĠyDjxAjxFj wAj
ĠyDjxAjxFj xC
ĠxAxFxC wDj
ĠxAxFxC vG
ĠxAxFxC wGvF
ĠxAjxFjxCj wE
ĠxAjxFjxCj vGj
ĠxAjxFjxCj wGjvFj
ĠyDjwGj wDj
ĠxCjwE wD
ĠxCjwE vGj
ĠxCjwE uGj
ĠxCwDj wCj
ĠxCwDj vG
ĠxCwDj uG
ĠwBwD wC
ĠwBwD vFj
ĠyFyC wD
ĠyFyC xD
ĠyFyC vAj
ĠyFyC xAj
ĠyFyC xFjxD
ĠyFjyCj wDj
ĠyFjyCj xDj
ĠyFjyCj vB
ĠyFjyCj xGxDj
ĠwAwFj wE
ĠwAwFj vG
ĠwAwFj vE
ĠwAwFj vDj
ĠwAwFj wCvDj
ĠwGjwF wDj
ĠwGjwF vFj
ĠwGjwF vDj
ĠwGjwF vD
ĠwGjwF vBvD
ĠxGjxDjwGj vGj
ĠxGxDwG vG
ĠyDxB wE
ĠyDxB xC
ĠxGjxDjxC vAj
ĠxGjxDjxC vDj
ĠxGjxDjxC wAjwDj
ĠxGjxDjxC wGwC
ĠyCwG wE
ĠxAxExCj vE
ĠxAxExCj wGjwCj
ĠxAxExCj wBwE
ĠxFwG wF
ĠxFwG vC
ĠxFwG wFvD
ĠxAjxD wFj
ĠxAjxD vF
ĠxFjwGj wFj
ĠxFjwGj vCj
ĠxFjwGj wFjvDj
ĠyCjxAxE wBvA
ĠxBxDj wG
ĠxBxDj vFj
ĠxFjwAj wF
ĠxFjwAj wD
ĠxFjwAj wC
ĠxFjwAj vCj
ĠzE xC
ĠzE xE
ĠzE yC
ĠzE yCj
ĠzE zC
ĠzE zCjyFj
ĠyDjyC wF
ĠyDjyC xCj
ĠyExE wG
ĠyExE wD
ĠyExE wBwGjwCj
ĠyDxAjxF xCvAj
ĠyDjxBxFj xCjvB
ĠxFwA wE
ĠxFwA wCj
ĠxFwA vB
ĠxFwA vC
ĠxEwFj wE
ĠxEwFj vFj
ĠxEwFj wEvCj
ĠxAjxC wGjwDj
ĠxAjxC wAjvG
ĠxDjwF wDj
ĠxDjwF vF
ĠxDjwF wDjvC
ĠxDwE wD
ĠxDwE vE
ĠxDwE wDuB
ĠyEyCj wFj
ĠyEyCj xD
ĠxFjxDjwB wCj
ĠxFjxDjwB wFjvGj
ĠxEwGj wDj
ĠxEwGj wC
ĠxEwGj vAj
ĠxEwGj vGj
ĠxEwGj uB
ĠwFjvB vB
ĠwFjvB vCj
ĠxFxDwAj wC
ĠxFxDwAj wFvG
ĠxGxDjxC vF
ĠxGxDjxC vC
ĠxGjxExCj vFj
ĠxGjxExCj vCj
ĠwAjwCj vF
ĠwAjwCj vDj
ĠwAjwCj uAj
ĠwAwC vE
ĠwAwC vD
ĠwAwC uA
ĠwFvAj vAj
ĠwFvAj vC
ĠyFxA wB
ĠyFxA wA
ĠyFxA xG
ĠyFjxAj wAj
ĠyFjxAj xC
ĠyFjxAj xGj
ĠxBxCj wE
ĠxBxCj wAwE
ĠxBxCj wBvGj
ĠxGjwAj wFjwCj
ĠxGjwAj wGjvF
ĠwEvA vA
ĠwEvA uB
ĠxDjwG wD
ĠxDjwG vB
ĠxDjwG vA
ĠxDjwG vG
ĠxDjwG uAj
ĠxBxGxD wA
ĠxBxGxD wAvG
ĠxGwA wFwC
ĠxGwA wGvE
ĠxGvAj vG
ĠxFjvA vFj
ĠxGjvB vGj
ĠxFvGj vF
ĠxFjxDwB vE
ĠxFjxDwB uB
ĠyCxGjxDj wAjvGj
ĠxDwFj vGj
ĠxDwFj vFj
ĠxDwFj uA
ĠxDjxCwGj vAj
ĠxDjxCwGj wDjvF
ĠwEvB vCj
ĠxDwBwG vA
ĠxDwBwG wDvE
ĠxCwE vB
ĠxCwE vFj
ĠxCwE vE
ĠxEvG vE
ĠyFxF wGj
ĠyFxF wDj
ĠyFxF xCwAwD
ĠyFjxFj wE
ĠyFjxFj wA
ĠyFjxFj xCjwAjwDj
ĠxCjwF vG
ĠxCjwF vF
ĠxAwB vE
ĠxAwB wAvFj
ĠxFjxCjwAj vCj
ĠxFjxCjwAj wGjwCj
ĠxFjxCjwAj wFvAj
ĠxFxCjwAj vDj
ĠxFxCjwAj uAj
ĠxCwD vF
ĠxCjwDj vFj
ĠyCwA vAj
ĠyCjwAj vB
ĠxBxGjxE wFj
ĠxBxGjxE vB
ĠxBxGjxE wBwCj
ĠxDjxCj wG
ĠxDjxCj vB
ĠxDjxCj vA
ĠxDjxCj vF
ĠxDjxCj vCj
ĠxDjxCj wFjvB
ĠxDjxCj wGwDj
ĠxDjxCj wGjwDj
ĠxDjxCj wAjwFvAj
ĠxDjxCj wAjvAj
ĠxDjxCj wGjvB
ĠxDxC wFj
ĠxDxC vAj
ĠxDxC vGj
ĠxDxC vE
ĠxDxC vC
ĠxDxC wFvAj
ĠxDxC wFjwD
ĠxDxC wAvA
ĠxDxC wGwD
ĠxDxC wAwEvA
ĠxDxC wGvAj
ĠxCjwAwE vGj
ĠxCjwAwE vG
ĠxCjwAwE vD
ĠxCjwAwE uB
ĠxCjwAwE wCjvFj
ĠxFjxE wAj
ĠxFjxE wC
ĠxFjxE vGj
ĠxFjxE vE
ĠxFjxE wAwD
ĠxFjxE wAjwFj
ĠxFjxE xCjwCj
ĠxFjxE wAwFj
ĠxFxCwA vC
ĠxFxCwA wGwC
ĠxFxCwA wEvA
ĠxCwGjwDj vG
ĠxCwGjwDj vFj
ĠxCwGjwDj vCj
ĠxCwGjwDj uAj
ĠxCwGjwDj uGj
ĠxCwGjwDj wCvF
ĠxGjxFxCj wDj
ĠxGjxFxCj vGj
ĠxGjxFxCj wGjvAj
ĠxGxExC wD
ĠxGxExC vG
ĠxGxExC wGvA
ĠxDjwBwFj vAj
ĠxDjwBwFj vA
ĠxDjwBwFj vE
ĠxDjwBwFj vCj
ĠxDwAjwF vA
ĠxDwAjwF vGj
ĠxDwAjwF vDj
ĠxDwAjwF vC
ĠwDjvAj vC
ĠwDvA uB
xFwAj wFvAj
ĠxAjxDwAj vGj
ĠxBxDjwB vA
ĠyCxE wGj
ĠyCxE wFj
ĠyCxE xD
ĠyCxE vB
ĠwBwGwD vFj
ĠwBwGwD vF
ĠwBwGwD vC
ĠwBwGwD uA
ĠwBwGwD vBvE
ĠwBwGwD uG
ĠxGxDwB vA
ĠxGxDwB vD
ĠxGxDwB wAwD
ĠxGxDwB wFjvB
ĠxGjxFj wD
ĠxGjxFj xC
ĠxGjxFj xDj
ĠxGjxFj vAj
ĠxGjxFj vFj
ĠxGjxFj wBwE
ĠxGjxFj xDjwDj
ĠxGjxFj xDjwAjwDj
ĠxGjxFj wBwGj
ĠxCwAj wE
ĠxCwAj vGj
ĠxCwAj vG
ĠxCwAj vFj
ĠxCwAj uAj
ĠxCwAj wFwC
ĠxCwAj wEwC
ĠxCwAj wGwDvG
ĠxCwAj wFvGj
ĠxCwAj wGvC
ĠxAjxFxD vF
ĠxAjxFxD wAwD
ĠxAjxFxD xCwF
ĠxBxFjxDj vFj
ĠxBxFjxDj wAjwDj
ĠxBxFjxDj xCjwFj
ĠxFjxC wFj
ĠxFjxC vA
ĠxFjxC wFjwC
ĠxFjxC wDjvC
ĠyDxFj wGj
ĠyDxFj wAj
ĠyDxFj wCj
ĠxGxCj wG
ĠxGxCj wEvCj
ĠxGxCj wGwCj
wAwE vB
wAwE vFj
ĠxCjwB wF
ĠxCjwB vA
ĠxCjwB vGj
ĠxCjwB vG
ĠxCjwB uB
ĠxCjwB wEvA
ĠxCjwB wFjwCj
ĠxCjwB wFwCj
ĠxCjwB wGjwDjvGj
ĠxCjwB wFjvA
ĠxCjwB wGjvCj
ĠxExD wGj
ĠxExD vAj
ĠxExD vFj
ĠxExD vD
ĠxExD wGwC
ĠxExD wGjwE
ĠxExD wBwFjvB
ĠxExD wBvB
ĠxFxDj wA
ĠxFxDj vB
ĠxFxDj vG
ĠxFxDj vDj
ĠxFxDj wGjwCj
ĠxFxDj wAwF
ĠxFxDj xCwC
ĠxFxDj xCwGwC
ĠxGxCwG wF
ĠxGjxCjwGj wFj
ĠyCjxF wG
ĠyCjxF wA
ĠyCjxF wC
ĠyCjxF xDj
ĠzF xCj
ĠzF xD
ĠzF xF
ĠzF yC
ĠzF yCj
ĠzF yB
ĠzF zCj
ĠxDwAwF wDvA
ĠxDjwAjwFj wDjvAj
ĠyDjxG wA
ĠyDjxG wD
ĠyDjxG xF
ĠzFj xD
ĠzFj xDj
ĠzFj xFj
ĠzFj xB
ĠzFj yCj
ĠzFj yD
ĠzFj zC
ĠzFj zD
ĠxAjxDjwAj wGj
ĠxExCwA vD
ĠxExCwA uA
ĠxBxEwB wA
ĠxBxEwB wC
ĠxBxEwB vE
ĠxAxFxD vD
ĠxAjxFjxDj vDj
ĠyExGj wAj
ĠyExGj wDj
ĠyExGj xFj
xEwA wEvA
ĠyCxExC vAj
ĠyCjxFxCj vB
ĠxExCjwA vB
ĠwBwCj vE
ĠyDxFjxD wC
ĠyDxFjxD vD
ĠyDjxGxDj wCj
ĠyDjxGxDj vDj
ĠxEwAwE vE
ĠxGxF wB
ĠxGxF wCj
ĠxGxF xD
ĠxGxF vA
ĠxGxF vF
ĠxGxF wAjwDj
ĠxGxF xDwD
ĠxGxF xDwAwD
ĠxGxF xCwGwC
ĠxAxEwA vFj
ĠxAxEwA vF
ĠxAxDwA wG
ĠxDjwGjwDj vE
ĠxDjwGjwDj vDj
ĠxDwGwD vDj
ĠxDwGwD vD
ĠwFjwDj vCj
ĠwFjwDj uAj
ĠwFjwDj vAvC
ĠwFwD vC
ĠwFwD uA
ĠyExGjxE wD
ĠyExGjxE vE
ĠxAjxE vFj
ĠxAjxE wBwE
ĠxAjxE wGvE
ĠxFwAjwF vF
ĠxFjwBwFj vFj
ĠxAxDj vF
ĠxAxDj wAjwDj
ĠxAxDj wFjvDj
ĠxAjxFwAj wF
ĠxAjxFwAj vAj
ĠxAjxFwAj vG
ĠxAjxFwAj vFj
ĠxBxFjwB wFj
ĠxBxFjwB vB
ĠxBxFjwB vGj
ĠxBxFjwB vG
ĠxFwB wA
ĠxFwB wF
ĠxFwB vGj
ĠxFwB wFvB
ĠxFwB wDuB
ĠwCjvGj vF
ĠyGyC wGj
ĠyGyC wA
ĠyGyC xD
ĠyGyC xGxDj
ĠyGjyCj wA
ĠyGjyCj wAj
ĠyGjyCj xDj
ĠyGjyCj xGjxE
ĠxEwBwGj wFjvB
ĠxEwBwGj wDjvGj
ĠwCvG vE
ĠyExC wG
ĠyExC wC
ĠyFxCj wGj
ĠyFxCj wCj
ĠyDjxC wGj
ĠyExCj wA
ĠyGxG wG
ĠyGxG wE
ĠyGxG wAj
ĠyGxG xE
ĠwAjwC uAj
ĠwAvB uA
ĠyGjxGj wGj
ĠyGjxGj wB
ĠyGjxGj wF
ĠyGjxGj xF
ĠxGjxD wFvD
ĠyFjxD wA
xFjwB wFjvB
ĠyGxDj wAj
ĠyCxFxC wGj
ĠyCxFxC wAj
ĠyCxFxC wCj
ĠyCjxFjxCj wA
ĠyCjxFjxCj wD
ĠxAxG wA
ĠxAxG wF
ĠxAxG wDj
ĠxAxG vB
ĠxAxG xE
ĠxAxG vG
ĠxAxG xEwE
ĠxAxG xDwAwD
ĠxAxG xEvA
ĠxAxFjxD wE
ĠxAxFjxD vA
ĠxAxFjxD wAvB
ĠxAjxGxDj wF
ĠxAjxGxDj vAj
ĠxAjxGxDj wAjwC
ĠyGjxE wB
ĠyGjxE wE
ĠxAjxGj wE
ĠxAjxGj wAj
ĠxAjxGj wFj
ĠxAjxGj wDj
ĠxAjxGj wC
ĠxAjxGj xF
ĠxAjxGj vGj
ĠxAjxGj xFwF
ĠxAjxGj xDjwAjwDj
ĠxAjxGj xFvAj
ĠyCjxAjxFj wAj
ĠyCjxAjxFj wCj
ĠwBwA vG
ĠwBwA vFj
ĠwBwA vF
ĠwBwA uA
ĠwBwA wFjwCjvFj
ĠwBwA wFjuB
ĠyExG wG
ĠyExG wD
ĠxCjwAjwFj vGj
ĠxCwAwF vG
ĠxAxCjwA vG
ĠyCxD wF
ĠyCxD xC
ĠyCjxDj wFj
ĠyCjxDj xCj
ĠxEwBwGjwE wCj
ĠxAjxDjxC vF
ĠxAjxDjxC wGjvGj
ĠyFxGj wGj
ĠyFxGj wDj
ĠxBxExCj vB
ĠxBxExCj vFj
ĠxBxExCj wAvA
ĠyDjxAjxG vAj
ĠyDjxAjxG xCjwAjwDj
ĠwBwDj vFj
ĠyCxGxE vG
ĠyGyD wE
ĠyGyD wC
ĠyGyD xD
ĠyGyD xF
ĠyGyD xGwDj
ĠxDjwAjwGwDj wC
ĠyGyE xF
ĠyGyE xA
ĠxDwAwFjwD vB
ĠwAwG vG
ĠwAwG vE
ĠwAwG wDvA
ĠwAwG wEvBvE
ĠwAwG wDvF
ĠwAwG wEuA
ĠwGjvB vDj
ĠwGjvB vCj
ĠyGjyF xFj
ĠyGjyF xAj
ĠyCjxGjxF vGj
ĠyDxAxFj vA
ĠyDxAxFj xCwAwD
ĠyFjxA wE
ĠyFjxA vB
ĠxCjwGjwFwCj vAj
ĠxCwGwEwC vA
ĠxBxF vG
ĠxBxF xDwG
ĠxBxF wGjvF
ĠyCjxG vA
ĠyCjxG wAjvG
ĠyAyFj xG
ĠyAyFj xB
ĠyAjyG xGj
ĠyAjyG yC
ĠyFjxAjxFj wE
ĠyFjxAjxFj xDj
ĠyFjxAjxFj vFj
ĠyCxFj vGj
ĠyCxFj xDjwGj
ĠyCxFj wAvFj
ĠyGxAj wF
ĠyGxAj xC
ĠyGxAj wC
ĠyGjyDj wF
ĠyGjyDj wCj
ĠyGjyDj xDj
ĠyGjyDj xFj
ĠxAxDwB vE
ĠxEwAj wGj
ĠwGvAj vD
ĠwGvAj vC
xGjxCj wGjwCj
ĠxDjwAjwG vAj
ĠxDjwAjwG wFvAj
ĠxDjwAjwG wDvG
ĠyGjxB wFj
ĠyGjxB xCj
ĠyGjxB wCj
ĠxDwAwFj vA
ĠxDwAwFj wEvA
ĠyDjxA wB
ĠyDjxA vB
ĠyDjxA xCvA
ĠyDjxA xFjwD
ĠxDjwA wG
ĠyAjxFj xCj
ĠxCwGwE vG
ĠxCwGwE wDvG
ĠxCwGwE vBvE
ĠyAxF xC
ĠxGjxCjwAj vDj
ĠyCxAxF wA
ĠyCxAxF wC
ĠxCjwGjwF vGj
ĠxCjwGjwF wDjvGj
ĠxGjxDjwAj wF
ĠxGjxDjwAj vAj
ĠyExAj wC
ĠyExAj xCjvAj
ĠyExAj xGwDj
ĠxBxA wE
ĠxBxA wA
ĠxBxA wCj
ĠxBxA xFj
ĠxBxA xEwE
ĠxBxA xFjwFj
ĠxBxA xFjvB
ĠwAjwFjwCj vF
ĠwAjwFjwCj uB
ĠwAwFwC vE
ĠwAwFwC uAj
ĠwAjwGj vF
ĠwAjwGj wFwCvF
ĠwAjwGj wFuAj
ĠwEwCj vG
ĠwEwCj vCj
xGxC wGwC
ĠxDwGj wFj
ĠxDwGj wD
ĠxDwGj wDvGj
ĠwDjwC vFj
ĠwDjwC vC
ĠxEwBwFj vFj
ĠxDjwAjwF vF
ĠyFyD xDj
ĠyFyD xG
ĠyFjyDj xE
ĠyFjyDj xGj
ĠxDwAwE vE
ĠyFxAxF wDj
ĠyFxAxF xD
ĠyFxAxF vF
ĠyCxAj wF
ĠyCxAj wD
ĠyCxAj xFwF
ĠyCxAj xGwG
ĠyCjxB wFj
ĠyCjxB wDj
ĠyCjxB xFjwFj
ĠyCjxB xGjwGj
ĠyAxA wFj
ĠyAxA xC
ĠyAxA xFj
ĠyAjxAj wG
ĠyAjxAj xCj
ĠyAjxAj xG
ĠwDjvB uGj
ĠwDvAj uG
ĠxAxEwB vB
ĠxAjxFxC wC
ĠxCjwGjwDj vDj
ĠxCwGwD vD
ĠxFjxDjwAj vB
ĠxFjxDjwAj wAjwDj
ĠwDvB vF
ĠwDvB uB
ĠyAyE wFj
ĠyByGj xA
ĠyByGj yCj
ĠxGxCwA vD
ĠyDxGj wAj
ĠyDxGj vAj
ĠyDxGj wBvGj
ĠxGxDwD wC
ĠxBxFjxCj wCj
ĠyDxBxG wD
ĠyDxBxG vA
ĠxFxCwC vAj
ĠxFjxCjwCj vB
ĠxGjxDjwDj wCj
ĠyAjyF wG
ĠxFxDwA vAj
ĠxFxDwA wAwD
ĠyGxB xE
ĠyExBxGj vB
ĠyAyF yDxA
ĠyAjyFj yDjxAj
ĠyAjyFj yCjxAj
ĠzG xDj
ĠzG yDj
ĠzG zCj
ĠzG zDj
ĠyGjyC xF
ĠxAxEwE wD
ĠyByFj wGj
ĠyDjyCxGj wDj
ĠyDjyCxGj vAj
ĠxEwBvB vA
ĠxFxCwAj wF
ĠxFxCwAj wC
ĠxFxCwAj wGwDvG
ĠxFjxCjwB wFj
ĠxFjxCjwB wCj
ĠxFjxCjwB wGjwDjvGj
ĠyDxE wE
ĠyDxE xD
ĠzGj xE
ĠzGj yE
ĠzGj zD
ĠzGj zE
ĠxAjxFwF wDj
ĠxBxFjwFj wE
ĠyCxFxD wC
ĠyCjxFjxDj wCj
ĠyDjxF xDj
ĠyAyCj xFj
ĠwBwFjwDjvB vFj
ĠwAjwFwDvAj vF
ĠxEwAwFj uB
ĠxGjxFxC xCwF
ĠxDjwGwDj vAjvG
ĠxDjwGwDj vAjvGvC
ĠxDwFjwD vAvFj
ĠxDwFjwD vAvFjuB
ĠxCjwFjwCj vD
ĠxCjwFjwCj vCj
ĠxCwFwC vCj
ĠxCwFwC vC
ĠwCjvAj uAj
ĠwCvA uA
ĠyExFj wFj
ĠyExFj xE
ĠyAyD wB
ĠyAyD wAj
ĠyAyD xF
ĠyAjyDj wB
ĠyAjyDj xC
ĠyAjyDj xFj
ĠyByE xC
ĠyByE xCj
ĠxDjwGjwF uAj
ĠxDwGwE uA
ĠxDjwAjvAj vGj
ĠwAwEwCjvA vE
ĠxGxEwB wBwE
ĠxCjwG wF
ĠxCjwG wCj
ĠxCjwFwCj vGjvF
ĠxCwEwC vGvE
ĠxCwEwC vGvEuA
ĠyBxB wGj
ĠyBxB xG
ĠyBxB xGj
ĠyEyCjxA wE
ĠyEyCjxA wA
ĠyEyCjxA vB
ĠwGjwFj vDj
ĠwGwF vD
ĠxAxDwAj wE
ĠxAxDwAj vF
ĠxAxDwAj wGwDvG
ĠxAxDwAj wDvE
ĠxAjxDjwB wF
ĠxAjxDjwB vFj
ĠxAjxDjwB wGjwDjvGj
ĠxAjxDjwB wDjvF
ĠyExBxG wG
ĠyExBxG xCj
ĠyExBxG xE
ĠyFjyCjxA wA
ĠyFjyCjxA xFj
ĠxCwFj wE
ĠxCwFj wC
ĠyGyDxAj wAj
ĠyGyDxAj xG
ĠyGjyDjxB wB
ĠyGjyDjxB xGj
ĠxExCjwGj vA
ĠxExCjwGj wGjwCj
ĠxDjxCwG vGj
ĠxDjxCwG wGwC
ĠxDwBwFj vG
ĠxDwBwFj wFjvB
ĠyFyCxA xDjxCwF
ĠyFjyCjxAj xExCjwFj
ĠxAxFjxCj xCjwFj
ĠxAjxGxD xDwG
ĠxBxGjxDj xDjwGj
ĠxFwAjwG vC
ĠxFjwBwGj vCj
ĠyFyCxGj wGj
ĠyFyCxGj xF
ĠwBwF vB
ĠxCwGwDj vDj
ĠxCwGwDj vD
ĠwBwFjwD vD
ĠwBwFjwD vCj
ĠxFwAjwFj wC
ĠxFwAjwFj vCj
ĠxFwAjwFj wDjvAjvDj
ĠxEwAwF vB
ĠxEwAwF vC
ĠxEwAwF wDvAvD
ĠxCjwAjwF vFj
ĠxCjwAjwF wFvAj
ĠxCwAwE vF
ĠxCwAwE wEvA
ĠwFjwE vCj
ĠwFjwE vBvFjuB
ĠwFwDj vC
ĠwFwDj vAjvFuAj
ĠwEwD uB
ĠwEwD vAvEuA
ĠxCjwGjvAj vAj
ĠxCwGvA vA
vAjvFj vCj
vAvF vC
ĠxCjwGjwE vDj
ĠwAjwFwCj vCj
ĠwAjwFwCj vC
ĠwAwEwC vC
ĠwAwEwC uB
ĠzCyF xCj
ĠzCyF yCxGj
ĠzCyF yCjwAj
ĠzCjyFj xD
ĠzCjyFj yCjxA
ĠzCjyFj yDwB
ĠyFyDxAj wF
ĠyFyDxAj wC
ĠyCxGxC wG
ĠyCxGxC vA
ĠyCxGxC vGj
ĠyCjxGjxCj wGj
ĠyCjxGjxCj vAj
ĠyCjxGjxCj vA
ĠyFjyDjxB wFj
ĠyFjyDjxB wCj
ĠyDxGxD wDj
ĠyDjxGjxDj wE
ĠxEwBwA vB
ĠxEwBwA wFjwCjvFj
ĠxBxExC wFj
ĠxBxExC wD
ĠxBxExC vG
ĠxBxExC wEvFj
ĠyCxFxCj wG
ĠyCxFxCj wDj
ĠyCxFxCj vGj
ĠyCxFxCj wFvG
ĠxGjxDjxCj wDj
ĠxGxDxC wD
ĠyCjxFjxD wGj
ĠyCjxFjxD wE
ĠyCjxFjxD vA
ĠyCjxFjxD wFjvGj
ĠyDjxGjxE wAj
ĠyDjxGjxE vB
ĠyDjxGjxE wGjvAj
ĠyDxGxDj wA
ĠyDxGxDj vAj
ĠyDxGxDj wGvA
ĠxCjwAwFj uB
ĠxCjwAwFj uA
ĠxCwGjwF uAj
ĠxCwGjwF uGj
ĠwBwGwE uA
ĠwBwGwE uG
ĠyGyEyC wD
ĠyGjyFyCj wDj
ĠxGjxCjwA wDj
ĠxGjxCjwA vE
ĠxGjxCjwA wFjwCjvFj
ĠxCjwFjwDj vCj
ĠxCjwFjwDj uGj
ĠxCwFwD vC
ĠxCwFwD uG
ĠxGxCwGj wD
ĠxGxCwGj vDj
ĠxGxCwGj wFwCvF
ĠxFjwBwG wCj
ĠxFjwBwG vD
ĠxFjwBwG wEvBvE
ĠyCjxGjxEwB wFj
ĠyCxGxDjwAj wF
ĠyGxBxG wF
ĠyGxBxG vG
ĠwEvGj vE
ĠyAjyD xG
ĠyByDj xGj
ĠyCxGxExC wG
ĠyCjxGjxFxCj wGj
ĠyGjyCxGj wFj
ĠyGjyCxGj vGj
ĠwDjwCj uAj
ĠwDwC uA
ĠxDjwBwGj vCj
ĠxDjwBwGj uB
ĠxDwAjwG vC
ĠxDwAjwG uAj
ĠwBwEvB vC
ĠwFjwDjvB vFjuB
ĠwFwDvAj vFuAj
yCjxAj xDj
ĠxAwBwG wD
ĠyFxG xF
ĠyFjxGj xFj
ĠwEwCjvA vEuA
ĠyDxDwAj vG
ĠyDjxDjwB vGj
ĠwBwFjwDj uB
ĠwAjwFwD uAj
ĠwAwEwCj uA
ĠyExBxE xCj
ĠyExBxE wCj
ĠyExBxE wC
ĠyDjyCxG wC
ĠyEyCjxGj wCj
ĠyAjyDxAj wAj
ĠyAjyDxAj vAj
ĠyByDjxB wB
ĠyByDjxB vB
ĠyCxGwG wF
ĠyCjxGjwGj wFj
ĠyDxAxD wB
ĠyDxAxD vB
ĠyDxAxD vAj
ĠyDjxAjxDj xC
ĠyDjxAjxDj wC
ĠyDjxAjxDj vB
ĠzCyC xGj
ĠzDyG xDj
ĠzDyG xE
ĠzDyG xG
ĠzDyG yDxAj
ĠzDyG yDjxC
ĠzDjyGj xE
ĠzDjyGj xF
ĠzDjyGj xGj
ĠzDjyGj yDjxB
ĠzDjyGj yExCj
ĠyEyCxG wC
ĠyEyCxG xEwA
ĠyFyCjxGj wCj
ĠyFyCjxGj xFwAj
ĠyDxBxGxDwG wD
ĠyDjyCxGjxDjwGj wDj
ĠyAyCjxA wA
ĠyAyCjxA vA
ĠxAxDjwB wC
ĠyCxAxE vA
ĠyCxAxE xCwF
ĠyCjxAjxF vAj
ĠyCjxAjxF xCjwFj
ĠwGjwEvB vDj
ĠwGjwEvB vCj
ĠwGwDjvAj vD
ĠwGwDjvAj vC
ĠwFjwDvA vCj
ĠwFjwDvA uB
ĠxAjxExC wCj
ĠxBxFxCj wD
xFjxCj wGj
ĠxCjwGjwFj vCj
ĠxCjwGjwFj wDjvAjvDj
ĠxCwGwF vC
ĠxCwGwF wDvAvD
ĠwBwFjwE uB
ĠwBwFjwE vBvFj
ĠwBwFjwE wCjvGjvCj
ĠwAjwFwDj uAj
ĠwAjwFwDj vAjvF
ĠwAjwFwDj wCvGvC
ĠwAwEwD uA
ĠwAwEwD vAvE
ĠwAwEwD vBvFjuB
ĠwGjwDjwC uAj
ĠwGwDvB uA
ĠzCyA xAj
ĠzCyA yD
ĠzCjyAj xB
ĠzCjyAj yDj
ĠxFjwAwFj vA
ĠxFjwAwFj wFjwCjvFj
ĠxFwGjwF vGj
ĠxFwGjwF wFwCvF
ĠxEwGwE vG
ĠxEwGwE wEvBvE
ĠxGwAjwG vAj
ĠxGwAjwG wGwDvG
ĠxAxFxCwA vG
ĠxAjxFjxCjwAj vGj
ĠwAwDj vA
ĠwGjwD vGj
ĠxDwAwG wDvA
ĠxDwAwG wEvBvE
ĠwBwFjvGj vGj
ĠwAjwFvG vG
ĠwAwEvFj vFj
ĠxGjwBwGj vB
ĠxGjwBwGj wGjwDjvGj
ĠxGjxDjwBwFj wDjvGj
ĠxGxDwAjwF wDvG
ĠxFxCwGjwDj wCvF
ĠxFjxCjwAwE wCjvFj
ĠxEwBwGwD vBvE
ĠwFwCjvGj vC
ĠwFwCjvGj uAj
ĠwEwCvG uB
ĠwEwCvG uA
ĠyDxBxFj vB
ĠwBwAwE vB
ĠwBwAwE vG
ĠwAjwE vAj
ĠyCxFjxD wDj
ĠyCjxGxDj wE
ĠyCxGxF wG
ĠxDwBwE vFj
ĠxFjxDwAwFj vE
ĠxGxDjwAjwG vF
ĠxGjxEwBwGj vFj
ĠxFxCjwGjwF vDj
ĠxExCwGwE vD
ĠyGjyCjxAj wFj
ĠyGjyCjxAj xFjwFj
ĠxCjxCj wGjwGjvFj
ĠxDjwAjwGj wFwCvF
ĠxCjwAjwDj vF
ĠxCwAwD vE
ĠyGyCxA wF
ĠyGyCxA xFwF
ĠxCxC wGwGvF
ĠwAjwGjwDj vAj
ĠwAjwGjwDj vFj
ĠyFjyDxA wB
ĠyGyDjxAj xC
ĠwGjwDjvF vF
ĠwGwDvE vE
ĠxAxCjwAwE wCjvFj
ĠyCjxGjxExCj wGj
ĠxAjxDwAjwF wDvG
ĠxBxDjwBwFj wDjvGj
ĠxGjxCwGjwDj wCvF
ĠyGjyExB xCj
ĠyFxB wG
ĠyFxB wCj
ĠyFxB xGwGj
ĠyDxAwA wG
ĠxGwBwGwD vBvE
ĠyEyCxA xE
ĠyEyCxA vA
ĠyFyCjxAj vAj
ĠyFyCjxAj xF
ĠxExE wBwBvA
ĠyDxGjxE wF
ĠyFyCxF wD
ĠyFyCxF wCj
ĠyFyCxF xD
ĠyFjyCjxFj wD
ĠyFjyCjxFj wDj
ĠyFjyCjxFj xDj
ĠyExGjxEwB wGjwE
ĠxFxF xCxCvAj
ĠwGjwFjwCj vGj
ĠwGjwFwC vFjvCj
ĠwGwCj vG
ĠwGwFwC vG
ĠyCjxGjxFj wGj
ĠxBxGjxD vB
ĠyDxAxG wG
ĠyDjxAjxGj wGj
ĠwGwEvB vFvC
ĠyGyCxG wA
ĠyGyCxG wF
ĠyGjyCjxGj wAj
ĠyGjyCjxGj wFj
ĠyFjyC wGj
ĠyFjyC wD
ĠyAyDxA wG
ĠyAyDxA wB
ĠyAyDxA xF
ĠyAjyDjxAj wGj
ĠyAjyDjxAj xC
ĠyAjyDjxAj xFj
ĠxBwBwG vE
ĠyCxCwGj vF
ĠwAjwFjwDj uGj
ĠwAwFwD uG
ĠyCjxCjwA vFj
ĠyCxAxDj wC
ĠyCjxAjxE wCj
ĠxAxCwA wC
ĠxAxCwA vF
ĠxAxCwA wFwCvF
ĠxAjxCjwAj wCj
ĠxAjxCjwAj vFj
ĠxAjxCjwAj wFjwCjvFj
ĠyCjxExCj wE
ĠyCjxExCj vA
ĠxBxDwB wD
ĠxBxDwB vG
ĠyCxDjxC wDj
ĠyCxDjxC vGj
ĠzEyA xFj
ĠzEyA xA
ĠzFyAj xG
ĠzFyAj xAj
ĠxDjxDj wAjwAjvGj
ĠxDxD wAwAvG
ĠwFjwC vFj
ĠyDxFxD wF
ĠyDxFxD vAj
ĠyDjxFjxDj wFj
ĠyDjxFjxDj vB
ĠzFjyB xGj
ĠzFjyB xB
ĠyByExB wA
ĠyByExB xCj
ĠyByExB xG
ĠyFyDxAjxFwAj wF
ĠxGxG xDxDwC
ĠxGjxGj xDjxDjwCj
vGjvE uB
ĠxAxDwBwG vG
ĠyCxFxDwAj vAj
ĠyCjxFjxDjwB vB
ĠxFjwAjwFjwCj vAjvDj
ĠxFwAwFwC vAvD
ĠxDwAvAj vC
ĠxDjwAjvB vCj
ĠwGjwDjwCj vCj
ĠwGjwDjwCj uGj
ĠwGjwDjwCj vAjvFuAj
ĠwGwDwC vC
ĠwGwDwC uG
ĠwGwDwC vAvEuA
ĠyDxBxF wD
ĠyDxBxF xDwG
ĠyDjyCxFj wDj
ĠyDjyCxFj xDjwGj
ĠxDwAwFwD vD
ĠxDjwAjwFjwDj vDj
ĠwFvB vF
xFxC wG
ĠyCxGxDjxC wG
ĠxDjwFjwDj wDjvAjvDj
ĠxDwFwD wDvAvD
ĠyEyCjxG wE
ĠyFyDxGj wF
ĠyFjyDjxA wFj
ĠxExDwG wE
ĠxFxDjwGj wF
ĠxGxFwAj wG
ĠwBwGjwCj vDj
ĠwAjwGwC vD
ĠwAjwFjvB vFj
ĠwAwFjvB vCj
ĠwAwFvAj vF
ĠwGjwFvAj vC
ĠwGwEvA uB
xDwA wG
xDjwAj wGj
ĠyAyDxAj wG
ĠyAjyDjxB wGj
ĠxCjwEwCj wCjvGjvCj
ĠxCwDjwC wCvGvC
ĠwBwDvB vBvFjuB
ĠxCwGjwDjwC uAj
ĠwBwGwDvB uA
ĠxFjxCwAwD vAvD
ĠxGxCjwAjwDj vAjvDj
ĠxAjxExCj vA
ĠxAjxExCj wFjwCjvFj
ĠxAxDjxC vGj
ĠxAxDjxC wFwCvF
ĠxFwBwGjwCj vGjvCj
ĠyGyExAj wG
ĠyGjyFxB wGj
ĠxEwAjwGwC vGvC
ĠyAyFyC xD
ĠyAyFyC xA
ĠzCyFyC wAj
ĠzCjyFjyCj wB
ĠxAjxAj xFxFwDj
xEwB wA
ĠyGyCj wDj
ĠyGjyD wE
ĠxEwBwC vD
ĠxFxCwCj vDj
ĠwBwEwCj uB
ĠwAjwCjvAj vAj
ĠwAjwCjvAj vAjvFuAj
ĠwAwCvA vA
ĠwAwCvA vAvEuA
ĠxGjxFjxCj wE
ĠxGjxFjxCj wGjwCj
ĠxFjxCwA vF
ĠxGxCjwAj vFj
ĠxExDwA wC
ĠxFxDjwAj wCj
ĠxFwBwGj vE
ĠyAyFjyC wA
ĠxDjwAwFjvB vFjuB
ĠxDwGjwFvAj vFuAj
ĠxCjwGwEvA vEuA
ĠxCwAjwDj wC
ĠxCwAjwDj vGj
ĠwBwAwD vB
ĠwBwAwD vG
ĠwAjwGjwCj vAj
ĠwAjwGjwCj vFj
ĠwAwGwC vA
ĠwAwGwC vF
ĠwEvAj vE
ĠwDjwCjvGj vDjuGj
ĠwDvGj vD
ĠwDvGj vDjuGj
ĠwDwCvG vDuG
ĠxDjwGjwE wCjvGjvCj
ĠxDwGwDj wCvGvC
ĠxCjwFjwD vBvFjuB
ĠxCwFwCj vAjvFuAj
ĠzDjyG yDj
ĠwBwEwC vAvEuA
ĠyDxGxExC wC
ĠyDjxGjxFxCj wCj
ĠyExAxFjxD wD
ĠyFjxBxGjxE wE
ĠyFxAjxGxDj wDj
ĠzEyGj yE
ĠxCjwAwEwCj uB
ĠxDjwBwFjwDj vCj
ĠxDwAjwFwD vC
ĠxGjxDwB vG
ĠyAjyGyCj wAj
ĠyGjyEyCj wCj
ĠyGjyEyCj xGj
ĠyFjyDxB vB
ĠyFjyDxB xFj
ĠyGyDjyC wC
ĠyGyDjyC xG
ĠxCwFjwDjvGj vDjuGj
ĠwBwFwDvG vDuG
ĠxFjwGjwE vB
ĠxFjwGjwE vCj
ĠxAjxFjxC wD
ĠxAjxFjxC wAwD
ĠxBxGxCj wDj
ĠxBxGxCj wAjwDj
ĠxFjxDwAwE vD
ĠxGxDjwAjwF vDj
ĠxGjxEwBwFj vE
ĠxFxCjwGjwDj vCj
ĠxExCwGwD vC
ĠxFjxExCj wGjwCj
ĠxGxFxC wDj
ĠyCjxAjxFjxCj wDj
ĠyCjxAjxFjxCj wFjwCj
ĠyDjxAxF wFj
ĠyCxAxFxC wD
ĠyCxAxFxC wFwC
ĠyExAjxFj wG
ĠzEyAyE xD
ĠzFyAjyF xDj
ĠxCjwBwE wCj
ĠxAxA xExEwD
ĠwDjvA vDj
ĠwCjvG vDuG
ĠyFyDxA wD
ĠyFjyDjxAj wDj
ĠyGxAxF wD
ĠxFjxEwB wD
ĠzFyA yF
ĠzFjyAj yFj
ĠxGjxDwBwE vBvE
ĠyFjxAjxFjxCj wAjwFj
ĠyFxAxFxC wAwF
ĠyAyFyD wD
ĠyAjyFjyDj wDj
ĠzGzC xA
ĠzGzC yC
ĠzGjzCj xAj
ĠzGjzCj yCj
ĠzGjzDj yB
ĠzDyGyD xC
ĠzDjyGjyDj xCj
ĠzAzD xB
ĠzAzD yD
ĠzAjzDj yC
ĠzAjzDj yDj
ĠyGjxAjxFj wDj
ĠzFjyByFj xE
ĠzBzE yCj
ĠzBzE yE
ĠxEwFjwD uB
ĠxFwGwDj vC
ĠxBxB xFjxFjwE
ĠxFwAjwGwDj vAjvDj
ĠxEwAwFjwD vAvD
ĠxFjwBwGjwE vBvE
ĠxDjwGjwFwCj vGjvCj
ĠxDwGwEwC vGvC
ĠyGyExB wE
ĠyEyCjxAxE wAwE
ĠxDjwFwCj uAj
ĠxDwEwC uA
ĠyFjxG xD
ĠyFjyE xA
ĠyGxGj xDj
ĠyGjxA xE
ĠyAxAj xF
ĠyAjyE xAj
ĠxExCjwAwE vFj
ĠxAxDxC vG
ĠxAjxDjxCj vGj
ĠyCjxFjxE vB
ĠzDyFj yD
ĠwAjwFvAjvF vD
ĠwBwFjvBvFj vDj
ĠxFjwAwFjwD vAvD
ĠwAwEvAvE vCj
ĠxFwGjwFwCj vGjvCj
ĠxEwGwEwC vGvC
ĠxGwAjwGwDj vAjvDj
ĠxGjwBwGjwE vBvE
ĠyGjyFyC wF
ĠyCjxGxCj wG
ĠyAyFjyCj wFj
ĠyAjyGyD wG
ĠyCxFjxC wFj
ĠyByGjyDj wGj
ĠxBxAj xFjwD
ĠwDjvBvFj vDj
ĠwDvAjvF vD
ĠwCjvAvE vCj
ĠyAyDj xA
ĠyAjxB xFj
ĠxBxFxD vAj
ĠyCjxGxE wC
ĠyCxFjxDj vB
ĠyGjyDjxGj wE
ĠyGjyDjxGj wF
ĠxEwGjwEvB vGjvCj
ĠxFwAjwFjvAj vC
ĠxEwAwFvA uB
ĠxGjxCjwAwCj vDj
ĠxGxCwGjwC vD
ĠxFjwBwGvB vCj
ĠzCyAyF yC
ĠzCyAyF yCxF
ĠzCjyAjyFj yCj
ĠzCjyAjyFj yCjxFj
ĠxDjxCjwFj wDj
ĠxDxCwF wD
ĠxDjwDjvB vGj
ĠxDjwFjwDjvB vFjuB
ĠxDwFwDvAj vFuAj
ĠxCjwEwCjvA vEuA
ĠxCwDjwCvGj vDjuGj
ĠwBwDvBvG vDuG
ĠwFwDvGj uB
ĠyByGyD xE
ĠyByGyD xBxG
ĠzCjyAyE yCjxA
ĠzEyByG yC
ĠzCyEyC wC
ĠzFzCyGj yCj
ĠzFjzCjyA yD
ĠzGzDyAj yDj
Ġj Cz
Ġj CjzFj
ĠxDjwAjwGjwDj vAj
ĠxCjwGjwFjwCj vGj
ĠxCwGwFwC vG
ĠwGwDvGvD uB
ĠwGjwDjvGjvDj vC
ĠwGjwEwCj vCj
ĠwFwCjvAj uAj
ĠwEwCvA uA
ĠwGwDjwC vC
ĠwFjwDvB uB
ĠxCwDwC uA
ĠxCjwDjwCj uAj
ĠxAjxEwAj wE
ĠxAxDjwA wDj
ĠxGjxDwGj wD
ĠyGyDxG wE
ĠxBxFwB wF
ĠxEwAjwE vAj
ĠxDjwAwDj vA
ĠyCxAjxG wC
ĠyCjxBxGj wCj
ĠyDxGjxF wCj
ĠyAjyFjyCj xDj
ĠzCyGjyDj yCxGj
ĠzDyAjyF yDxAj
ĠzDjyByFj yDjxB
ĠzEyByGj yE
ĠzCjyFyCj wCj
ĠxExDjwB vG
ĠxFxExC vGj
ĠxFjxFxCj vA
ĠxDjxDwAj vFj
ĠxGxFjxD vAj
ĠxGjxGxDj vB
ĠxCwBwG vDj
ĠxAxGjxE wC
ĠxEwBwFjwD vAvD
ĠxFxCwGwDj vAjvDj
ĠxFjxCjwGjwE vBvE
ĠxDwAwEwC vGvC
ĠxDjwAjwFwCj vGjvCj
ĠxCjwGjwDjvB vFjuB
ĠxCwGwDvAj vFuAj
ĠyByF xB
ĠwBwFjwCjvA vEuA
ĠwAjwFwCvGj vDjuGj
ĠwAwEvBvG vDuG
ĠxCjwAjwFwCj vFj
ĠxCwAwEwC vF
ĠwGjwDjwCjvGj vDj
ĠwGjwDjvAjvFj vCjuFj
ĠwGwDwCvG vD
ĠwGwDvAvF vCuF
ĠzCyFj yC
ĠwAjvAjvFj vDj
ĠwAvAvF vD
ĠzDyGj yD
ĠzDjyA yDj
ĠzEyAj yE
ĠyExBxGjxD wBwE
ĠyByEyC wA
ĠxCjwFwCjvGj vFuAj
ĠxFjxFjxCj xCjvB
ĠxDxCjwA vF
ĠxCjxCwGj vE
ĠxAjxAxF wCj
ĠyFjyCxGj wA
ĠyGyCjxA wAj
ĠyGjyDxAj wB
ĠxDjwGwDjvAjvG vDj
ĠxDwFjwDvAvFj vD
ĠxCjwFwCjvGjvF vCj
ĠxCwEwCvGvE vC
ĠjCz FyD
ĠjCjzFj yDj
ĠxE wFvAj
ĠxE vBvE
ĠxF wFjvB
ĠxF uA
ĠxF vBvG
ĠxF wEwCvG
ĠxFj uAj
ĠxFj wGwC
ĠxFj wCvGj
ĠxFj wFwCjvGj
ĠxDj uGj
ĠxDj xDwD
ĠxDj xDjwAjwDj
ĠxDj wAwEvFj
ĠxD uG
ĠxD wGjwDj
ĠxD xCjwCj
ĠxD xDwAwD
ĠxG uB
ĠxG wGjwCj
ĠxG uA
ĠxG wEvA
ĠxG wCjvA
ĠxG wFjwDvA
ĠxG xFjwD
ĠxGj vC
ĠxGj wAwD
ĠxGj uAj
ĠxGj wFvAj
ĠxGj wDvAj
ĠxGj xDwD
ĠxGj wGwDjvAj
ĠxGj xGwDj
ĠxCj uFj
ĠxCj wGwD
ĠxCj xCwC
ĠxC wFjwCj
ĠxC wAjwFj
ĠxC uF
ĠxC xCwGwC
ĠxC wBvB
ĠxA vCj
ĠxA uB
ĠxA wAjwDj
ĠxA wFjvB
ĠxA xGxDj
ĠxA wDjvB
ĠxA xDjwDj
ĠxA wGjwEvB
ĠxAj vD
ĠxAj vC
ĠxAj wGwC
ĠxAj wFwC
ĠxAj wBwE
ĠxAj wEwC
ĠxAj xGjxE
ĠwB wFwC
ĠwB wAwF
ĠwB wBwFjvB
ĠwB wAjvGj
ĠwB wAjvAj
ĠwB wDjvBvFj
ĠxB vDj
ĠxB vCj
ĠxB wGjwCj
ĠxB wFjwCj
ĠxB wFwCj
ĠxB xFwF
ĠxB wAwEvFj
ĠwAj uB
ĠwAj wGjwE
ĠwAj wAvA
ĠwAj wAjwFvAj
ĠwAj wAvG
ĠwAj wDvAjvF
ĠwA uAj
ĠwA wGjwE
ĠwA wGwDj
ĠwA wGjvGj
ĠwA wAwEvA
ĠwA wGjvFj
ĠwA wCjvAvE
ĠwGj uA
ĠwGj wGwDj
ĠwGj wFjwCjvFj
ĠwGj vBvFj
ĠwGj wGvG
ĠwGj wGvF
ĠwGj wCvGjvDj
ĠwG wFjwD
ĠwG wFwCvF
ĠwG vAjvF
ĠwG vBvGvD
wGj vA
wGj vBvE
wGj vBvFj
ĠyC xB
ĠyC vD
ĠyC wAwD
ĠyC wGwC
ĠyC wFjwD
ĠyC wBwG
ĠyC wBwGwD
wG vGj
wG vAjvDj
wG vAjvF
ĠyCj vDj
ĠyCj yC
ĠyCj wAjwDj
ĠyCj wGjwCj
ĠyCj wGwDj
ĠyCj xCwGj
wB wC
wB vE
wB wGwC
wB wEvA
wE vGj
wE vF
wE vD
wE vGvC
wE vGvD
wA vAj
wA wCvG
wAj vB
wAj wFjvB
wAj wCjvGj
wFj vG
wFj vFj
wFj vE
wFj vAvD
wFj vAvE
wF vFj
wF vF
wF vDj
wF vGjvCj
wF vGjvDj
wD vFj
wD vFuAj
wD vFvC
wDj vG
wDj vDj
wDj vFjuB
wDj vFjvCj
xC wAj
xC vF
xC wFvAj
xC wGjwDj
xCj wB
xCj vFj
xCj wFjvB
xCj wAwE
ĠwFj wFwCj
wCj uB
wCj vAjvDj
wCj vEuA
ĠwF wEwC
wC uAj
wC vAvD
wC vDjuGj
xD wB
xD wDj
xD wGwC
xD wAwE
xDj wG
xDj wE
xDj xC
xDj wGjwCj
xDj wAjwF
ĠwE wDjvB
ĠwE wDjvCj
ĠwE wDjvDj
vB uA
vB vBvFj
vB vDuG
ĠyD vE
ĠyD yCj
ĠyD wAwD
ĠyD wBwE
ĠyD wGjwE
ĠyD xCjwA
ĠyD wBwGwD
ĠyDj vF
ĠyDj yD
ĠyDj wAjwDj
ĠyDj xCwF
ĠyDj xDwAj
ĠyDj wAwF
ĠyDj xDwAjwF
xE wGj
xE xCj
xE wAwD
xE wBwE
xE wBwFj
xE wBwFjvB
vAj vAjvF
vA vAvE
ĠwDj vBvE
ĠwDj wDvAj
ĠwDj uFj
ĠwDj wDvC
ĠwD uF
ĠwD wCjuB
xF wA
xF xD
xF wAjwDj
xF xCwF
xF xCjwFj
xF xCwGwC
xFj wGj
xFj wAj
xFj wDj
xFj xDj
xFj wBwE
xFj xDwG
vGj vD
ĠwCj vAvEuA
ĠwCj wCuAj
ĠwC vCj
ĠwC vBuA
ĠyE vG
ĠyE vFj
ĠyE yDj
ĠyE wBwE
ĠyE xCjwFj
ĠyE yE
ĠyE xDjwB
ĠyE wAjwFj
ĠyE wAvA
ĠyE xFwAj
ĠyE wAwE
ĠyE yDxA
ĠyE yDxAxD
ĠyE xDjwBwFj
xG wB
xG wA
xG wC
xG xD
xG xE
xG vA
xG xCwF
xG xDjwGj
xG xDwAwD
xG xDwA
xGj wAj
xGj xC
xGj wCj
xGj xDj
xGj xF
xGj xCjwFj
xGj xDjwAjwDj
vFj vDjuGj
vF vDuG
ĠyF vA
ĠyF vGj
ĠyF vG
ĠyF xDwG
ĠyF yF
ĠyF xExC
ĠyF xFjwB
ĠyF yDjxAj
ĠyF xGxC
ĠyF yDjxAjxDj
ĠyF xDwAjwF
ĠvB vC
ĠvB vGjvE
ĠyFj vAj
ĠyFj vA
ĠyFj vGj
ĠyFj xDjwGj
ĠyFj yFj
ĠyFj xFxCj
ĠyFj xGjxCj
ĠyFj xGxC
ĠyFj xDjwBwFj
xA wE
xA wD
xA xCj
xA xE
xA xFj
xA xDwG
xA xDwAwD
xAj wDj
xAj xD
xAj xDj
xAj xF
xAj xDjwGj
xAj xDjwAjwDj
ĠyG vB
ĠyG vAj
ĠyG vA
ĠyG vC
ĠyG wGwC
ĠyG xCwF
ĠyG xFjxD
ĠyG yG
ĠyG xGjxCj
ĠvGj uFj
ĠvG uF
ĠyGj wC
ĠyGj vB
ĠyGj vAj
ĠyGj vCj
ĠyGj wGjwCj
ĠyGj xCjwFj
ĠyGj xGxDj
ĠyGj yGj
ĠyGj yDjxAj
ĠyGj yDxA
ĠyGj xAxD
xB wE
xB xCj
xB wCj
xB xDj
xB xFj
xB xGj
ĠxEwB wF
ĠxEwB vDj
ĠxEwB vC
ĠxEwB uB
ĠxEwB vAvE
ĠxEwB wFvG
ĠxFxC wE
ĠxFxC wFj
ĠxFxC vE
ĠxFxC vCj
ĠxFxC vC
ĠxFxC vAjvF
ĠxFxC wFjvGj
ĠxFjxCj wG
ĠxFjxCj wF
ĠxFjxCj vF
ĠxFjxCj vD
ĠxFjxCj vCj
ĠxFjxCj vBvFj
ĠxFjxCj wGvA
ĠxGjxDj wG
ĠxGjxDj vG
ĠxGjxDj vE
ĠxGjxDj vDj
ĠxGjxDj wCjvGj
ĠxGjxDj wAvB
ĠxGxD wFj
ĠxGxD vFj
ĠxGxD vDj
ĠxGxD vD
ĠxGxD wCvG
ĠxGxD wGjvAj
ĠxDwA wDj
ĠxDwA vDj
ĠxDwA vCj
ĠxDwA vC
ĠxDwA uA
ĠxDwA wFjwCj
ĠxDwA wFwCvF
ĠxDjwAj wE
ĠxDjwAj vE
ĠxDjwAj vD
ĠxDjwAj vCj
ĠxDjwAj uAj
ĠxDjwAj wFjwCjvFj
ĠyA wCj
ĠyA wC
ĠyA vB
ĠyA xGj
ĠyA vD
ĠyA wAwD
ĠyA xGjxE
ĠyA xFwF
ĠyA yDjxAj
ĠyA xBxE
ĠyA yCxF
ĠyAj wD
ĠyAj wCj
ĠyAj wC
ĠyAj xA
ĠyAj vDj
ĠyAj wAjwDj
ĠyAj xBxE
ĠyAj yCxF
ĠyAj yCjxFj
ĠyAj xAxF
ĠxAxE wGj
ĠxAxE xE
ĠxAxE vGj
ĠxAxE vF
ĠxAxE vE
ĠxAxE wDvA
ĠxAxE wAjwC
ĠxAxE wAjwFjvB
ĠvFj vDj
ĠvFj vDjuAj
ĠxAjxF wA
ĠxAjxF vA
ĠxAjxF xF
ĠxAjxF vFj
ĠxAjxF vF
ĠxAjxF wDjvAj
ĠxAjxF wBwCj
ĠxAjxF wBwGwC
ĠxBxFj wAj
ĠxBxFj vAj
ĠxBxFj xFj
ĠxBxFj vG
ĠxBxFj vFj
ĠxBxFj wEvB
ĠvF vD
ĠvF vDuA
ĠxCjwGj wD
ĠxCjwGj vD
ĠxCjwGj vC
ĠxCjwGj uB
ĠxCjwGj wFwC
ĠxCjwGj wGjwDj
ĠxCjwGj wFjvGj
ĠxCwG wCj
ĠxCwG uB
ĠxCwG uAj
ĠxCwG wEvB
ĠxCwG wGwD
ĠxCwG wFvG
ĠxFjxD wC
ĠxFjxD vBvFj
ĠxFjxD wGvG
ĠxFjxD wGjvAj
ĠxFjxD wGvA
ĠxFjxD wFjwDvA
ĠxFjxD wGwEwC
ĠxFjxD wCvD
ĠxGxDj wCj
ĠxGxDj wCvG
ĠxGxDj wGjvGj
ĠxGxDj wGjvAj
ĠxGxDj wAvB
ĠxGxDj wGwDjvAj
ĠxGxDj wGjwFwCj
ĠxGxDj wCjvDj
ĠxGxDj wBwDj
ĠxGxDj xDwGwDvG
ĠxGxDj xDwDj
ĠxFxCj vB
ĠxFxCj vAjvF
ĠxFxCj wGvA
ĠxFxCj wFjvGj
ĠxFxCj wFwCjvGj
ĠxFxCj vBvCj
ĠxExC vAj
ĠxExC vAvE
ĠxExC wFjvGj
ĠxExC wFvG
ĠxExC wEwCvG
ĠxExC vAjvC
ĠxExC wBwEvBvE
ĠxExC wBwC
ĠxGjxE wD
ĠxGjxE wAvA
ĠxGjxE wCjvGj
ĠxGjxE wAvB
ĠxGjxE wDvE
ĠxGjxE xCwE
ĠxGjxE xDjwGjwDjvGj
ĠxGjxE xDjwE
ĠyB wD
ĠyB wDj
ĠyB wCj
ĠyB xF
ĠyB vE
ĠyB wBwE
ĠyB yCjxFj
ĠvE vCj
ĠvE uB
ĠwBwFj wC
ĠwBwFj uA
ĠwBwFj wFjwCj
ĠwBwFj wEvB
ĠwBwFj wEvBvE
ĠwAjwF vB
ĠwAjwF wFwC
ĠwAjwF uGj
ĠwAjwF wDjvAj
ĠwAjwF wDjvAjvDj
ĠwAwE vAj
ĠwAwE uB
ĠwAwE uG
ĠwAwE wDvA
ĠwAwE wEvB
ĠwAwE wDvAvD
yC wD
yC xC
yC xD
yC xA
ĠyCxG vGj
ĠyCxG vG
ĠyCxG wFwC
ĠyCxG xCwF
ĠyCxG xDwD
ĠyCxG wEwCvG
ĠyCjxGj vA
ĠyCjxGj vGj
ĠyCjxGj wFjwCj
ĠyCjxGj xCjwFj
ĠyCjxGj xDjwDj
ĠyCjxGj wFwCjvGj
yCj wDj
yCj xCj
yCj xDj
ĠxAxF wE
ĠxAxF wDj
ĠxAxF vE
ĠxAxF wDvA
ĠxAxF wDjvF
ĠxAxF wAjvAj
ĠxAxF xCjwF
ĠxAxF xEwAwEvA
ĠxAjxFj wE
ĠxAjxFj wF
ĠxAjxFj vF
ĠxAjxFj wDjvAj
ĠxAjxFj wBvB
ĠxAjxFj wEvFj
ĠxAjxFj xDwFj
ĠxAjxFj xFwAjwFvAj
ĠxFjxDj vDj
ĠxFjxDj wFjvB
ĠxFjxDj wAjwFj
ĠxFjxDj wEvB
ĠxFjxDj wCjvGj
ĠxFxD vD
ĠxFxD wFvAj
ĠxFxD wAwF
ĠxFxD wDjvAj
ĠxFxD wCvG
ĠxFxD wGjvB
ĠxGxC wDj
ĠxGxC vE
ĠxGxC wGjwCj
ĠxGxC wGjwDjvGj
ĠxGxC wDjvAj
ĠxGxC wAjwC
ĠxGxC wAjvAj
ĠxGjxCj wE
ĠxGjxCj vF
ĠxGjxCj wAwD
ĠxGjxCj wEvB
ĠxGjxCj wBvB
ĠxGjxCj wBwCj
ĠxDjwB vA
ĠxDjwB wFwCj
ĠxDjwB wEvBvE
ĠxDjwB wFvG
ĠxDjwB wEvFj
ĠxDjwB wDjvBvFj
ĠxDjwB wGwCj
ĠxDjwB vAuB
ĠxDjwB wAjvB
ĠxExCj vCj
ĠxExCj wEvA
ĠxExCj wGjwE
ĠxExCj vBvFj
ĠxExCj wDvA
ĠxDwAj vGj
ĠxDwAj wEwC
ĠxDwAj wDjvAjvDj
ĠxDwAj wDjvF
ĠxDwAj wEvFj
ĠxDwAj wDvAjvF
ĠxDwAj wFjwC
ĠxDwAj vGjuAj
ĠxDwAj wAvAj
ĠxCjwA vG
ĠxCjwA wDjvB
ĠxCjwA wDvAvD
ĠxCjwA wDjvF
ĠxCjwA wDvE
ĠxCjwA wCjvAvE
ĠxCjwA wFvB
ĠxCjwA vGuA
ĠxCjwA wGjvA
ĠxCwGj vFj
ĠxCwGj wDvAj
ĠxCwGj wCjvGjvCj
ĠxCwGj wDvE
ĠxCwGj wCvGjvDj
ĠxCwGj vFjuGj
ĠxCwGj wGvGj
ĠxDjxC vC
ĠxDjxC wDjvGj
ĠxDjxC wGwDj
ĠxDjxC vAjvF
ĠxDjxC wCjvGj
ĠxFwAj wCj
ĠxFwAj vD
ĠxFwAj wFjvB
ĠxFwAj wFwCj
ĠxFwAj wFjwCjvFj
ĠxFwAj wCjvGj
ĠxFwAj wGjvGj
ĠxFwAj wGjvAj
ĠxEwA wDj
ĠxEwA wC
ĠxEwA vCj
ĠxEwA wFvAj
ĠxEwA wEwC
ĠxEwA wFwCvF
ĠxEwA wCvG
ĠxEwA wGvG
ĠxEwA wGvA
ĠxFjwB wD
ĠxFjwB vDj
ĠxFjwB wGwC
ĠxFjwB wFjwD
ĠxFjwB wAvA
ĠxFjwB wDvA
ĠxFjwB wGwDvG
ĠxFjwB wAvB
ĠxDwB uB
ĠxDwB wDvG
ĠxDwB wFjwD
ĠxDwB vAvE
ĠxDwB wCvG
ĠxAxD wAjwDj
ĠxAxD wFwC
ĠxAxD xCwF
ĠxAxD xCwC
ĠxAjxDj wFjwCj
ĠxAjxDj wBwE
ĠxAjxDj xCjwFj
ĠxAjxDj xCjwCj
ĠwBwG vF
ĠwBwG vDj
ĠwBwG wCjvA
ĠwBwG wCvGvC
ĠwBwG vBvGvD
ĠwBwG vFuG
ĠwBwG wFjvG
ĠxBxE vC
ĠxBxE xCwF
ĠxBxE xDwD
ĠxBxE wGwD
ĠxBxE wAwFj
ĠxDjwGj wD
ĠxDjwGj vC
ĠxDjwGj wFjvB
ĠxDjwGj wDjvB
ĠxDjwGj wEvBvE
ĠxDjwGj wFjvGj
ĠxDjwGj wEvFj
ĠxDwG wCj
ĠxDwG uB
ĠxDwG wFvAj
ĠxDwG wDvAj
ĠxDwG wDjvAjvDj
ĠxDwG wFvG
ĠxDwG wDjvF
ĠxEwE vFj
ĠxEwE vF
ĠxEwE vE
ĠxEwE vD
ĠxEwE uB
ĠxEwE vBvE
ĠxEwE wCjvGj
ĠxEwE vAvF
ĠxFwF vG
ĠxFwF vFj
ĠxFwF vDj
ĠxFwF vC
ĠxFwF wDvA
ĠxFwF vAjvFj
ĠxFjwFj vGj
ĠxFjwFj vG
ĠxFjwFj vE
ĠxFjwFj vCj
ĠxFjwFj vBvG
ĠxFjwFj wDjvAj
ĠxFjwFj wDuB
ĠxFjwFj wDvAvG
ĠxGjxF vF
ĠxGjxF wGjwCj
ĠxGjxF wFjwCj
ĠxGjxF xCjwFj
ĠxGjxF wDjvAj
ĠxGxE vE
ĠxGxE wGwC
ĠxGxE wFwC
ĠxGxE xCwF
ĠxGxE wBwG
ĠxGxE wDvA
ĠxCjwAj wG
ĠxCjwAj uAj
ĠxCjwAj wCjvFj
ĠxCjwAj wEwCjvFj
ĠxCjwAj wGwCj
ĠxAxFj vFj
ĠxAxFj wEvB
ĠxAxFj wGwD
ĠxAjxG vG
ĠxAjxG wFwC
ĠxAjxG xDwAj
ĠxAjxG wGjwDj
ĠxCwA wFj
ĠxCwA uA
ĠxCwA wCvF
ĠxCwA wDjwCvF
ĠxCwA wFjwC
ĠwGjwDj vFj
ĠwGjwDj uB
ĠwGjwDj uAj
ĠwGjwDj wDjvAj
ĠwGjwDj wCjvGjvCj
ĠwGwD vF
ĠwGwD uAj
ĠwGwD uA
ĠwGwD vAvD
ĠwGwD wDvA
ĠwGwD wCvGvC
ĠxBxGj xF
ĠxBxGj xFj
ĠxBxGj vGj
ĠxBxGj wFjwCj
ĠxBxGj xDjwB
ĠxBxGj wAwE
ĠxBxGj xFjxFj
ĠyDxA vAj
ĠyDxA xGxC
ĠyDxA wGwD
ĠyDxA xEwE
ĠyDxA wFjwDvA
ĠyDjxAj vB
ĠyDjxAj xFwF
ĠyDjxAj wGjwDj
ĠyDjxAj xGjxCj
ĠyDjxAj xFxC
ĠyDjxAj wGwDjvAj
ĠyCxF vCj
ĠyCxF xCjwFj
ĠyCxF xDjwDj
ĠyCxF wGjwDj
ĠyCjxFj vD
ĠyCjxFj xDwG
ĠyCjxFj wAwE
ĠyCjxFj xEwA
ĠyCjxFj xEwE
ĠyCjxFj xDwAwD
ĠxDjwDj vF
ĠxDjwDj vCj
ĠxDjwDj uAj
ĠxDjwDj vAjvDj
ĠxDjwDj wCvG
ĠxDjwDj vAjvG
ĠxDwD vE
ĠxDwD vC
ĠxDwD uA
ĠxDwD vAvD
ĠxDwD vBvFj
ĠxDwD vAvFj
ĠxGwG vGj
ĠxGwG vE
ĠxGwG vD
ĠxGwG wCvGj
ĠxGwG wEvB
ĠxGwG wCvG
ĠxGwG wDvB
ĠxGwG wEwCvG
ĠxGwG wDjvC
ĠxGjwGj vA
ĠxGjwGj vF
ĠxGjwGj vDj
ĠxGjwGj wFwC
ĠxGjwGj wCjvA
ĠxGjwGj wCjvGj
ĠxGjwGj wDjwC
ĠxGjwGj wFwCjvGj
ĠxGjwGj wEvCj
ĠzC wD
ĠzC wDj
ĠzC vF
ĠzC xB
ĠzC xCwF
yD wF
ĠxCjwCj vDj
ĠxCjwCj uGj
ĠxCjwCj vGjvCj
ĠxCjwCj vAjvF
ĠxCjwCj vGjvF
ĠzCj wE
ĠzCj wDj
ĠzCj vFj
ĠzCj yC
ĠzCj xCjwFj
ĠzCj yCjxAj
ĠxCwC vD
ĠxCwC vGvC
ĠxCwC uG
ĠxCwC vAvE
ĠxCwC vGvE
yDj wFj
ĠxBxG wFj
ĠxBxG wDj
ĠxBxG vFj
ĠxBxG wEwC
ĠxBxG wEvB
ĠxBxG xCwC
ĠxBxG xCwG
ĠxBxG xFjwBwFjvB
ĠvDj vC
ĠvDj uAj
ĠvD uB
ĠvD uA
ĠyCxGj wG
ĠyCxGj vG
ĠyCxGj wFwC
ĠyCxGj wFwCj
ĠyCxGj xCjwCj
ĠyCxGj xCjwGj
ĠyCxGj xGxCwGwC
ĠyCjxA wGj
ĠyCjxA vGj
ĠyCjxA wFjwCj
ĠyCjxA wFjwD
ĠyCjxA xDwD
ĠyCjxA xDwA
ĠyCjxA xGjxCjwGjwCj
ĠxAwA wC
ĠxAwA vAj
ĠxAwA vFj
ĠxAwA vE
ĠxAwA wFjwCj
ĠxAwA wFwC
ĠxAwA wFvG
ĠxAwA wEwCj
ĠxAwA wFjwDvA
ĠxAwA wFwCvAj
ĠxAjwAj wCj
ĠxAjwAj vB
ĠxAjwAj vG
ĠxAjwAj vF
ĠxAjwAj wFjwCj
ĠxAjwAj wGwD
ĠxAjwAj wFjvGj
ĠxAjwAj wFwD
ĠxAjwAj wGwDjvAj
ĠxAjwAj wFjwCjvB
ĠyDxAj vA
ĠyDxAj wGwDj
ĠyDxAj xDjwDj
ĠyDxAj wGwD
ĠyDxAj xDjwAj
ĠyDxAj xAxDwAwD
ĠyDjxB vAj
ĠyDjxB wGjwE
ĠyDjxB wGjwDj
ĠyDjxB xEwE
ĠyDjxB xEwB
ĠyDjxB xAjxDjwAjwDj
ĠxBwB wD
ĠxBwB wC
ĠxBwB vGj
ĠxBwB vFj
ĠxBwB wFwC
ĠxBwB wEwC
ĠxBwB wGjwDj
ĠxBwB wEvB
ĠxBwB wGwD
ĠxBwB wGvA
ĠxBwB wFjwDj
ĠxBwB wGjwEvB
ĠxBwB wGwDwC
wFjwCj vGj
wFjwCj wCjvGj
wFwC vG
wFwC wCvG
ĠxGwC vA
ĠxGwC vC
ĠxGjwCj vAj
ĠxGjwCj vCj
ĠxFjvB vGj
ĠxFvAj vG
ĠxEvA vFj
ĠxAwD vB
ĠxAwD vD
ĠxAjwDj wC
ĠxAjwDj vDj
ĠwBvB vGj
ĠwBvB vGjvE
ĠxBwE wCj
ĠxBwE vE
ĠwFjwCj uA
ĠwFjwCj uGj
ĠwFjwCj vGjvCj
ĠwFjwCj wCjvGj
ĠwFwC uGj
ĠwFwC vGvC
ĠwFwC uG
ĠwFwC wCvG
ĠxCjwFj wE
ĠxCjwFj wC
ĠxCjwFj vE
ĠxCjwFj wEvA
ĠxCjwFj wDvAvD
ĠxCwF wDj
ĠxCwF vB
ĠxCwF vDj
ĠxCwF wDjvGj
ĠxCwF wCjvGjvCj
ĠzD wE
ĠzD wF
ĠzD wD
ĠzD vG
ĠzD yCj
ĠzD xDwG
ĠzD yB
ĠzD zC
ĠzD xBxG
ĠxDjvGj vF
ĠxDjvGj vDj
ĠzDj wFj
ĠzDj wF
ĠzDj wDj
ĠzDj xF
ĠzDj vGj
ĠzDj xDjwGj
ĠzDj zC
ĠzDj zCj
ĠzDj yCxGj
ĠxDvG vE
ĠxDvG vD
ĠwBwE wD
ĠwBwE vAj
ĠwBwE vD
ĠwBwE vCj
ĠwBwE wDvG
ĠwBwE vBvG
ĠwBwE vBvFj
ĠwBwE wCvGvC
ĠxCjwGjwCj wCjvEuA
ĠxCwGwC wCvDjuGj
ĠvCj uAj
ĠyCxC wG
ĠyCxC wD
ĠyCxC wCj
ĠyCxC wGwC
ĠyCxC wFjwCj
ĠyCxC wFwC
ĠyCxC wGjwDj
ĠyCxC wGjvAj
ĠyCxC wGjwDjwCj
ĠwAjwFj uGj
ĠwAjwFj wCvGj
ĠwAjwFj wDvGj
ĠwAjwFj vAjvFjvCj
ĠwAjwFj wFvFj
ĠwAwF uG
ĠwAwF vBvG
ĠwAwF vAvFvC
ĠwAwF wEvF
ĠyCjxCj wGj
ĠyCjxCj wD
ĠyCjxCj wDj
ĠyCjxCj wGjwCj
ĠyCjxCj wFjwCj
ĠyCjxCj wAwE
ĠyCjxCj wGwD
ĠyCjxCj wAvB
ĠyCjxCj wAwEwD
yE xA
ĠvC uA
wGjwE wCj
ĠyDxG vB
ĠyDxG vDj
ĠyDxG wDvG
ĠyDxG xDjwGj
ĠyDxG xDjwAjwDj
ĠyDxG wAjwF
ĠyDjxGj wC
ĠyDjxGj vE
ĠyDjxGj wDjvGj
ĠyDjxGj xEwA
ĠyDjxGj wBwFj
ĠxDwAwD vB
ĠxDwAwD wDvFuAj
ĠyCwF wD
ĠyCwF vF
ĠyCjwFj wDj
ĠyCjwFj vFj
ĠxDjwAjwDj wC
ĠxDjwAjwDj wDjvFjuB
xDjwB wGj
xDwAj wG
wGwDj wC
ĠwAjwFvAj vAjvCjuFj
ĠwBwFjvB vBvDuG
ĠxFjwA vAj
ĠxFjwA vGj
ĠxFjwA vG
ĠxFjwA wGvA
ĠxFjwA wAvG
ĠxFjwA wEvFj
ĠxFjwA wAvD
wFjwD vB
ĠwAwEvA vAvCuF
ĠxFwGj vA
ĠxFwGj vG
ĠxFwGj vFj
ĠxFwGj wFjvGj
ĠxFwGj wDjvF
ĠxFwGj wGjvFj
ĠxFwGj wGjvCj
ĠxAwF vF
ĠxAjwFj vFj
ĠxGwE wCvG
ĠxEwG vGj
ĠxEwG vFj
ĠxEwG vF
ĠxEwG wFvG
ĠxEwG wDvE
ĠxEwG wGvF
ĠxEwG wGvC
ĠxGwAj vA
ĠxGwAj vGj
ĠxGwAj wGjvAj
ĠxGwAj wFvG
ĠxGwAj wAjvGj
ĠxGwAj wAjvDj
ĠxGjwF wCjvGj
ĠxEwBwE wCj
ĠxEwBwE vE
ĠxEwBwE wEvGvC
ĠyCxA wB
ĠyCxA wFj
ĠyCxA xFj
ĠyCxA xG
ĠyCxA wGwD
ĠyCxA wAjwF
ĠyExB wFj
ĠyExB xEwE
ĠyExB xFjwFj
ĠyExB xFjxCj
ĠyExB xAxD
ĠyExB wGjwEvB
ĠyExB xCwE
ĠyExB xAwB
ĠyExB xFxCjwFj
ĠyExB xAwE
ĠxGjwB vAj
ĠxGjwB vA
ĠxGjwB wFjvGj
ĠxGjwB wAvB
ĠxGjwB wBvA
ĠxGjwB wBvE
ĠxGjxC wFj
ĠxGjxC xC
ĠxGjxC vAj
ĠxGjxC wFjvB
ĠxGjxC wCvF
ĠxAxCj wG
ĠxAxCj xCj
ĠxAxCj vB
ĠxAxCj wGwC
ĠxAxCj wCjvFj
ĠyCjxAj wG
ĠyCjxAj xC
ĠyCjxAj xG
ĠyCjxAj xGj
ĠyCjxAj wGjwDj
ĠyCjxAj wBwFj
ĠwAjwDj vA
ĠwAjwDj vC
ĠwAjwDj vAjvF
ĠwAjwDj wCjvFj
ĠwAjwDj vAjvFj
ĠwAjwDj vBvFjuB
ĠyCjxGjxE wAj
ĠxGwB wB
ĠxGwB wF
ĠxGwB vA
ĠxGwB wFvAj
ĠxGwB vBvE
ĠwAwD vGj
ĠwAwD uB
ĠwAwD vAvE
ĠwAwD wCvF
ĠwAwD vAvF
ĠwAwD vAjvFuAj
wEwC vA
wFwCj vAj
ĠxAxExC wFj
ĠxAjxFxCj wG
ĠxGjxDjwB wF
ĠxGjxDjwB wCj
ĠxGjxDjwB wFjvGj
ĠxGjxDjwB wAjwCjvGj
ĠxGxDwAj wE
ĠxGxDwAj wC
ĠxGxDwAj wFvG
ĠxGxDwAj wAwCvG
ĠxBxFjxD wGj
ĠyCxGxDj wA
ĠxFxCwGj wD
ĠxFxCwGj vAj
ĠxFxCwGj wGvAjvF
ĠxFjxCjwA wDj
ĠxFjxCjwA vB
ĠxFjxCjwA wGjvBvFj
ĠxEwBwG vA
ĠxEwBwG wFjvAvE
yF yDxG
ĠxAwE vB
yFj yDjxGj
ĠxAjwF wDvGj
ĠxAxC vB
ĠxAxC vAj
ĠxAxC wEvA
ĠxAxC wCvF
ĠxAxC vFvC
ĠxAxC wGvA
ĠxAxC wAjwC
ĠxAxC xCvAj
ĠxAxC wBwEvA
ĠxAxC xCvF
ĠxAjxCj wC
ĠxAjxCj vB
ĠxAjxCj wFvAj
ĠxAjxCj wCjvFj
ĠxAjxCj vFjvCj
ĠxAjxCj wGjvAj
ĠxAjxCj wBwCj
ĠxAjxCj xCjvB
ĠxAjxCj xCwFvAj
ĠxAjxCj xCjvFj
ĠwGjwCj vG
ĠwGjwCj vAjvFj
ĠwGjwCj vAvEuA
ĠwGjwCj vGjvDj
ĠwGwC vFj
ĠwGwC vAvF
ĠwGwC vGvD
ĠwBwGj wF
ĠwBwGj vBvE
ĠwBwGj wDvBvE
ĠwBwGj wFvB
wAwF wD
wAjwFj wDj
ĠwGjvGj vE
ĠxDjvAj vG
ĠxDjvAj vDj
ĠxDvA vFj
ĠxDvA vD
ĠyDxD wE
ĠyDxD wA
ĠyDxD wDj
ĠyDxD wAwD
ĠyDxD wGwDj
ĠyDxD wGjwDj
ĠyDxD wBwGwD
ĠyDjxDj wE
ĠyDjxDj wAj
ĠyDjxDj wF
ĠyDjxDj wAjwDj
ĠyDjxDj wGjwE
ĠyDjxDj wAwE
ĠxFjxDwA wCj
ĠxFjxDwA vBvFj
ĠxFjxDwA wEvB
ĠxGxDjwAj wD
ĠxGxDjwAj wFwC
ĠxGxDjwAj wCvG
ĠxGjxEwB wDj
ĠxGjxEwB wFjwCj
ĠxGjxEwB wCjvGj
ĠxFxCjwGj wC
ĠxFxCjwGj vAjvF
ĠxFxCjwGj wDjvAj
ĠxExCwG vB
ĠxExCwG vAvE
ĠxExCwG wDvA
ĠxEwD vA
ĠxEwD vAuB
ĠxDjwFj vG
ĠxDjwFj vF
ĠxDjwFj wEvFj
ĠxDjwFj wFjvE
ĠxDwF vFj
ĠxDwF vE
ĠxDwF wDjvF
ĠxDwF wFvDj
ĠxFwDj vAj
ĠxFwDj vAjvC
ĠxFjwE vB
ĠxFjwE vBvCj
ĠyCjxE wD
ĠyCjxE xD
ĠyCjxE wGjwCj
ĠyCjxE wEvA
ĠyCjxE xCjwFj
ĠyCjxE vAvE
ĠyCjxE wAwFj
ĠyCjxE wBwCj
ĠyCjxE xEvA
ĠyCjxE xDjwGjwCj
ĠxCjvFj vCj
ĠxFxCwF wD
ĠxFxCwF vF
ĠxFxCwF wFvGjvCj
ĠxFjxCjwFj wDj
ĠxFjxCjwFj vFj
ĠxFjxCjwFj wFjvAvD
ĠxBwG wD
ĠxBwG wGwE
ĠxCvF vC
ĠyCwGj wDj
ĠyCwGj wGjwF
ĠxBxD xC
ĠxBxD wCj
ĠxBxD wC
ĠxBxD wFjvB
ĠxBxD wBwE
ĠxBxD wDvG
ĠxBxD vGvD
ĠxBxD wAvB
ĠxBxD xDvG
ĠxBxD xCjwFjvB
ĠwAjwG vAjvDj
ĠwGjwE vGj
ĠwGjwE vBvFj
ĠwGjwE wCjvGjvCj
ĠwGjwE vGjvEuB
ĠwFwCj vAjvFuAj
ĠwFwCj vGjvDj
ĠwFwCj vFjvCjuFj
ĠwEwC vAvEuA
ĠwEwC vGvD
ĠwEwC vFvCuF
ĠwGwDj vAjvF
ĠwGwDj wCvGvC
ĠyCjwA wE
ĠyCjwA wAwFj
ĠwFjwD vAvE
ĠwFjwD vBvFjuB
ĠyCxDj wD
ĠyCxDj xCj
ĠyCxDj wCj
ĠyCxDj wGwC
ĠyCxDj xCwF
ĠyCxDj wDjvGj
ĠyCxDj vGjvDj
ĠyCxDj wAjwC
ĠyCxDj xDjvGj
ĠyCxDj xDwGwC
ĠyExA wCj
ĠyExA vF
ĠyExA wEvA
ĠxDjwCj vGj
ĠxDjwCj vGjuAj
ĠxDwC vG
ĠxDwC vGuA
ĠyFjxB wDj
ĠyFjxB vG
ĠyFjxB wFjvB
ĠyFjxB xDvG
ĠyDwAj wF
ĠyDwAj wAjwG
ĠyDjwB wFj
ĠyDjwB wBwGj
ĠyFxAj wD
ĠyFxAj vFj
ĠyFxAj wFvAj
ĠyDwG vG
ĠyDxAxF wE
ĠyDxAxF xDwD
ĠyDjxAjxFj wF
ĠyDjxAjxFj xDjwDj
ĠxAxFxC wE
ĠxAxFxC wFwC
ĠxAxFxC wDvA
ĠxAxFxC wGwD
ĠxAjxFjxCj wF
ĠxAjxFjxCj wFjwCj
ĠxAjxFjxCj wGjwDj
ĠxAjxFjxCj wDjvAj
ĠyDjwGj vGj
ĠxCjwE vAj
ĠxCjwE vF
ĠxCjwE vDj
ĠxCjwE wDvE
ĠxCjwE wEvD
ĠxCwDj vA
ĠxCwDj vE
ĠxCwDj wCjvDj
ĠxCwDj wDjvCj
ĠwBwD vGj
ĠwBwD vDj
ĠwBwD wCvD
ĠwBwD wDvC
ĠyFyC xFwF
ĠyFyC xCjwF
ĠyFyC xFjxDwG
ĠyFyC xGxE
ĠyFjyCj xFjwFj
ĠyFjyCj xBxE
ĠyFjyCj xDwFj
ĠyFjyCj xGxDjwGj
ĠyFjyCj xGjxF
ĠyFjyCj xBxCj
ĠwAwFj vAvD
ĠyDxF wB
ĠyDxF wDj
ĠyDxF xDj
ĠyDxF wAwD
ĠyDxF wFvAj
ĠyDxF xDwG
ĠyDxF vAjvF
ĠyDxF wAjwG
ĠyDxF xFvAj
ĠyDxF xEwAwD
ĠyDjxFj wE
ĠyDjxFj xC
ĠyDjxFj xE
ĠyDjxFj wAjwDj
ĠyDjxFj wFjvB
ĠyDjxFj xDjwGj
ĠyDjxFj vBvFj
ĠyDjxFj wBwGj
ĠyDjxFj xFjvB
ĠyDjxFj xFwAjwDj
ĠxCvAj vF
ĠxCvAj vFuG
ĠxCjvB vFj
ĠxCjvB vFjuGj
ĠxGjxDjwGj wDjwC
ĠxGjxDjwGj wGjvBvE
ĠxGxDwG wDvB
ĠxGxDwG wGvAjvDj
ĠyDxB wGj
ĠyDxB wA
ĠyDxB xCj
ĠyDxB xD
ĠyDxB xA
ĠwBvA vE
ĠxGjxDjxC wG
ĠxGjxDjxC vB
ĠxGjxDjxC vFj
ĠxGjxDjxC vF
ĠxGjxDjxC wGjvGj
ĠxGjxDjxC wFjwDj
ĠxGjxDjxC wFjvFj
wBwG wE
ĠyCwG wD
ĠyCjwGj wF
ĠyCjwGj wDj
ĠyCjwGj wFvB
ĠxAxExCj wGj
ĠxAxExCj wC
ĠxAxExCj vG
ĠxAxExCj vFj
ĠxAxExCj wAvA
ĠxAxExCj wGvG
ĠxAxExCj wGwE
ĠxFwG wD
ĠxFwG vE
ĠxFwG wFvAj
ĠxFwG vAjvF
ĠxAjxD wGj
ĠxAjxD wA
ĠxAjxD wC
ĠxAjxD xD
ĠxAjxD wGjwCj
ĠxAjxD wDvG
ĠxCjvGj vF
ĠxCjvGj vDj
ĠxCjvGj vCj
ĠxCvG vE
ĠxCvG vD
ĠxCvG vC
ĠxFjwGj wDj
ĠxFjwGj vF
ĠxFjwGj wFjvB
ĠxFjwGj vBvFj
ĠyCjxAxE wGj
ĠyCjxAxE wFjwCj
ĠyCjxAxE wAwE
ĠyCjxAxE xCjwCj
ĠxBxDj wA
ĠxBxDj wAj
ĠxBxDj wCj
ĠxBxDj xDj
ĠxBxDj wAwD
ĠxBxDj wDjvGj
ĠxFjwAj vB
ĠxFjwAj wEvA
ĠxFjwAj wFjwCjvFj
ĠzE wE
ĠzE wFj
ĠzE vA
ĠzE xG
ĠzE yG
ĠzE xEwA
ĠzE zCj
ĠzE yCjxA
yG yExA
ĠyDjyC wA
ĠyDjyC wAj
ĠyDjyC xD
ĠyDjyC xDj
ĠyDjyC xAj
ĠyExE wB
ĠyExE wFj
ĠyExE wC
ĠyExE vA
ĠyExE wBwE
ĠyExE xCwF
ĠyExE wAwE
ĠyExE wAjwF
ĠyDxAjxF wA
ĠyDxAjxF xDwD
ĠyDxAjxF wGwD
ĠyDjxBxFj wAj
ĠyDjxBxFj xDjwDj
ĠyDjxBxFj wGjwDj
ĠxFwA vAj
ĠxFwA wDjvGj
ĠxFwA wFwCvF
ĠxEwFj wEvA
ĠxEwFj vAvE
ĠxAjxC wG
ĠxAjxC wD
ĠxAjxC wCj
ĠxAjxC vA
ĠxAjxC vGj
ĠxAjxC vF
ĠxAjxC wAjwDj
ĠxAjxC wDjvAj
ĠxAjxC vFvC
ĠxAjxC wGjwF
ĠxAwG vF
ĠxAwG wDvE
ĠxAjwGj vFj
ĠxAjwGj wDjvF
ĠxDjwF wDjvGj
ĠxDjwF vGjvDj
ĠxDwE wDvG
ĠxDwE vGvD
ĠyEyCj wB
ĠyEyCj wAj
ĠyEyCj xDj
ĠyEyCj xE
ĠyEyCj xB
ĠxFjxDjwB vCj
ĠxEwGj vA
ĠxEwGj wDvG
ĠwFjvB vF
ĠxFxDwAj vC
ĠxGxDjxC wAj
ĠxGxDjxC wDj
ĠxGxDjxC vA
ĠxGxDjxC vG
ĠxGxDjxC wGvG
ĠxGjxExCj wB
ĠxGjxExCj wE
ĠxGjxExCj vAj
ĠxGjxExCj vGj
ĠxGjxExCj wGjvGj
ĠwAjwCj vGj
ĠwAjwCj vG
ĠwAjwCj vD
ĠwAwC vG
ĠwAwC vFj
ĠwAwC vCj
ĠwFvAj vE
ĠwFvAj vFjvCjuFj
ĠyFxA wG
ĠyFxA xDj
ĠyFxA xA
ĠyFxA wAwD
ĠyFjxAj wGj
ĠyFjxAj xE
ĠyFjxAj xAj
ĠyFjxAj wAjwDj
ĠxBxCj wGj
ĠxBxCj wD
ĠxBxCj wDj
ĠxBxCj vB
ĠxBxCj vAj
ĠxBxCj vA
ĠxBxCj vFj
ĠxBxCj wBwE
ĠxBxCj wEvB
ĠxBxCj vFjvCj
ĠxBxCj wAwFj
ĠxGjwAj wF
ĠxGjwAj wC
ĠxGjwAj vG
ĠxGjwAj vFj
ĠxGjwAj vDj
ĠxGjwAj wGjwCj
ĠxGjwAj wCjvGj
ĠxGjwAj wGjwFj
ĠxGjwAj vDjuAj
ĠwEvA vFvCuF
ĠxDjwG vGj
ĠxBxGxD wFj
ĠxBxGxD wEvB
ĠxBxGxD wBvB
ĠxBxGxD wAwEvB
ĠxGwA wE
ĠxGwA vB
ĠxGwA vFj
ĠxGwA vF
ĠxGwA vD
ĠxGwA wGwC
ĠxGwA wCvG
ĠxGwA wGwF
ĠxGwA vDuA
ĠwFjvFj vCj
ĠwFvF vC
ĠxGvAj vE
yGj yFxAj
ĠxFjvA vDj
ĠxGjvB vF
ĠxFvGj vD
ĠxFjxDwB wA
ĠxFjxDwB wD
ĠxFjxDwB vGj
ĠxFjxDwB vFj
ĠyCxGjxDj wG
ĠyCxGjxDj wFwC
ĠyCxGjxDj xCwC
ĠxDwFj vG
ĠxDjxCwGj uAj
ĠwEvB vDj
ĠwEvB vBvFj
ĠxDwBwG uA
ĠxCwE vF
ĠxCwE vC
ĠxCwE uG
ĠyFxF wG
ĠyFxF wA
ĠyFxF xC
ĠyFxF wCj
ĠyFxF vAj
ĠyFxF xCjwFj
ĠyFxF wBwFj
ĠyFxF wAjwF
ĠyFxF xDwAjwF
ĠyFjxFj wGj
ĠyFjxFj wAj
ĠyFjxFj wD
ĠyFjxFj xCj
ĠyFjxFj vB
ĠyFjxFj xDwG
ĠyFjxFj wBwFj
ĠyFjxFj xDjwBwFj
ĠyFjxFj xCwG
ĠxCjwF vFj
ĠxCjwF vCj
ĠxCjwF uGj
ĠxAwB wFj
ĠxAwB wCj
ĠxAwB vGj
ĠxAwB vG
ĠxAwB wAwD
ĠxAwB wDvA
ĠwBvE uB
ĠxFjxCjwAj wF
ĠxFjxCjwAj vA
ĠxFjxCjwAj vE
ĠxFjxCjwAj vDj
ĠxFjxCjwAj wEwCj
ĠxFjxCjwAj wEwCjvFj
ĠxFxCjwAj wGj
ĠxFxCjwAj wCj
ĠxFxCjwAj vG
ĠxFxCjwAj vF
ĠxCwD wCvF
ĠxCjwDj wCjvFj
ĠxAwC vA
ĠxAwC vFj
ĠxAjwCj vAj
ĠxAjwCj vG
ĠyCwA wFwCwCvG
ĠyCjwAj wFjwCjwCjvGj
ĠxBxGjxE wA
ĠxBxGjxE vE
ĠxBxGjxE wAwE
ĠxDjxCj wA
ĠxDjxCj wF
ĠxDjxCj vG
ĠxDjxCj wDjvAjvDj
ĠxDjxCj wGvA
ĠxDjxCj wAwEvA
ĠxDjxCj wGwDjvAj
ĠxDjxCj wAjvG
ĠxDjxCj wGjvDj
ĠxDjxCj wGjwDjwCj
ĠxDjxCj wFjwCjvGj
ĠxDxC wGj
ĠxDxC wE
ĠxDxC vFj
ĠxDxC wGjwDjvGj
ĠxDxC wDvAvD
ĠxDxC wFjvGj
ĠxDxC wFjwDvA
ĠxDxC wAvFj
ĠxDxC wGvD
ĠxDxC wGwDwC
ĠxDxC wFwCvG
ĠxCjwAwE vBvFj
ĠxFjxE wGj
ĠxFjxE wG
ĠxFjxE vAj
ĠxFjxE wFjwCjvFj
ĠxFjxE wAvA
ĠxFjxE wBwFj
ĠxFjxE wAjwC
ĠxFjxE wAwEwD
ĠxFjxE wBwFjwE
ĠxFjxE wAwEvB
ĠxFxCwA wE
ĠxFxCwA vGj
ĠxFxCwA vDj
ĠxFxCwA vD
ĠxFxCwA wDjwC
ĠxFxCwA wDjwCvF
ĠxCwGjwDj vAjvF
ĠxGjxFxCj vDj
ĠxGjxFxCj vCj
ĠxGjxFxCj wFjwCj
ĠxGxExC vD
ĠxGxExC vC
ĠxGxExC wFwC
ĠwDjvAj vD
ĠwDjvAj vAjvF
ĠwDvA vCj
ĠwDvA vAvE
ĠxAjxDwAj wC
ĠxBxDjwB wCj
ĠyCxE wAj
ĠyCxE wD
ĠyCxE xE
ĠyCxE vG
ĠyCxE wAjwDj
ĠyCxE wEvA
ĠwBwGwD vAvE
ĠwAjvGj vDj
ĠwAvG vD
ĠxGjxCwGj vAj
ĠxGxDwB wFj
ĠxGxDwB vAj
ĠxGxDwB vF
ĠxGxDwB vE
ĠxGxDwB wFwD
ĠxGxDwB wFvF
ĠxGwBwG vA
ĠxGjxFj wA
ĠxGjxFj wAj
ĠxGjxFj wC
ĠxGjxFj wGjwDjvGj
ĠxGjxFj xCwGj
ĠxGjxFj wBvB
ĠxGjxFj xDjwC
ĠxGjxFj wBwFjwE
ĠxGjxFj xDjwGjwDjvGj
ĠxBwD vB
ĠxBwD vGj
ĠxCwAj wD
ĠxCwAj vE
ĠxCwAj wAwD
ĠxCwAj wFjwCjvFj
ĠxCwAj wEvFj
ĠxCwAj wEwCvG
ĠxCwAj wGvE
ĠxAjxFxD wA
ĠxAjxFxD wCj
ĠxAjxFxD vGj
ĠxAjxFxD vG
ĠxAjxFxD wGjvGj
ĠxAjxFxD wGjwF
ĠxBxFjxDj wAj
ĠxBxFjxDj wD
ĠxBxFjxDj vA
ĠxBxFjxDj vGj
ĠxBxFjxDj wAvA
ĠxBxFjxDj wAwFj
ĠxFjxC wC
ĠxFjxC vDj
ĠxFjxC vCj
ĠxFjxC wGjwDj
ĠxFjxC wGjwDjvGj
ĠxFjxC vGjvDj
ĠxFjxC wGvA
ĠyDxFj wE
ĠyDxFj xC
ĠyDxFj xFj
ĠyDxFj wFjvB
ĠyDxFj xCwF
ĠxBxGxE wG
ĠxBxGxE vG
ĠyCjxAxFj wA
ĠyCjxAxFj vA
ĠyCwDj wC
ĠyCwDj vA
ĠyCjwE wCj
ĠyCjwE vAj
ĠxGxCj wCj
ĠxGxCj vAj
ĠxGxCj vE
ĠxGxCj vD
ĠxGxCj wAwE
ĠxGxCj vAvE
ĠxGxCj wGjvAj
ĠxGxCj wAwEvA
wAwE vBvE
wAwE wEvB
ĠyDxAjxG wAj
ĠyDxAjxG vAj
ĠyDjxBxGj wB
ĠyDjxBxGj vB
ĠxCjwB wDj
ĠxCjwB vF
ĠxCjwB wAjwDj
ĠxCjwB wFvG
ĠxCjwB wFwCjvGj
ĠxCjwB wGjvF
ĠxExD wFj
ĠxExD wF
ĠxExD vGj
ĠxExD wAwE
ĠxExD wEvBvE
ĠxExD wGjvAj
ĠxExD wBvGj
ĠxExD wAwEwD
ĠxExD wBwEvBvE
ĠxFxDj wG
ĠxFxDj wFj
ĠxFxDj vA
ĠxFxDj wFwCvF
ĠxFxDj wAjwF
ĠxFxDj wAvB
ĠxFxDj wAjwFwDj
ĠxGxCwG vDj
ĠxGxCwG vC
ĠxGxCwG wEvA
ĠxGxCwG wDvA
ĠxGjxCjwGj vE
ĠxGjxCjwGj vCj
ĠxGjxCjwGj wFvAj
ĠxGjxCjwGj wDjvAj
ĠyCjxF wB
ĠyCjxF wDj
ĠyCjxF xF
ĠyCjxF vGj
ĠyCjxF wFvAj
ĠyCjxF wBwE
ĠzF wG
ĠzF wF
ĠzF vAj
ĠzF xGj
ĠzF yGj
ĠzF xFwAj
ĠzF yDxAj
ĠzF zD
ĠxDwAwF wEvGvD
ĠxDjwAjwFj wFvGjvDj
ĠwEvE uB
ĠyDjxG wF
ĠyDjxG xCj
ĠyDjxG xG
ĠyDjxG wGwC
ĠyDjxG xCjwFj
ĠzFj wGj
ĠzFj wFj
ĠzFj vB
ĠzFj xA
ĠzFj yDjxB
ĠzFj xFjwB
ĠzFj yA
ĠzFj zDj
ĠxAjxDjwAj vFj
ĠxAjxDjwAj vDj
ĠxAjxDjwAj wGwC
ĠxAjxDjwAj wFwC
ĠxExCwA wG
ĠxExCwA wC
ĠxExCwA vFj
ĠxExCwA vE
ĠxBxEwB vG
ĠxBxEwB wGjwCj
ĠxBxEwB wFjwCj
ĠxAxFxD wF
ĠxAxFxD xC
ĠxAxFxD vB
ĠxAjxFjxDj wFj
ĠxAjxFjxDj xCj
ĠxAjxFjxDj wC
ĠyFwAj wF
ĠyFwAj vAj
ĠyExGj wFj
ĠyExGj xD
ĠyExGj xGj
ĠyExGj wGjwCj
ĠyFjwB wFj
ĠyFjwB vB
ĠxBwA wG
ĠxBwA vG
ĠyCxExC wD
ĠyCxExC wGvA
ĠyCjxFxCj wDj
ĠyCjxFxCj wGjvAj
ĠxExCjwA uB
ĠyDxFjxD wE
ĠyDxFjxD wAvB
ĠyDjxGxDj wF
ĠxEwAwE vC
ĠxEwAwE uA
ĠxEwAwE vBvFj
ĠxEwAwE wCjvFj
ĠxEwAwE wDvFj
ĠxGxF wGj
ĠxGxF wA
ĠxGxF vB
ĠxGxF wBwG
ĠxGxF wGwDvG
ĠxGxF xDvB
ĠxGxF xDwGwDvG
ĠxAxDwA vF
ĠxAxDwA vD
ĠxAxDwA wFjvB
ĠxDjwGjwDj uGj
ĠxDjwGjwDj vAjvF
ĠxDjwGjwDj wCvF
ĠxDwGwD vBvE
ĠxDwGwD uG
ĠxDwGwD vAvE
ĠyCwAj wGj
ĠyCwAj vGj
ĠyCjwB wA
ĠyCjwB vA
ĠwFjwDj vC
ĠwFwD uB
ĠwDjvGj uAj
ĠwDvG uA
ĠyExGjxE wFj
ĠxAjxE wE
ĠxAjxE wCj
ĠxAjxE vG
ĠxAjxE vF
ĠxAjxE wCvG
ĠxAjxE wBwCj
ĠyDwA wFj
ĠyDwA wFjwC
ĠyDjwAj wG
ĠyDjwAj wGwCj
ĠxFwAjwF vCj
ĠxFwAjwF uAj
ĠxFwAjwF wDvG
ĠxFwAjwF wDjvG
ĠxFjwBwFj vD
ĠxFjwBwFj uB
ĠxFjwBwFj wDjvGj
ĠxFjwBwFj wEvGj
ĠxAxDj wC
ĠxAxDj vFj
ĠxAxDj vE
ĠxAxDj vBvFj
ĠxAxDj wAjwC
ĠxAjxFwAj wFwD
ĠxBxFjwB wFjwDj
ĠxFwB vB
ĠxFwB vD
ĠxFwB vC
ĠxFwB vGvD
ĠxFwB wFjvGj
ĠxFwB wAwEvBvE
ĠwCjvGj vE
ĠwCjvGj vC
ĠwCjvGj uAj
ĠyGyC wE
ĠyGyC vGj
ĠyGyC wGwC
ĠyGyC xAxF
ĠyGyC xDjvGj
ĠyGjyCj wF
ĠyGjyCj vA
ĠyGjyCj wGjwCj
ĠyGjyCj xEvA
ĠxEwBwGj wDj
ĠxEwBwGj vD
ĠxEwBwGj wDvBvE
ĠwCvG vDj
ĠwCvG uB
ĠwCvG uA
ĠyExC wGwC
ĠyExC xCwA
ĠyFxCj wGjwCj
ĠyFxCj xCjwAj
ĠyDjxC wGjwDj
ĠyDjxC wGjwF
ĠyDjxC wGjvF
ĠyExCj wAwFj
ĠyExCj wAvFj
ĠyExCj wAwEwEvB
ĠyGxG wDj
ĠyGxG wC
ĠyGxG wBwE
ĠyGxG xDjwGj
ĠyGxG xCjwGj
ĠyGjxGj wE
ĠyGjxGj wCj
ĠyGjxGj xCwF
ĠyGjxGj xDwA
ĠxGjxD vB
ĠxGjxD vF
ĠxGjxD vDj
ĠxGjxD vAjvF
ĠxGjxD wAvB
ĠyFjxD wAwD
ĠyFjxD xDwB
ĠyGxDj wAjwDj
ĠyGxDj xDjxC
ĠyCxFxC vGj
ĠyCxFxC vF
ĠyCjxFjxCj wB
ĠyCjxFjxCj vA
ĠyCjxFjxCj vFj
ĠyCjxFjxCj wBwDj
ĠxAxG wB
ĠxAxG wAj
ĠxAxG xCj
ĠxAxG xCwC
ĠxAxG xCjwA
ĠxAxG wAwEvA
ĠxAxG xDvG
ĠxAxG xEwAwEvA
ĠxAxG xDwAwG
ĠxFxCjwGjwCj vGj
ĠxExCwGwC vG
ĠxAxFjxD vD
ĠxAjxGxDj vDj
ĠyGjxE wBwE
ĠyGjxE xExCj
ĠyCxGjxF wGj
ĠyCxGjxF vGj
ĠxAjxGj wB
ĠxAjxGj xC
ĠxAjxGj xD
ĠxAjxGj xDwAj
ĠxAjxGj xCjwCj
ĠxAjxGj wAjwFvAj
ĠxAjxGj xDjvGj
ĠxAjxGj xFwAjwFvAj
ĠxAjxGj xDjwAjwGj
ĠxFjxDwAwD vA
ĠyCjxAjxFj vFj
ĠxDjvFj vDj
ĠwBwA wDj
ĠwBwA vDj
ĠwBwA wGjwCj
ĠwBwA wFwCvF
ĠwBwA wDjvB
ĠwBwA wDjvF
ĠwBwA wFjvDj
ĠwBwA wDjvBvFj
ĠyExG wB
ĠyExG xD
ĠyExG wGwC
ĠyExG wBwE
ĠyExG xEwA
ĠyExG xFjwBwE
ĠxGxDjwAjwDj vAj
ĠxDvF vD
ĠxGjxEwBwE vB
ĠxAxCjwA vB
ĠyCxD wE
ĠyCxD wA
ĠyCxD wDj
ĠyCxD wC
ĠyCxD vB
ĠyCxD vAj
ĠyCxD vG
ĠyCxD wFwC
ĠyCxD vGvD
ĠyCjxDj wE
ĠyCjxDj wAj
ĠyCjxDj wF
ĠyCjxDj wCj
ĠyCjxDj wC
ĠyCjxDj vB
ĠyCjxDj vGj
ĠyCjxDj wFjwCj
ĠyCjxDj vGjvDj
ĠxAjxDjxC wDj
ĠxAjxDjxC vG
ĠxAjxDjxC wFwCvF
ĠxAjxDjxC wGjwDjvGj
yA yD
ĠwBvFj vCj
ĠyFxGj xC
ĠyFxGj xDj
ĠyFxGj wGjwCj
ĠyFxGj xCwF
ĠyFxGj xFwAj
ĠyFxGj xGxCwF
ĠxBxExCj wE
ĠxBxExCj vGj
ĠxBxExCj wFjwCjvFj
ĠxBxExCj wAwEvA
ĠyDjxAjxG wAj
ĠyDjxAjxG wFj
ĠyDjxAjxG wCj
ĠyDjxAjxG wC
ĠyDjxAjxG xCjwCj
ĠyDjxAjxG xCjwAj
yAj yDj
ĠwBwDj vAj
ĠyCxGxE wG
ĠyCxGxE wDj
ĠyCxGxE vAj
ĠyCxGxE vA
ĠyCxGxE wAjwG
ĠyCxGxE wAjvAj
ĠyGyD wBwGwD
ĠyGyD xEwB
ĠyGyD xDjwG
ĠyGyD xAxFj
ĠyGyD yCxD
ĠwAjwD vA
yDjxAj wC
ĠyEyC vB
ĠyEyC xF
ĠyEyC wAwF
ĠyEyC xFjwGj
ĠyGyE wA
ĠyGyE xFj
ĠwAjvF vC
ĠwAwG wCj
ĠwAwG vF
ĠwAwG vCj
ĠwAwG wFjvB
ĠwAwG wCjvA
ĠwAwG wCjvAvE
ĠwAwG wEvCj
ĠwAwG wCjvDj
ĠwAvE uB
ĠwGjvB vF
ĠwGjvB vC
ĠwGjvB uGj
ĠwGjvB vGjvD
ĠyGxC wG
ĠyGjxCj wGj
ĠyGjyF wAj
ĠyGjyF xG
ĠyFyCj wC
ĠyFyCj xFj
ĠyFyCj wAjwFj
ĠyFyCj xGwA
ĠyCjxGjxF wGj
ĠyCjxGjxF wE
ĠyCjxGjxF vB
ĠyCjxGjxF vAj
ĠyCjxGjxF wBwGj
ĠyCjxGjxF wBvB
ĠyDxAxFj wA
ĠyDxAxFj wF
ĠyDxAxFj wC
ĠyDxAxFj vB
ĠyDxAxFj xCwC
ĠyDxAxFj xCwA
ĠyFjxA xCj
ĠyFjxA xE
ĠyFjxA wAwD
ĠyFjxA xCjwFj
ĠyFjxA xFjwB
ĠyFjxA xFjwD
ĠyFjxA xGjxCjwFj
ĠxBxF wD
ĠxBxF xC
ĠxBxF vGj
ĠxBxF vFj
ĠxBxF wCjvGj
ĠyCjxG wG
ĠyCjxG wE
ĠyCjxG xD
ĠyCjxG vGj
ĠyCjxG xEwA
ĠyCjxG wDjvAj
ĠyCjxG xFxCwGwC
ĠyAyFj wB
ĠyAyFj xGj
ĠyAjyG xC
ĠyAjyG xA
ĠyAjyG yCjxAjxDj
yDxA vB
ĠyFjxAjxFj wGj
ĠyFjxAjxFj wAj
ĠyCxFj wFj
ĠyCxFj wDj
ĠyCxFj xCj
ĠyCxFj vG
ĠyCxFj wDvA
ĠyCxFj xEwBwFjvB
ĠyGxAj xD
ĠyGxAj xF
ĠyGxAj wAjwDj
ĠyGxAj xDwG
ĠyGxAj xGxC
ĠyGxAj xGwDj
ĠyGxAj xAxDwG
ĠyGjyDj xFxC
ĠyGjyDj xCwGjwDj
ĠyGjyDj xEwGj
ĠyGjyDj yCjxDj
ĠxAxDwB wD
ĠxAxDwB vFj
ĠyDwF wD
ĠyDwF vB
ĠxEwAj wCj
ĠxEwAj vG
ĠxEwAj vCj
ĠxEwAj wFjvB
ĠxEwAj wFjwCj
ĠxEwAj wFjwCjvFj
ĠxEwAj vFjvCj
ĠxEwAj wFvG
ĠwGvAj vE
ĠwGvAj uB
ĠwGvAj uG
ĠyDjwFj wDj
ĠyDjwFj wC
ĠxFxCwG vB
ĠxFxCwG vF
ĠxDjwAjwG wD
ĠxDjwAjwG wCjvAjvDj
ĠyGjxB xDj
ĠyGjxB xFj
ĠyGjxB wBwE
ĠyGjxB xDjwGj
ĠyGjxB xGjxCj
ĠyGjxB xAjxDjwGj
ĠxDwAwFj wCvAvD
ĠyDjxA wA
ĠyDjxA wFj
ĠyDjxA xE
ĠyDjxA vAj
ĠyDjxA xFj
ĠyDjxA xFjwB
ĠyDjxA xGxDwAwD
ĠwDjvDj uAj
ĠwDvD uA
ĠxDjwA vFj
ĠxDjwA vC
ĠxDjwA wFvAj
ĠxDjwA wFwC
ĠxDjwA wFwCvF
ĠxDjwA vFvC
ĠxFxCwAwF vA
ĠxFxCwAwF vF
ĠxFjxCjwAjwFj vAj
ĠxFjxCjwAjwFj vFj
ĠyAjxFj wFj
ĠyAjxFj xCjwFj
ĠyAjxFj xFjxDj
ĠyAxF xCwF
ĠyAxF xFxD
ĠxGjxCjwAj wCj
ĠxGjxCjwAj vF
ĠxGjxCjwAj wFjwCjvFj
ĠyCxAxF vF
ĠyGjyE wDj
ĠyGjyE xA
ĠyGjyE xCjwA
ĠxGjxDjwAj wD
ĠxGjxDjwAj vGj
ĠyExAj wG
ĠyExAj wAj
ĠyExAj vB
ĠyExAj xF
ĠyExAj xGjxDjwAjwDj
ĠxGxDwA wCj
ĠxGxDwA vG
ĠxBxA wG
ĠxBxA xC
ĠxBxA xCj
ĠxBxA xDj
ĠxBxA xDjwB
ĠxBxA xDwD
ĠxBxA wBwFjvB
ĠxBxA xEvA
ĠxBxA xFjwBwFjvB
ĠxBxA xDwAwG
ĠxBxA xEwBwA
ĠwFjvA uB
ĠyDxC wAj
ĠyDxC vAj
ĠyDjxCj wB
ĠyDjxCj vB
ĠvBvFj vDj
ĠvBvFj vD
ĠxFjxCjwGj wC
ĠxFjxCjwGj vFj
ĠwAjwGj wD
ĠwAjwGj vFj
ĠwAjwGj vD
ĠwAjwGj wGwC
ĠwAjwGj wDvAj
ĠwAjwGj wDvE
ĠwAjwGj wFvD
ĠwAjwGj wDvAjvF
ĠxDwGj vF
ĠxDwGj uB
ĠxDwGj wEvA
ĠvAjvF vD
ĠvAjvF vCj
ĠxEwBwFj vAj
ĠxEwBwFj vE
ĠxDjwAjwF vA
ĠxDjwAjwF vDj
ĠxFwAwF wD
ĠxFjwAjwFj wDj
ĠxAwAj wC
ĠxAjwB wCj
ĠwFvGj uAj
ĠyFyD wG
ĠyFyD wA
ĠyFyD xE
ĠyFyD yC
ĠyFjyDj wGj
ĠyFjyDj wAj
ĠyFjyDj xF
ĠyFjyDj yCj
ĠvAvE vCj
ĠvAvE vC
ĠxDwAwE vGj
ĠxDwAwE vD
ĠwEvG uA
ĠyFxAxF wG
ĠyFxAxF wA
ĠyCxAj wGj
ĠyCxAj xCj
ĠyCxAj xDjwDj
ĠyCxAj xCwGwC
ĠyCxAj xFxC
ĠyCxAj xFvAj
ĠyCxAj xGxCwGwC
ĠyCxAj xDjwAjwGj
ĠyCjxB wA
ĠyCjxB xD
ĠyCjxB xEwE
ĠyCjxB xFjxCj
ĠyCjxB xFjvB
ĠyCjxB xCjwGjwCj
ĠyCjxB xGjxCjwGjwCj
ĠyCjxB xEwBwA
ĠyAxA wA
ĠyAxA wF
ĠyAxA wD
ĠyAxA xCjwFj
ĠyAxA xFwAj
ĠyAxA xDjwAj
ĠyAjxAj wAj
ĠyAjxAj wFj
ĠyAjxAj wDj
ĠyAjxAj xDwG
ĠyAjxAj xFjwB
ĠyAjxAj xEwB
ĠwDjvB vGj
ĠwDjvB uB
ĠwDvAj vG
ĠwDvAj uAj
ĠxGxDwBwG vB
ĠxGxDwBwG vG
ĠxGxDwBwG vAvG
ĠxAxEwB wFj
ĠxAxEwB wDj
ĠxAxEwB vA
ĠxAjxFxC wG
ĠxAjxFxC wE
ĠxAjxFxC vAj
ĠxCjwGjwDj vCj
ĠxCwGwD vC
ĠxFjxDjwAj vGj
ĠxFjxDjwAj vFj
ĠyAyE xE
ĠyAyE xA
ĠyAyE xFjxCj
ĠyAyE xCjwAwE
ĠyAyE xFwA
ĠyAyE xBxGj
ĠyByGj xCj
ĠyByGj xAj
ĠxGxCwA wC
ĠxGxCwA vE
ĠxGxCwA wFwCvF
ĠyDxGj wGj
ĠyDxGj wF
ĠyDxGj xDj
ĠyDxGj vA
ĠyDxGj xFwAj
ĠyDxGj xFjxCj
ĠxBxFjxCj wGj
ĠxBxFjxCj wF
ĠxBxFjxCj vB
ĠxBxFjxDjwB wDj
ĠxBxFjxDjwB vB
ĠxBxFjxDjwB wCjvB
ĠyDxBxG wB
ĠyDxBxG vG
ĠyAjyF xF
ĠyAjyF xAj
ĠyAjyF yCjxAj
ĠyAjyF xDwAjwF
ĠyAjyF yCjxGj
ĠyAjyF yCjwAj
ĠyAjyF xFjwAj
ĠyAjyF xGxD
ĠyAjyF yCxA
ĠxAjxFxDwAj wD
ĠxAjxFxDwAj vAj
ĠxAjxFxDwAj wCvAj
ĠxFxDwA vG
ĠxFxDwA vF
ĠwCjvA vFj
ĠwCjvA uA
ĠyGxB xCj
ĠyGxB xD
ĠyExBxGj wG
ĠyExBxGj wCj
ĠyExBxGj xDwD
ĠyAyF xAj
ĠyAyF xDwAj
ĠyAjyFj xB
ĠyAjyFj xDjwB
ĠyAjyFj yCjxGj
ĠyAjyFj yCjwAj
ĠyAjyFj yCjxAjwAj
ĠxAxExCjwA wCj
ĠxAxExCjwA vBvA
ĠzG wG
ĠzG xAj
ĠzG yAj
ĠyGjyC xD
ĠxAxEwE wEwCvA
ĠyByFj xFj
ĠyByFj xB
ĠyByFj yCjxAj
ĠyByFj xDjwBwFj
ĠyByFj xGwB
ĠyByFj xGjxDj
ĠyByFj yDxAvB
ĠxFjxDjwAjwDj vB
ĠxFxDwAwD vAj
ĠyDjyCxGj xC
ĠyDjyCxGj vGj
ĠxFxCwAj wD
ĠxFxCwAj vGj
ĠxFxCwAj vG
ĠxFxCwAj vFj
ĠxFxCwAj wAwD
ĠxFxCwAj wGwDj
ĠxFjxCjwB wDj
ĠxFjxCjwB vA
ĠxFjxCjwB vGj
ĠxFjxCjwB vG
ĠxFjxCjwB wAjwDj
ĠxFjxCjwB wGjwE
ĠxExCjwGjwCj vA
ĠxDjxCwGwC vGj
ĠxDwBwFjvB vG
ĠwFjvAj vFjvCj
ĠwFvA vFvC
ĠyDxE wB
ĠyDxE wFj
ĠyDxE wF
ĠyDxE wD
ĠyDxE wCj
ĠyDxE wC
ĠyDxE vA
ĠyDxE vAvE
ĠwCvGj vF
ĠwCvGj uGj
ĠwCvGj vDjuGj
ĠzGj wGj
ĠzGj xB
ĠzGj yB
ĠxAjxFwF wFwCjvAj
ĠxBxFjwFj wFjwDvB
ĠxCjwAjwFvAj vFj
ĠxEwGjwE wCj
ĠxEwGjwE vGj
ĠxEwGjwE vBvE
ĠvBvG vE
ĠvBvG vDuG
ĠxCwAwEvA vF
ĠyCxFxD wA
ĠyCxFxD wF
ĠyCjxFjxDj wAj
ĠyCjxFjxDj wFj
ĠyDjxF wG
ĠyDjxF wFj
ĠyDjxF wD
ĠyDjxF wDj
ĠyDjxF xC
ĠyDjxF wCj
ĠyDjxF vAj
ĠyDjxF vAjvF
ĠyAyCj xDj
ĠxEwAwFj vA
ĠxEwAwFj vCj
ĠxGjxFxC wGj
ĠxGjxFxC wCj
ĠxGjxFxC vGj
ĠxDjwGwDj wC
ĠxDjwGwDj vAj
ĠxDjwGwDj vG
ĠxDwFjwD vB
ĠxDwFjwD vA
ĠxDwFjwD vFj
ĠxCjwFjwCj vA
ĠxCjwFjwCj vAjvDj
ĠxCjwFjwCj uFj
ĠxCjwFjwCj vAjvFj
ĠxCjwFjwCj vGjvDj
ĠxCwFwC vGj
ĠxCwFwC vAvD
ĠxCwFwC uF
ĠxCwFwC vAvF
ĠxCwFwC vGvD
ĠyExFj wGj
ĠyExFj wG
ĠyExFj wE
ĠyExFj wD
ĠyExFj wDj
ĠyExFj xCj
ĠyExFj vB
ĠyExFj vBvFj
ĠyAyD vAj
ĠyAyD wAwD
ĠyAyD xFvAj
ĠyAjyDj vB
ĠyAjyDj wAjwDj
ĠyAjyDj xFjvB
ĠyByE wE
ĠyByE wBwE
ĠyByE xGwC
ĠxDjwGjwF vGj
ĠxDjwGjwF vC
ĠxDwGwE vG
ĠxDwGwE uB
ĠwAwEwCjvA vEuA
ĠxGxEwB wC
ĠxGxEwB vG
ĠxCjwG vE
ĠxCjwG vDj
ĠxCjwG uAj
ĠxCjwG wDjvGj
ĠxCjwFwCj vAj
ĠxCjwFwCj vF
ĠxCwEwC vA
ĠxCwEwC vG
ĠxCwEwC vE
ĠxFxCwD wD
ĠxFjxCjwDj wDj
ĠyBxB wB
ĠyBxB wE
ĠyBxB xD
ĠyBxB xDjwGj
ĠyBxB xGxC
ĠwGjwDjwCvGj vDj
ĠwGwDvBvG vD
ĠyEyCjxA xCj
ĠyEyCjxA vA
ĠxCjvE vCj
ĠxCvDj vC
ĠwGjwFj vGj
ĠwGjwFj vFj
ĠwGjwFj wFvAj
ĠwGjwFj wCvGj
ĠwGjwFj wCvGjvDj
ĠwGjwFj wCvD
ĠwGwF vG
ĠwGwF vF
ĠwGwF wEvA
ĠwGwF vBvG
ĠwGwF vBvGvD
ĠwGwF vBvCj
ĠyFjyD wCj
ĠyFjyD xG
ĠyFjyD wBwG
ĠyFjyD xGjwAj
ĠyGyDj wD
ĠyGyDj xGj
ĠyGyDj xCwGj
ĠyGyDj xAwB
ĠxExCjwCj vE
ĠxDjxCwC vDj
ĠxDwBvB vD
ĠxAxDwAj wC
ĠxAxDwAj vA
ĠxAxDwAj wFvAj
ĠxAjxDjwB wCj
ĠxAjxDjwB vAj
ĠxAjxDjwB wFjvB
ĠyExBxG wA
ĠyFjyCjxA wB
ĠyFjyCjxA xDj
ĠxCwFj vDj
ĠxCwFj vD
ĠxCwFj uA
ĠxCwFj wDvG
ĠyGyDxAj xC
ĠyGyDxAj xE
ĠyGyDxAj xFxCwG
ĠyGjyDjxB xCj
ĠyGjyDjxB xF
ĠyGjyDjxB xFjxCjwGj
ĠxFjxDjwDj vFj
ĠxFxDwD vF
ĠxExCjwGj vFj
ĠxExCjwGj vE
ĠxDjxCwG vF
ĠxDjxCwG vDj
ĠxDwBwFj vE
ĠxDwBwFj vD
ĠxCjwAjvAj vCj
ĠxCwAvA vC
ĠyFyCxA xDjwDj
ĠyFjyCjxAj xEwE
ĠyFjyCjxAj xFjxCj
ĠxGjxFwF vGj
ĠxGjxFxCwF wCj
ĠxGxEwE vG
ĠxGxEwBwE wC
ĠxAxFjwFj vA
ĠxAxFjxCjwFj wD
ĠxAjxGwG vAj
ĠwBvD uB
ĠxAxFjxCj wA
ĠxAxFjxCj wD
ĠxAxFjxCj vA
ĠxAjxGxD wDj
ĠxAjxGxD vAj
ĠxAjxGxD wGwDj
ĠxBxGjxDj wE
ĠxBxGjxDj vB
ĠxBxGjxDj wGjwE
ĠxGjxDjxCwGj wC
ĠxGjxDjxCwGj vAjvGj
ĠxEwBwCj wCj
ĠxDwAvB vB
ĠxDjwAjwC wC
ĠxFwAjwG vAj
ĠxFwAjwG vD
ĠxFjwBwGj vB
ĠxFjwBwGj vDj
ĠyFyCxGj wAj
ĠyFyCxGj xD
ĠwBwF vD
ĠwBwF vCj
ĠxCwGwDj wDvFvC
ĠwBwFjwD wCjvE
ĠxFwAjwFj vGj
ĠxFwAjwFj vF
ĠxEwAwF vG
ĠxEwAwF vE
ĠxCjwAjwF vDj
ĠxCjwAjwF vCj
ĠxCwAwE vD
ĠxCwAwE vC
ĠxBxGjwGj vB
ĠwFjwE vFj
ĠwFjwE vE
ĠwFjwE wDjvGj
ĠwFjwE vBvFj
ĠwFjwE vAjvFjvCj
ĠwFwDj vF
ĠwFwDj vDj
ĠwFwDj wDvG
ĠwFwDj vAjvF
ĠwFwDj vAvFvC
ĠwEwD vE
ĠwEwD vD
ĠwEwD vAvE
ĠwEwD wCjvFj
ĠwEwD vGjvEuB
xBxE wGj
ĠxCjwGjwE wDjvFjvCj
ĠwAjwFwCj wCvDj
ĠwAwEwC vBvD
yCxF wA
yCjxFj wAj
xCwGj wF
xCjwA wFj
ĠzCyF xD
ĠzCyF yCj
ĠzCyF xCwF
ĠzCyF xGjwCj
ĠzCyF yDwF
ĠzCjyFj xDj
ĠzCjyFj yD
ĠzCjyFj xCjwFj
ĠzCjyFj xAwD
ĠzCjyFj yDjwFj
ĠxBxC wD
ĠyBxG xD
ĠyBxG xDwG
ĠzCxGj xDj
ĠzCxGj xDjwGj
ĠzCjxA xE
ĠzCjxA xEwA
ĠzDxAj xF
ĠzDxAj xFwAj
ĠzDjxB xFj
ĠzDjxB xFjwB
ĠyCxCj wDj
ĠyFyDxAj xD
ĠyFyDxAj vAj
ĠyCjxD wE
ĠyDxDj wF
ĠyFjyDjxB xDj
ĠyFjyDjxB vB
ĠxBxGxDwG wD
ĠyCxGjxDjwGj wDj
ĠwDjvFj uGj
ĠwDvF uG
ĠxDjwGjwCj vAj
ĠxDwGwC vA
ĠyDxGxD wB
ĠyDxGxD wF
ĠyDxGxD xC
ĠyDxGxD vAj
ĠyDxGxD vG
ĠyDxGxD wBwG
ĠyDxGxD xCwE
ĠyDjxGjxDj wFj
ĠyDjxGjxDj xC
ĠyDjxGjxDj xCj
ĠyDjxGjxDj vB
ĠyDjxGjxDj vGj
ĠyDjxGjxDj xCwGj
ĠyDjxGjxDj xCjwF
ĠyDjxE wFj
ĠxEwBwA wCj
ĠxEwBwA vG
ĠxEwBwA vFj
ĠxEwBwA vF
ĠxEwBwA wGjwCj
ĠxEwBwA wFjwD
ĠxBxExC wGwC
ĠyCxFxCj wGjwCj
ĠyFjxBxGj vB
ĠyFxAjxG vAj
ĠyDxAjxFwAj wF
ĠyDjxBxFjwB wFj
ĠxGjxDjxCj wGj
ĠxGjxDjxCj vB
ĠxGjxDjxCj vAj
ĠxGjxDjxCj vA
ĠxGjxDjxCj wAjwFj
ĠxGjxDjxCj wGjwDj
ĠxGxDxC wG
ĠxGxDxC vAj
ĠxGxDxC vA
ĠxGxDxC vGj
ĠxGxDxC wAwF
ĠxGxDxC wGwD
ĠxFwAjwDj wC
ĠxEwAwD vB
ĠxFjwBwE wCj
ĠyDjxGjxE wFj
ĠyDjxGjxE wBwE
ĠxFjxDwAvB vD
ĠxGxDjwAjwC vDj
ĠxGjxEwBwCj vE
ĠwCjvCj uGj
ĠwCvC uG
ĠyDxGxDj wF
ĠxFxCjwGjvAj vCj
ĠxExCwGvA vC
ĠvBvE uB
ĠxCjwAwFj wE
ĠxCjwAwFj vDj
ĠxCjwAwFj vCj
ĠxCwGjwF wDj
ĠxCwGjwF vD
ĠxCwGjwF vC
ĠwBwGwE wD
ĠwBwGwE vCj
ĠwBwGwE uB
ĠyDxGxE vG
ĠyDjxGjxF vGj
ĠyExAxE wG
ĠyExAxE xCj
ĠyExAxE xD
ĠyExAxE vA
ĠyExAxE xCjwA
ĠyFjxBxFj wA
ĠyFjxBxFj xDj
ĠyFjxBxFj vB
ĠyFjxBxFj xE
ĠyFjxBxFj xDjwB
ĠyFxAjxF wGj
ĠyFxAjxF xD
ĠyFxAjxF xDj
ĠyFxAjxF vAj
ĠyFxAjxF xDwAj
ĠyGyEyC xE
ĠyGjyFyCj xF
ĠxBxFjxE wB
ĠxBxFjxE wD
ĠxBxFjxE wCj
ĠxBxFjxE wC
ĠxBxFjxE xCjwA
ĠxBxFjxE wBwFj
ĠxGjxCjwA vB
ĠxGjxCjwA vGj
ĠxGjxCjwA wEvA
ĠxCjwFjwDj vDj
ĠxCjwFjwDj uAj
ĠxCwFwD vD
ĠxCwFwD uA
ĠxFjxDjwBwFjvB vFj
ĠyExD xC
ĠyExD wC
ĠyFxDj xCj
ĠyFxDj wCj
ĠxGxCwGj vAj
ĠxGxCwGj vG
ĠxFjwBwG vA
ĠxFjwBwG vFj
ĠyCjxGjxEwB wCj
ĠyCjxGjxEwB wFjwCj
ĠyCjxGjxEwB wCjvGj
ĠyCxGxDjwAj wC
ĠyCxGxDjwAj wFwC
ĠyCxGxDjwAj wCvG
ĠyExAxFj vA
ĠyAjyD xE
ĠyByDj xF
ĠyCxGxExC wE
ĠyCxGxExC wA
ĠyCxGxExC wC
ĠyCxGxExC wDwC
ĠyCjxGjxFxCj wAj
ĠyCjxGjxFxCj wF
ĠyCjxGjxFxCj wCj
ĠyCjxGjxFxCj wDjwCj
ĠxFjxDwAwFjwD vA
ĠxGxDjwAjwGwDj vAj
ĠxGjxEwBwGjwE vB
ĠxFxCjwGjwFwCj vGj
ĠxExCwGwEwC vG
ĠwDjwCj vDj
ĠwDjwCj uGj
ĠwDjwCj wCvF
ĠwDwC vD
ĠwDwC vBvE
ĠwDwC uG
ĠyFjxE wD
ĠyFjxE xD
ĠxFxCwAwD vF
ĠxFjxCjwAjwDj vFj
ĠxGxCwF wD
ĠxGjxCjwFj wDj
ĠxDjwBwGj wFj
ĠxDjwBwGj vF
ĠxDjwBwGj vDj
ĠxDwAjwG wF
ĠxDwAjwG vE
ĠxDwAjwG vD
ĠxAxDwG wE
ĠxAjxDjwGj wF
ĠwBwEvB vCj
ĠwBwEvB vGjvE
ĠxAxExCwG vA
ĠxAxExCwG vAvE
ĠxAxExCwG wDvA
ĠxAxFxCwD vF
ĠxAjxFjxCjwDj vFj
ĠxAjwA wFwCvAj
ĠxBwAj wFjwCjvB
ĠwAjvCj uAj
ĠwAvC uA
ĠwDjvG vDj
ĠwDvFj vD
ĠxEwBwGjwCj vE
ĠxDwAwFjvB vD
ĠxDjwAjwGwC vDj
ĠxCjwGjwFvAj vCj
ĠxCwGwEvA vC
ĠzCyG xG
ĠzCyG yDxG
ĠzCyG xGjxC
ĠzCyG xAxE
ĠzCyG yDjxAjwC
ĠzCjyGj xGj
ĠzCjyGj yDjxGj
ĠzCjyGj yFxAj
ĠzCjyGj xAxCj
ĠzCjyGj xAjxF
ĠxAjxFxCjwGj vAj
ĠxAjxFxCjwGj vAjvF
ĠxBxFjxDwA vB
ĠxBxFjxDwA vBvFj
ĠxAwBwG wE
ĠxAwBwG vAvE
ĠxAwBwG wEvBvE
ĠyFxG wGj
ĠyFxG wA
ĠyFxG wF
ĠyFxG wDj
ĠyFjxGj wE
ĠyFjxGj wA
ĠyFjxGj wAj
ĠyFjxGj wFj
ĠvAjvFj vDj
ĠvAvF vD
ĠwBwFjwCj vDj
ĠwBwFjwCj vCj
ĠxFwBwG wD
ĠxFwBwG vB
ĠxFwBwG wDvG
ĠyDxDwAj wF
ĠyDxDwAj wC
ĠyDxDwAj wFwDj
ĠyDjxDjwB wFj
ĠyDjxDjwB wCj
ĠyDjxDjwB wFjwE
ĠyDxAxFjxD wB
ĠyDxAxFjxD wFj
ĠyDxAxFjxD wD
ĠyDxAxFjxD wEwD
ĠwAjwDjvAj vC
ĠwAwDvA uB
ĠyDjyCxG wA
ĠyDjyCxG wDj
ĠyEyCjxGj wE
ĠyEyCjxGj wAj
ĠyCxDwAj wG
ĠyCxDwAj wCvG
ĠyCxDwAj wGwDvG
ĠyCjxDjwB wGj
ĠyCjxDjwB wGjwDjvGj
ĠyCjxDjwB wCjvGj
ĠwDjwCvGj vDjuGj
ĠwCjvF vCj
ĠwCvE vC
ĠyEwG wCj
ĠyAyC wG
ĠyAyC wA
ĠyAyC xG
ĠyAyC xAxD
ĠxAxExD wA
ĠxAxExD wC
ĠxAxExD vB
ĠxAxExD vAj
ĠxAxExD wBwG
ĠxAxExD wAwE
ĠxAjxFxDj wAj
ĠxAjxFxDj wCj
ĠxAjxFxDj wC
ĠxAjxFxDj vB
ĠxAjxFxDj xCwGj
ĠxAjxFxDj wAjwF
ĠwAjwFwC vD
ĠwAjwFwC vC
ĠwAwEvB vCj
ĠwAwEvB uB
ĠyCxGwG wGwDjwC
ĠyCjxGjwGj wGjwEwCj
ĠyDxAxD wA
ĠyDjxAjxDj wAj
ĠyDjxAjxGxDj wG
ĠyDjxAjxGxDj wDj
ĠyDjxAjxGxDj xC
ĠyDjxAjxGxDj wFwDj
ĠzCyC xC
ĠzCyC xA
ĠzCyC xEwA
ĠzCyC xGjxCj
ĠzDyG yDj
ĠzDyG yDxG
ĠzDyG xAjwDj
ĠzDjyGj yE
ĠzDjyGj yDjxGj
ĠzDjyGj xBwE
ĠxGjxFxCjwGjwCj vGj
ĠxGxExCwGwC vG
ĠxAxFjxDwAwD vA
ĠxAjxGxDjwAjwDj vAj
ĠyEyCxG wG
ĠyEyCxG wE
ĠyEyCxG xEwE
ĠyEyCxG xDwAwE
ĠyFyCjxGj wGj
ĠyFyCjxGj wF
ĠyFyCjxGj xFwF
ĠyFyCjxGj xDjwAjwF
ĠxAxDjwB wFj
ĠxAxDjwB wDj
ĠxAxDjwB wFjvB
ĠyExExC wG
ĠyExExC wD
ĠyExExC vA
ĠyFxFxCj wGj
ĠyFxFxCj wDj
ĠyFxFxCj vAj
ĠyFjxFjxD wE
ĠyFjxFjxD wA
ĠyFjxFjxD vB
ĠyGjxGjxE wA
ĠyGjxGjxE wFj
ĠyGjxGjxE wCj
ĠyCxAxE wFj
ĠyCxAxE wC
ĠyCjxAjxF wG
ĠyCjxAjxF wCj
ĠwGjwEvB vGjvE
ĠxGjxDwAj wF
ĠxGjxDwAj wD
ĠxGjxDwAj wFvAj
ĠxAjxExC wG
ĠxAjxExC wE
ĠxBxFxCj wGj
ĠxBxFxCj wF
ĠwDvBvG uG
ĠwDvBvG vDuG
ĠzA xF
ĠzA yF
ĠzAj xFj
ĠzAj yFj
ĠyGxGxDj wF
ĠyGxGxDj wC
ĠxCjwGjwFj vAj
ĠxCjwGjwFj wFvAj
ĠxCwGwF vA
ĠxCwGwF wEvA
ĠyByG yC
ĠyByG yE
ĠyByG yDxG
ĠwBwFjwE vGj
ĠwBwFjwE wDjvGj
ĠwAjwFwDj vG
ĠwAjwFwDj wDvG
ĠwAwEwD vFj
ĠwAwEwD wCjvFj
ĠwGjwDjwC uGj
ĠwGwDvB uG
ĠyCxFwAj wG
ĠyCjxFjwB wGj
ĠxFjwAwFj wC
ĠxFjwAwFj vD
ĠxFjwAwFj wFjwCj
ĠxFjwAwFj vAjvFj
ĠxFwGjwF vB
ĠxFwGjwF vCj
ĠxFwGjwF wFwC
ĠxFwGjwF vAvF
ĠxEwGwE vAj
ĠxEwGwE vC
ĠxEwGwE wEvB
ĠxEwGwE vGjvE
ĠxGwAjwG wCj
ĠxGwAjwG vDj
ĠxGwAjwG vBvG
ĠxGwAjwG wGwD
ĠxAxFxCwA wFwC
ĠxAjxFjxCjwAj wFjwCj
ĠyDxAjxFxDwAj wF
ĠyDjxBxFjxDjwB wFj
ĠxBxGxDwBwG wD
ĠxBxGjxEwBwE vB
ĠwAwDj wC
ĠwAwDj vF
ĠwAwDj vC
ĠwAwDj uB
ĠwAwDj vBvE
ĠwGjwD vB
ĠwGjwD vE
ĠwGjwD uB
ĠwGjwD uAj
ĠwGjwD vAjvDj
ĠyGjxAj wB
ĠyGjxAj xDj
ĠxDwAwG vB
ĠxDwAwG vF
ĠxDwAwG vE
ĠxDwAwG vDj
ĠxDwAwG wFjvB
ĠxDwAwG wEwC
ĠzCyGj yCj
ĠzCyGj yF
ĠzCyGj yDjxGj
ĠxGjwBwGj vE
ĠxGjwBwGj wCvGj
ĠxGjwBwGj wGjwDj
ĠxFxCwGjwDj vF
ĠxFjxCjwAwE vFj
ĠxEwBwGwD vE
ĠyDxBxFj wGj
ĠyDxBxFj wD
ĠxFjxEwBwE vG
ĠxExDwAwD vF
ĠxFxDjwAjwDj vFj
ĠwBwAwE uB
ĠwAjwE wCj
ĠwAjwE vFj
ĠwAjwE vCj
ĠwAjwE vC
ĠyCxFjxD wA
ĠyCxFjxD wFj
ĠyCjxGxDj wG
ĠyCjxGxDj wAj
ĠyCxGxF wD
ĠyCxGxF wDj
ĠyCxGxF wCj
ĠyCxGxF xDwAj
ĠyCxGxF xCwG
ĠzCjyA yD
ĠzCjyA yFj
ĠyCjxAxEwFj vA
ĠyDxAjxFwG vAj
ĠyDjxBxFjwGj vB
ĠyCxGjxDjwF vGj
ĠxGjxFjxCjwFj vA
ĠxGxFxCwF vGj
ĠyGjyCjxAj wAj
ĠyGjyCjxAj wCj
ĠyGjyCjxAj xFj
ĠxCjxCj wF
ĠxCjxCj wGjwCj
ĠxCjxCj wFjwCjvFj
ĠxAxCwF wF
ĠxAxCwF wD
ĠxAjxCjwFj wFj
ĠxAjxCjwFj wDj
ĠxBxDwG wE
ĠwAwFjwCj vD
ĠwAwFjwCj uB
ĠyCxDjwGj wF
ĠvGjvDj vC
ĠvGvD uB
ĠxDjwAjwGj wC
ĠxDjwAjwGj vFj
ĠxDjwAjwGj vF
ĠxDjwAjwGj vE
ĠxDjwAjwGj wGwC
ĠxDjwAjwGj wFwCj
ĠzDyAj yDj
ĠzDyAj yG
ĠzDyAj yFxAj
ĠzDjyB yE
ĠzDjyB yGj
ĠzDjyB yFjxB
ĠwBwGjwDj vE
ĠwBwGjwDj vCj
ĠwAjwGwD vDj
ĠwAjwGwD vC
ĠyDxAxFxC wG
ĠyDxAxFxC wD
ĠyDxAxFxC wDvA
ĠyDxAxFxC wGwD
ĠyDjxAjxFjxCj wGj
ĠyDjxAjxFjxCj wDj
ĠyDjxAjxFjxCj wGjwDj
ĠyDjxAjxFjxCj wDjvAj
ĠxBxGxDwE vG
ĠyGyCxA wA
ĠyGyCxA wC
ĠxCxC wE
ĠxCxC wFwCvF
ĠwAjwGjwDj uAj
ĠwGjwGj wC
ĠwGwG vB
ĠyFjyDxA wFj
ĠyFjyDxA wD
ĠyFjyDxA xFjwFj
ĠyFjyDxA xEwBwFj
ĠyGyDjxAj wG
ĠyGyDjxAj wDj
ĠyGyDjxAj xGwG
ĠyGyDjxAj xFxCwG
ĠxAjxGxC wG
ĠxBxGjxCj wGj
ĠxAjxCwGj wFwCvF
ĠxAjxCwGj vAjvF
ĠxBxCjwA wFjwCjvFj
ĠxBxCjwA vBvFj
ĠxAxGxDwG vB
ĠxAxGxDwG vAj
ĠxAjxGjxDjwGj wC
ĠxAjxGjxDjwGj vB
ĠyGjyExB wGj
ĠyGjyExB wE
ĠyGjyExB xGjwGj
ĠyGjyExB xFjxCjwGj
ĠyDyC wAj
ĠyDyC xDj
ĠyDyC xFwF
ĠyDyC xGwG
ĠyDxExC wA
ĠyDxExC wDvA
ĠyDjxFxCj wAj
ĠyDjxFxCj wDjvAj
ĠyFxB xD
ĠyFxB xF
ĠyFxB xFj
ĠxAxFjxC wDj
ĠxAjxGxCj wE
ĠyDxAwA wAwFwD
ĠzCjyCj xCj
ĠzCjyCj xFwAj
ĠyDjxGxDjwAj wC
ĠyEyCxA wA
ĠyFyCjxAj wAj
ĠyByGjyE xGj
ĠxExE wGj
ĠxExE wBwE
ĠwAjwAj wD
ĠyDxGjxE wGj
ĠyExFjxD wB
ĠyExFjxD wEvB
ĠyFxGxDj xC
ĠyFxGxDj wFwC
ĠyFjxGjxE xCj
ĠyFjxGjxE wFjwCj
ĠvAjvDj uAj
ĠvAvD uA
ĠyGxF wDj
ĠyGxF xDj
ĠyGjxFj wE
ĠyGjxFj xE
ĠyAjyCj wGj
ĠyAjyCj wAj
ĠyAjyCj xGj
ĠzDyA yFjxB
ĠzDyA xAjxD
ĠzDyA xBxFj
ĠzDjyAj yCxG
ĠzDjyAj xBxDj
ĠyExBxGjxE wGj
ĠyExBxGjxE wE
ĠyExBxGjxE xCj
ĠyExBxGjxE wFjwE
ĠyCjxAxExCj wAwE
ĠyCxGjxDjxC wGjwDj
ĠyExGjxEwB wCj
ĠxBxAxEwA wCj
ĠxBxAxEwA wC
ĠxEwGwC wC
ĠxEwGwC vA
ĠxFxF wA
ĠxFwGjwCj wCj
ĠxFwGjwCj vAj
ĠxGwAwF wDvAvD
ĠxGwAwF vGvD
ĠxGjwAjwFj vGjvDj
ĠxGjwAjwFj wDjvAjvDj
ĠwGjwFwC vCj
ĠwGjwFwC uAj
ĠwGwCj vDj
ĠwGwCj uAj
ĠwGwCj uA
ĠwGwCj vAvD
ĠyCjxGjxFj wE
ĠyCjxGjxFj wD
ĠyCjxGjxFj wDj
ĠyCjxGjxFj xDjwB
ĠxCwGjwCj vDj
ĠxCwGjwCj vAjvFj
ĠwBwGwC vD
ĠwBwGwC vAvF
ĠxBxGjxD wB
ĠxBxGjxD wF
ĠyDxAxG wA
ĠyDxAxG xDwA
ĠyDjxAjwAj wAjwFjwDj
ĠyDjxAjxGj wAj
ĠyDjxAjxGj xDjwAj
ĠxAwAwF vD
ĠxAjwAjwFj vDj
ĠwGwEvB vC
ĠwGwEvB uA
ĠyGyCxG wG
ĠyGyCxG wAj
ĠyGyCxG wC
ĠyGyCxG xExC
ĠyGjyCjxGj wGj
ĠyGjyCjxGj wB
ĠyGjyCjxGj wCj
ĠyGjyCjxGj xFxCj
ĠxFjwAwD wD
ĠxFjwAwD vB
ĠxGwAjwDj wDj
ĠxGwAjwDj wC
ĠxGjwBwE wE
ĠxGjwBwE wCj
ĠyFjyC xDj
ĠyFjyC xFj
ĠyFjyC xG
ĠyAyDxA wA
ĠyAyDxA wD
ĠyAyDxA xC
ĠyAyDxA xFjxD
ĠyAjyDjxAj wAj
ĠyAjyDjxAj wDj
ĠyAjyDjxAj xCj
ĠyAjyDjxAj xGxDj
ĠwAjwFjwDj uAj
ĠwAwFwD uA
ĠyCxAxDj xC
ĠyCjxAjxE xCj
ĠxAxCwA wCjvA
ĠxAjxCjwAj wDvAj
ĠyCjxExCj wFwCj
ĠxBxDwB wDjvB
ĠyCxDjxC wEwC
ĠyCxAjxFwAj wD
ĠyCxAjxFwAj wCj
ĠyCjxBxFjwB wD
ĠyCjxBxFjwB wDj
ĠyFyCxAxF xC
ĠyFyCxAxF wGwF
ĠxFjxFj wAj
ĠxDjxDj wG
ĠxDxD wFj
ĠxAwAwD vAj
ĠxAwAwD vA
ĠxAjwAjwDj vB
ĠxAjwAjwDj vAj
ĠwBwB wDj
ĠwFjwC vD
ĠwFjwC uGj
ĠwFjwC vGjvCj
ĠyDjyCj wB
ĠyDjyCj xE
ĠyDjyCj xFjwFj
ĠyDjyCj xGjwGj
ĠxGjxDjxCwF vGj
ĠxGxDwBwE vG
ĠxAxExCjwFj vA
ĠyCxGxD wB
ĠyCxGxD wA
ĠyCxGxD wFj
ĠyCjxGjxDj wG
ĠyCjxGjxDj wAj
ĠyCjxGjxDj xC
ĠxGxCwAwD vAvD
ĠxGjxCjwAjwDj vAjvDj
ĠyDxFxD wFjwD
ĠyDjxFjxDj wGwDj
ĠxFjxCwGj wC
ĠzFjyB yFjxB
ĠyByExB wB
ĠyByExB xD
ĠyByExB xGjxE
ĠyFjyCjxAjxFj wGjwFj
ĠwAwA wCj
ĠyGxA wAj
ĠyGxA xD
ĠxAjxFxDwG vAj
ĠxBxFjxDjwGj vB
ĠxAxDwBwG vB
ĠxAxDwBwG wDvG
ĠyCxFxDwAj wD
ĠyCxFxDwAj wFvAj
ĠyCjxFjxDjwB wDj
ĠyCjxFjxDjwB wFjvB
ĠzEyB yCjxGj
ĠyAyFjyDxAxD wA
ĠyAjyGyDjxAjxDj wAj
ĠyFjyDjxBxFjwB wFj
ĠyGyEyCxGxC wG
ĠyGjyFyCjxGjxCj wGj
ĠxAxDwBwE vBvE
ĠwGjwDjwCj vF
ĠwGjwDjwCj wCvF
ĠwGjwDjvAj vC
ĠwGjwDjvAj uAj
ĠwGwDwC vE
ĠwGwDwC vBvE
ĠwGwDvA uB
ĠwGwDvA uA
ĠyDxAxE wB
ĠyDxAxE xCj
ĠzDyD xD
ĠzDyD xB
ĠzDyD xFjwB
ĠzDjyDj xDj
ĠzDjyDj yC
ĠzDjyDj xGxC
ĠyDxBxF wG
ĠyDxBxF xD
ĠyDjyCxFj wGj
ĠyDjyCxFj xDj
ĠxCwAjwF vC
ĠxCjwBwFj vCj
ĠwAwGwD uA
ĠwFvB vCj
ĠwFvB vGvC
ĠxDwAwFwC vG
ĠxDjwAjwFjwCj vGj
ĠyAxG xF
ĠyAjxGj xFj
ĠxGxCwAwF vA
ĠxGjxCjwAjwFj vAj
ĠxDwAjwDj wCvGj
ĠxCjwAwD vBvG
ĠxFwAjwGwC vGvC
ĠxEwAwFjvB vFjuB
ĠxFjwBwGjwCj vGjvCj
ĠxDjwGjwFvAj vFuAj
ĠxDwGwEvA vEuA
ĠxDjwFjwDj vA
ĠxDjwFjwDj wDjvAj
ĠxDwFwD vGj
ĠxDwFwD wDvA
ĠyExAxF wG
ĠyFjxBxG wA
ĠyFxAjxFj wGj
ĠyEyCjxG wA
ĠyEyCjxG xE
ĠyEyCjxG xEwA
ĠxGxCjwA wCj
ĠyGyCxGj wAj
ĠyGjyCjxA wB
ĠyAyFjyD xFj
ĠyAjyGyDj xG
ĠyFyDxGj wAj
ĠyFyDxGj xF
ĠyFyDxGj xFwAj
ĠyFjyDjxA wB
ĠyFjyDjxA xFj
ĠyFjyDjxA xFjwB
ĠxExDwG vG
ĠxExDwG wDvA
ĠxExDwG wDwC
ĠxFxDjwGj vGj
ĠxFxDjwGj wDjvAj
ĠxFxDjwGj wDjwCj
ĠxGxFwAj vAj
ĠxGxFwAj wFwC
ĠxGxFwAj wFwDj
ĠxAwFjwD uB
ĠxAwFjwD vBvA
ĠxAwFjwD vAvAvE
ĠxAjwGwDj vC
ĠxAjwGwDj wCvAj
ĠxAjwGwDj vAjvAjvF
ĠxBwGjwE vCj
ĠxBwGjwE wCjvB
ĠxBwGjwE vBvBvFj
ĠwAjwFjvB vCj
ĠwAjwFjvB vFjuB
ĠwAwFvAj vC
ĠwAwFvAj vFuAj
ĠyDxDwG wD
ĠyDjxDjwGj wDj
ĠyAyDxAj xC
ĠyAjyDjxB xCj
ĠxDjwBwE wCjvA
ĠyDjxAjxF xD
ĠzCjyF yCjwAj
ĠyExBwB wBwGwE
ĠyExBxFj xDj
ĠxFjxDwAwFjvB vFj
ĠxGxDjwAjwGwC vG
ĠxGjxEwBwGjwCj vGj
ĠxAxFxCwAwD vA
ĠxAjxFjxCjwAjwDj vAj
ĠxCjwEwCj vG
ĠxCjwEwCj wCjvGj
ĠxCwDjwC vFj
ĠxCwDjwC wCvG
ĠwBwDvB vF
ĠwBwDvB vBvFj
ĠzFzC yDxA
ĠzFzC yAyD
ĠzFjzCj yDjxAj
ĠzFjzCj yAjyDj
ĠxAjxExCj wG
ĠxAjxExCj wD
ĠxAjxExCj vFj
ĠxAxDjxC wFj
ĠxAxDjxC wCj
ĠxAxDjxC vF
ĠxAjxDjxCwGj wC
ĠxBxExCjwA wCj
ĠyGyExAj xC
ĠyGyExAj xGxC
ĠyGjyFxB xCj
ĠyGjyFxB xGjxCj
ĠyAyFyC wA
ĠyAyFyC wF
ĠyAyFyC xAwA
ĠyAyFyC xGxDwA
ĠzCyFyC xC
ĠzCyFyC xD
ĠzCyFyC xDj
ĠzCjyFjyCj xCj
ĠzCjyFjyCj xDj
ĠzCjyFjyCj xE
ĠxDwGjwE vB
ĠxDwGjwE vE
ĠxDwGjwE vBvE
ĠyCxCwF wCj
ĠyCwAwF vD
ĠyCwAwF wDwC
ĠyCjxCjwFj wD
ĠyCjwAjwFj vDj
ĠyCjwAjwFj wDjwCj
ĠyGyCj xE
ĠyGyCj xG
ĠyGyCj xGj
ĠyGjyD xGj
ĠyAxB xC
ĠxGwEwC uA
ĠxGwEwC vAvG
ĠxGjwFwCj uAj
ĠxGjwFwCj vAjvGj
ĠwAjwCjvAj vE
ĠwAjwCjvAj vAjvF
ĠwAwCvA vDj
ĠwAwCvA vAvE
ĠxGjxFjxCj vGj
ĠxGjxFjxCj vFj
ĠxGjxFjxCj wGjwFj
ĠxFjxCwA wDj
ĠxFjxCwA vAj
ĠxFjxCwA vD
ĠxGxCjwAj wE
ĠxGxCjwAj vB
ĠxGxCjwAj vDj
ĠxExDwA vE
ĠxExDwA vD
ĠxFxDjwAj vF
ĠxFxDjwAj vDj
ĠxFwBwGj wD
ĠxFwBwGj vA
ĠxFwBwGj vCj
ĠyAyFjyC xD
ĠyAyFjyC xAxD
ĠxDjwAwFj wC
ĠxDjwAwFj vG
ĠxDjwAwFj uB
ĠxEwAjwFj vFj
ĠxDjwFjvB vB
ĠxDjwAwF vF
ĠxDwFvAj vAj
ĠxCjwEvA vA
ĠxCwAjwDj vAj
ĠxCwAjwDj vAjvF
ĠxCwDjvGj vGj
ĠwBwAj wD
ĠwBwAwD vA
ĠwBwAwD vAvE
ĠwBwDvG vG
ĠwAjwGjwCj vGj
ĠwAjwGjwCj vGjvDj
ĠwAwGwC vG
ĠwAwGwC vGvD
ĠyCjxC wGjwDjwCj
ĠwEvAj vC
ĠyDxCj wAwEwD
ĠwDjwCjvGj uGj
ĠwDvGj uAj
ĠwDwCvG uG
ĠvGvE vC
ĠyByD wB
ĠxDjwGjwE vE
ĠxDjwGjwE vDj
ĠxDwGwDj vDj
ĠxDwGwDj vD
ĠzCyDj xC
ĠzCjyE xCj
ĠxCjwFjwD vD
ĠxCjwFjwD vCj
ĠxCwFwCj vCj
ĠxCwFwCj vC
ĠzDjyG yDjxC
ĠwBwEwC vC
ĠwBwEwC uB
ĠyDxGxExC wE
ĠyDjxGjxFxCj wF
ĠwAjwDjwC uAj
ĠwAwDvB uA
ĠxFxCjwGjwFvAj vF
ĠxExCwGwEvA vE
ĠyExAxFjxD wFj
ĠyFjxBxGjxE wGj
ĠyFxAjxGxDj wG
ĠzEyGj yExCj
ĠxGjxDwB wF
ĠxGjxDwB wC
ĠxGjxDwB vE
ĠyAjyGyCj xDj
ĠyGjyDjyCxGj xDj
ĠyGjyEyCj xCj
ĠxDwGjwF vFj
ĠxDwGjwF uAj
ĠyAyEyCjxA xE
ĠyAjyFyDxAj xF
ĠwCjvAjvFj uFj
ĠwCvAvF uF
ĠyFjyDxB wB
ĠyGyDjyC xC
ĠyExBxGxD vE
ĠyExBxGxD wBwE
ĠyExBxGxD wAwE
ĠyExBxGxD wEvB
ĠyFjyCjxAxE vFj
ĠyFjyCjxAxE wFjwCj
ĠyFjyCjxAxE xCjwFj
ĠyFjyCjxAxE wBwFj
ĠyFyCxGjxDj vF
ĠyFyCxGjxDj wFwC
ĠyFyCxGjxDj xCwF
ĠyFyCxGjxDj wAjwF
ĠyByGjyExBxE wB
ĠxFjwGjwE vE
ĠxFjwGjwE wCjvGjvCj
ĠxCjwGwDj vDj
ĠxCjwGwDj vAjvDj
ĠxCwFjwD vD
ĠxCwFjwD vAvD
ĠwAjwEwC vF
ĠwAjwEwC vGvC
ĠwGjwEvA vE
ĠwGjwEvA vEuA
ĠyDyCxF xCwAj
ĠyDjyCjxFj xCjwB
ĠvGjvE vCj
ĠxFjxExCj vAj
ĠxFjxExCj wFjwCjvFj
ĠxGxFxC vG
ĠxGxFxC vF
ĠxGxFxC wGwF
ĠxAxGxC wGwF
ĠxAjxGjxCj wGjwFj
ĠxEwAjwG wCj
ĠxEwAjwG vGj
ĠxEwAjwG vC
ĠyDjxAxF wA
ĠyExAjxFj wAj
ĠyByFjyDjxB xFj
ĠzCjyGjyE xCj
ĠzCjyGjyE xAj
ĠzCjyGjyE yCj
ĠzCjyGjyE xBwCj
ĠzEyAyE xE
ĠzEyAyE xA
ĠzFyAjyF xF
ĠzFyAjyF xAj
ĠxDxCj wF
ĠxDxCj vA
ĠxDxCj wAvA
ĠxCjxC wE
ĠxCjxC vGj
ĠxCjxC wGjvGj
ĠxCjwBwE vB
ĠxCjwBwE vBvFj
ĠwBwFwCj vFj
ĠwBwFwCj vGjvCj
ĠwGwDjvGj vDjuGj
ĠwFjwDvG vDuG
ĠwEvBvG uG
ĠwDjvA uB
ĠwCjvG vDj
ĠwCjvG uA
ĠyFyDxA wB
ĠyFyDxA wF
ĠyFjyDjxAj wFj
ĠyFjyDjxAj xC
ĠvAjvG vDj
ĠvAvFj vD
ĠyGxAxF xD
ĠzCjxAj xFj
ĠzCjxAj xFjxFj
ĠwFwCvGj uGj
ĠxGjwBvE uB
ĠxFjxEwB vFj
ĠxFjxEwB vE
ĠxGjxFjwB wFjwCj
ĠyFjxAjxFjxCj wDj
ĠyFxAxFxC wD
ĠyAyFyD xD
ĠyAjyFjyDj xDj
ĠyGyDxAjxF vG
ĠyGyDxAjxF xDwG
ĠyGyDxAjxF wGwD
ĠyGjyDjxBxFj vGj
ĠyGjyDjxBxFj xDjwGj
ĠyGjyDjxBxFj wGjwDj
ĠzDyGyD xD
ĠzDjyGjyDj xDj
ĠyGjxAjxFj xDj
ĠzFjyByFj xFj
ĠzBzE yByE
ĠxEwFjwD vD
ĠxEwFjwD vBvFjuB
ĠxFwGwDj vDj
ĠxFwGwDj wCvGvC
ĠwAjwA wCj
ĠvGjvF vCj
ĠxGjxDjxCjwFj wDj
ĠxGjxDjxCjwFj wDjvGj
ĠxGxDxCwF wD
ĠxGxDxCwF wDvG
ĠxDjwBwFjwCj vGj
ĠxDwAjwFwC vG
ĠxEwEwC uA
ĠxFwFwCj uAj
ĠwFjwCjvDj vDj
ĠwFwCvD vD
ĠzDyF xD
ĠzDjyFj xDj
ĠxFxDjxC vA
ĠxFxDjxC wFwCvF
ĠyGyExB wG
ĠyGyExB xCj
ĠwBwAjwFjwCj vGj
ĠxDjwFwCj vCj
ĠxDjwFwCj vAjvFuAj
ĠxDwEwC vC
ĠxDwEwC vAvEuA
ĠyFjxG wA
ĠyFjyE xB
ĠyFjyE xBxEwGj
ĠyGxGj wAj
ĠyGjxA wB
ĠxEwBwAwD vB
ĠxFxCwAjwDj wC
ĠxFjxCjwBwE wCj
ĠxDwAwGwC vA
ĠxDjwAjwGjwCj vAj
ĠyAxAj xDj
ĠyAjyE xB
ĠyAjyE yCjxCj
ĠxFxCjwFj vFj
ĠxFxCjwFj wDjvB
ĠxExCwF vF
ĠxExCwF wDvAj
ĠxAxDxC wD
ĠxAxDxC wFwC
ĠxAxDxC wFjwD
ĠxAxDwAwE vB
ĠxAjxDjxCj wDj
ĠxAjxDjxCj wFjwCj
ĠxAjxDjxCj wGwDj
ĠyCjxFjxE wFj
ĠyCjxFjxE wAjwFj
ĠyCjxFjxE wAwE
ĠyCxGjxD wE
ĠyCjxAxDj wF
ĠyDxAjxE wFj
ĠyDjxBxF wG
ĠzDyFj yDwB
ĠxFjwAvD uA
ĠxGwAjvDj uAj
ĠyGjyFyC wGj
ĠyGjyFyC xD
ĠyAyFjyCj wA
ĠyAyFjyCj xDj
ĠyAjyGyD wAj
ĠyAjyGyD xE
ĠyAyEyC wA
ĠyAyEyC xFj
ĠyAyEyC xA
ĠyAyEyC xGvA
ĠyByGjyDj wB
ĠyByGjyDj xF
ĠxCjwGwE vE
ĠxCjwGwE uA
ĠxCwFjwDj vDj
ĠxCwFjwDj uGj
ĠwBwFwD vD
ĠwBwFwD uG
ĠyGyDxBxG xD
ĠwBwDjvB vGj
ĠxBxAj wFj
ĠxBxAj xFjwFj
ĠwAjwDvAj vG
ĠwAwCjvA vFj
ĠwGjwCvGj vF
ĠwGvBvG vE
ĠwCvFj vD
ĠyAyDj yCxC
ĠxAxExDwG wE
ĠxAxExDwG wEvA
ĠxAjxFxDjwGj wF
ĠxAjxFxDjwGj wFvAj
ĠxBxFjxEwA wFj
ĠxBxFjxEwA wFjvB
ĠxExCwAwE vE
ĠxGjxEwA wFjwD
ĠyCxGxFwAj wG
ĠyCxGxFwAj wGwC
ĠyCjxGjxFjwB wGj
ĠyCjxGjxFjwB wGjwCj
ĠxDjwBwGjwDj vDj
ĠxDwAjwGwD vD
ĠxCjwAwFjwCj vCj
ĠxCwGjwFwC vC
ĠwBwGwEvB uB
ĠwAjwFjwDjvAj uAj
ĠwAwFwDvA uA
ĠxFwGjvCj uGj
ĠxEwGvC uG
ĠyFyCxC xCwGjwF
ĠyFjyCjxCj xCjwAwFj
ĠzEyE xE
ĠzEyE yCj
ĠzEyE xGjxCj
ĠxFjxDwBwFj vFj
ĠxFxCjwAjwF vF
ĠxDjxCjwGj vCj
ĠxDxCwG vC
ĠxBxFxD wGj
ĠxBxFxD wDj
ĠyCjxGxE wAj
ĠyCjxGxE wF
ĠyCxFjxDj wE
ĠyCxFjxDj wA
ĠyByFjyD wB
ĠyByFjyD xGj
ĠyByFjyD xB
ĠyAyDxB wB
ĠyAyDxB wD
ĠyAjyDjyC wDj
ĠyAjyDjyC xC
ĠyByEyCj wE
ĠyByEyCj xCj
ĠzCyGyDj xC
ĠzCyGyDj xA
ĠzCyGyDj yC
ĠzCyGyE xC
ĠzCyGyE xA
ĠzCyGyE yCxG
ĠzDjyAjyG xDj
ĠzDjyAjyG yC
ĠzDjyAjyG yDjxAj
ĠxExDj wG
ĠxExDj vB
ĠxDjxD wFj
ĠxDjxD vAj
ĠxDjwFjwCj vDj
ĠxDwFwC vD
ĠxCwB wDj
ĠxCwB vG
ĠwGjwFjvB vFj
ĠwGwFj vAj
ĠwGwFj vFj
ĠwGwFj vE
ĠwGwFvAj vF
ĠwFjwF vA
ĠwFjwF vF
ĠwFjwF vDj
ĠwFjwEvA vE
ĠwFwE vGj
ĠwFwE vE
ĠwFwE vD
ĠwFwDjvGj vDj
ĠwEwDvG vD
ĠwDwCjvAvE uB
ĠwCjwCvGjvDj uAj
ĠwCvBvGvD uA
ĠyExF wG
ĠyFxFj wGj
ĠvBvF vCj
ĠyGyF yC
ĠyGyF yCxFwA
ĠyGjyFj yCj
ĠyGjyFj yCjxFjwAj
ĠyCjxGjxFjxCj wGj
ĠxAxFwAj wGwDj
ĠxAjxFjwB wGjwE
ĠxCwGjwE vGj
ĠxCwGjwE vAjvGvC
ĠxFwAjwFwC vG
ĠxFjwBwFjwCj vGj
ĠwBwGwDj vG
ĠwBwGwDj vAvFjuB
ĠwGjwDjvB uB
ĠwGwDvAj uAj
ĠwFjwCjvA uA
ĠxCjwFjwDjvGj vDjuGj
ĠxCwFwDvG vDuG
ĠwGwCvGj vDjuGj
ĠyExAxC vF
ĠyFxAjxCj vFj
ĠwFjvBvG vDuG
ĠxDjwBwFjwDjvGj vDj
ĠxDwAjwFwDvG vD
ĠyExGxE wC
ĠyFxGjxF wCj
ĠyGjxBxGj wE
ĠxDwGjvE uB
ĠzCjyGjyF xCj
ĠzCjyGjyF yCjxGj
ĠyByGyD xB
ĠzCjyAyE xFj
ĠzCjyAyE xA
ĠzCjyAyE yCj
ĠyDyCxGxC wE
ĠyDyCxGxC wDj
ĠzDyAyFj xD
ĠzDyAyFj yDxA
ĠyDjyCjxGjxCj wE
ĠyDjyCjxGjxCj wF
ĠzEyByG yCxG
ĠzCyEyC wA
ĠzFzCyGj yCjxGj
ĠzFjzCjyA yDxA
ĠzGzCyG xG
ĠzGzCyG yC
ĠzGzDyAj yDjxAj
ĠzGjzCjyGj xGj
ĠzGjzCjyGj yCj
ĠzAzDyA xA
ĠzAzDyA yD
ĠzAjzDjyAj xAj
ĠzAjzDjyAj yDj
ĠwAjwAwFwC vG
ĠxAjxA wF
ĠxAjxA xFwF
ĠwGjwEwC vFjvDjuGj
ĠyDwBwG wG
ĠyDwBwG vE
ĠyDwBwG wEwD
ĠyDjyCjxAj wDj
ĠyDjyCjxAj xDjwAjwDj
ĠyFxDwAj wAj
ĠyFxDwAj vG
ĠyFxDwAj wGwF
ĠyFjxDjwB wB
ĠyFjxDjwB vGj
ĠyFjxDjwB wGjwFj
ĠyAjyCjxAj xDj
ĠxGxCwAj wEwC
ĠxGjxCjwB wFwCj
ĠxDjwBwG vB
ĠxDwAjwFj vAj
ĠxCjwAwF vA
ĠxFwAjwGj wDvAj
ĠxEwAwG wCjvA
ĠxFjwBwA wDjvB
ĠxBxExD wE
ĠxBxExD wGjwE
ĠxEwEvB vGj
ĠxFwFwC vA
ĠxFjwFjwCj vAj
ĠyCxFxDj wF
ĠyCxFxDj wAwF
ĠxGwGwDjvAj vGj
ĠxGjwGjwEvB vA
ĠyCxCwA wFwC
ĠwAwFwCj vGvEuA
ĠyCjxCjwAj wFjwCj
ĠwGwDjvB vFvDuG
ĠxAjxCwAj wGjvGj
ĠxAjxCwAj wGwDvG
ĠxBxCjwB wAvA
ĠxBxCjwB wGjwDjvGj
ĠxAwBwA wFjwCjvFj
ĠxAwBwA wGvG
ĠxCwDwC vAvEuA
ĠxCjwDjwCj vAjvFuAj
ĠwDjvAjvFj uFj
ĠwDvAvF uF
ĠyDxGjxF wB
ĠyAjyFyCj xG
ĠyAjyFjyCj wFj
ĠwFjvAjvFj vDj
ĠwFvAvF vD
ĠyGxBxGxD wE
ĠwAjwDjvAjvG vDj
ĠwAwDvAvFj vD
ĠwGwDjvAjvG vDj
ĠwFjwDvAvFj vD
ĠzCyGjyDj xF
ĠzCyGjyDj yC
ĠwFwCjvGjvF vCj
ĠwEwCvGvE vC
ĠzDyAjyF xG
ĠzDyAjyF yD
ĠzDjyByFj xGj
ĠzDjyByFj yDj
ĠyDyCxA wD
ĠyDyCxA xDwAwD
ĠwGjwCjvGjvF vCj
ĠwGwCvGvE vC
ĠzEyByGj yCj
ĠzEyByGj yExB
ĠzBzEyB xB
ĠxExDjwB vB
ĠxFxE wC
ĠxFxExC wC
ĠxFjxF wCj
ĠxFjxFxCj wCj
ĠxDjxDwAj vAj
ĠxGxFjxD wD
ĠxGjxGxDj wDj
ĠxCwBwG vG
ĠxAxGj wE
ĠxAxGjxE wE
ĠwBwBwE vBvE
ĠwAjwAjwDj vAjvDj
ĠwAwGj wC
ĠwAwAwD vAvD
ĠwGjwG vB
ĠwGjwGjwCj vGjvCj
ĠwGwGwC vGvC
ĠwFjwFjvB vFjuB
ĠwFwFvAj vFuAj
ĠwEwEvA vEuA
ĠwDjwDjvGj vDjuGj
ĠwDjwCjvFj vCj
ĠwDwDvG vDuG
ĠwDwCvF vC
ĠvGvDj vC
ĠyAyG yD
ĠyAjyGj yDj
ĠxAxEwAwE wCj
ĠxFjxDwAj wD
ĠxFjxDwAj wEwCjvFj
ĠxFxCjwA wCj
ĠxFxCjwA wDjwCvF
ĠxExCwGj wC
ĠxExCwGj wDvBvE
ĠxFjxDjwA wC
ĠxFjxDjxC wFj
ĠxFjxDjxCj xCjwGjwCj
ĠxFxDwB wF
ĠxFxDxC xCwGwC
ĠxGxCwAjwDj vAj
ĠxGjxCjwBwE vB
ĠxExCjwB wBwFjvB
ĠxExCjwAj wE
ĠxDjxCwA wDj
ĠxDjxCwAj wAjwFvAj
ĠxFwAjwGjwCj vGj
ĠxEwAwGwC vG
ĠxFjwBwAwD vA
ĠxDwBwGj wD
ĠxDwBwA wAwEvA
ĠxDjwGjwFj vFj
ĠxDjwGjwFj wCvGj
ĠxDwGwF vF
ĠxDwGwF vBvG
ĠxEwEwCvG vF
ĠxFwFwCjvGj vFj
ĠxGjxFwB wD
ĠxGjxFxD wGj
ĠxGxEwAj wCj
ĠxGxExCj wG
ĠxCjwAjwGj wGjwDjvGj
ĠxAxFjxDj wA
ĠxAjxGxE wAj
ĠxCwAwG wGwDvG
ĠzCjyG yCj
ĠzCjyG yCjxAjxDj
ĠzCjyCjxA xD
ĠxCjwFjwDjvB vFjuB
ĠxCwFwDvAj vFuAj
ĠzDyDxAj xDj
ĠzDjyDjxB xE
ĠwBwEwCjvA vEuA
ĠwAjwDjwCvGj vDjuGj
ĠwAwDvBvG vDuG
ĠxGjwDjwC vFj
ĠxGwDvB vF
ĠxAjxFxCjwGjwDj vAj
ĠxFwCvA vDj
ĠxFjwCjvAj vE
ĠxBxFjxDwAwE vB
ĠxAwEwCj vG
ĠxEvBvGj vD
ĠxBwFjwDj vA
ĠyDjxDjxC wGjwDj
ĠyFyCwA wFwC
ĠyFjyCjwAj wFjwCj
ĠyCjxAxEwB wFjwCj
ĠyExExCj wAwE
ĠyDxAjxFxC wGwD
ĠyDjxBxFjxCj wGjwDj
ĠxGjwAjwGj wFwCvF
ĠxGwAwG wEvBvE
ĠyCxGjxDjwAj wFwC
ĠxFjxCwAj wFwCvF
ĠxGxCjwB wFjwCjvFj
ĠzFyF xF
ĠzFyF xAxD
ĠzFjyFj xFj
ĠzFjyFj xAjxDj
ĠxAjxExD wAwEvA
ĠxAxDjxCj wGjwDjvGj
ĠxGjxDxC wGwDvG
ĠxBxFxDj wAjwFvAj
ĠyAxAxF wD
ĠyAjxAjxFj wDj
ĠyAyEyCxF xC
ĠyAjyFyCjxFj xCj
ĠyExBxGjxD wB
ĠyByFjyDxG xD
ĠyGjyCxGjxDj wF
ĠzCyGyDjxGj xDj
ĠyAjyDxAjxF wG
ĠyByDjxBxFj wGj
ĠyAyCjxAxE wFj
ĠzDyAyF yCwD
ĠzDyAyFxAj xF
ĠzDjyAjyFj yCjwDj
ĠzDjyAjyFjxB xFj
ĠzCjyGjyExA xE
ĠzGjzDjyByE xB
ĠxExDwAj wFvAj
ĠxFxDjwB wFjvB
ĠxFjxExC wGwC
ĠxGwFwC vD
ĠxGxFxCj wGjwCj
ĠxGjwFjwCj vDj
ĠxGjxFjxD wAwD
ĠxCjwBwG wDvG
ĠyGxExC xC
ĠyGjxFxCj xCj
ĠxGjxDjwA wFvAj
ĠxGxDwGj wEvA
ĠyAxFjxD xD
ĠyAjxGxDj xDj
ĠvFjvD uB
ĠxBxFjxC wD
ĠxBxFjxC wGjwCj
ĠvFvCj uAj
ĠxFjxDxCj wD
ĠxFjxDxCj wFjwCjvFj
ĠxFxCjxC wCj
ĠxFxCjxC wFwCvF
ĠyBxAj xFjwDj
ĠyBxGjxE xE
ĠyByA yE
ĠvEvC uA
ĠyCxGxCj wDj
ĠyCxGxCj wAwD
ĠyCjxGjxD wE
ĠyCjxGjxD wAjwDj
ĠxFjxDjwBwE vB
ĠxFxDwAjwDj vAj
ĠxExCjwAwD vA
ĠxDjxCwGjwCj vGj
ĠxDwBwGwC vG
ĠxBxExDwG wD
ĠxGjxFxDj xDjwAjwDj
ĠxGxExD xDwAwD
ĠxAxFjxE xEwBwE
ĠxAxFjxDwG wD
ĠxAjxGxF xFxCwF
ĠxAjxGxDjwGj wDj
ĠyDxAxDj wF
ĠyDxAxDj wBwE
ĠyDjxAjxE wFj
ĠyDjxAjxE xCwF
ĠyCxFxDjwGj wDj
ĠzCyAj yF
ĠzCxAxF xF
ĠzCjyB yFj
ĠwAjvAjvG vDj
ĠwAvAvFj vD
ĠyDxGxFwAj wF
ĠyDjxGjxFjwB wFj
ĠyCxAxFwAj wF
ĠyCjxAjxFjwB wFj
ĠwGjvGjvF vCj
ĠwGvGvE vC
ĠyFyCxAj xC
ĠyFyCxAj xDjxCwF
ĠyCwGwE vAj
ĠxFwGwF wDvAvD
ĠxFwGvC uG
ĠxFjwGjwFj wDjvAjvDj
ĠxFjwGjvCj uGj
ĠxEwFjwE wCjvGjvCj
ĠxDjwFwDj wCvGvC
ĠxDwEwD vBvFjuB
ĠwEvBvCj vCj
ĠxAwBvE uB
ĠxCjwAwEwCjvFj vCj
ĠxCwGjwDjwCvF vC
ĠwDjvAjvC vC
ĠwDvAuB uB
ĠwBwGwDvBvE uB
ĠxGxCwGwF vA
ĠxGjxCjwGjwFj vAj
ĠzFyB yFyDxG
ĠzFjzC yFjyDjxGj
ĠxAjxDjwAjwGj wC
ĠxBxEwBwA wCj
ĠxAxDwAwG vB
ĠyDjxCwGj wGj
ĠyExCjwA wA
ĠyCxFxCwAj wD
ĠyCxDxC wAjvAj
ĠyCjxDjxCj wBvB
ĠyGyDxD xDwAjwG
ĠyGjyDjxDj xDjwBwGj
ĠzGzCj yGyExA
ĠyDxExD xCwC
ĠzGjzD yGjyFxAj
ĠyDjxFxDj xCjwCj
ĠyExFjxE xDwD
ĠyFxGxF xDjwDj
ĠyFjxGjxFj xEwE
ĠzFyAyF xD
ĠzFjyAjyFj xDj
ĠyAjyExAj xGxC
ĠyAyDjxA xFjwB
ĠyByFxB xGjxCj
ĠzCyFjyC xAxD
ĠzDyGjyD xBxE
ĠzDjyAyDj yCxF
ĠzEyAjyE yCjxFj
ĠxFwEwCvG vF
ĠxFjwFwCjvGj vFj
ĠxDwGjwDj vF
ĠxGwFjwDvA vG
ĠxGjwGwDjvAj vGj
ĠxCjwGwD vE
ĠxCwFjwCj vDj
ĠxAwGjwEvB vA
ĠwBwFwC vD
ĠwAjwGjwE vBvE
ĠwAwGjwE vBvFj
ĠwAwGwDj vAjvDj
ĠwGjwGwDj vAjvF
ĠwGwFjwD vAvE
ĠyCwBwG vE
ĠyCwBwGwD wC
ĠyCjxCwGj vF
ĠwFjwFwCj vGjvDj
ĠwFwEwC vGvD
ĠwEwDjvB vFjvCj
ĠyDxCjwA vFj
ĠyDwBwGwD wDvA
ĠyDjxDwAj vG
ĠyDjxDwAjwF wDj
ĠwDjwDvAj vFvC
ĠyExDjwB vGj
ĠyEyDxAxD wFj
ĠyExDjwBwFj wE
ĠyFxExC vA
ĠyFyDjxAjxDj wG
ĠyFxDwAjwF wFwC
ĠyFjxFxCj vAj
ĠyFjxDjwBwFj wFjwCj
ĠyGxFjxD vB
ĠyGjxGxDj wC
ĠyGjyDjxAj xG
ĠyAxGjxE wCj
ĠyAjxAxF wD
ĠxDjwBwGwCj vAjvDj
ĠxDwAjwFjwC vAvD
ĠxCjwAwFvB vGjvCj
ĠxBxGjxFjxFj xCjwFj
ĠyDxAxGxC wAwD
ĠyDjxAjxGjxCj wAjwDj
ĠwAjwFjwDvGj vFuAj
ĠxGwEwCvG vGvD
ĠxGjwFwCjvGj vGjvDj
ĠyExBxAxD wBwE
ĠwGjwCjvAjvFj vCjuFj
ĠwGwCvAvF vCuF
ĠyFjyCjxBxE xCjwFj
ĠxGjwAjwGjwFj vFj
ĠxGwAwGwF vF
ĠyDjxCwGjwDj wDjvAj
ĠyDjxCwGjwF wDj
ĠyExCjwAwFj wE
ĠyCxAjxFxC wAj
ĠyCjxBxFjxCj wB
ĠyDxGjxFjxCj wGjwCj
ĠyAjyFyCjxGj vAj
ĠyAjyFjyCjxGj xDjwAj
ĠwBwFjwDwCjvE uB
ĠwAjwFwCjwCvDj uAj
ĠwAwEwCvBvD uA
