{"<s>":0,"<pad>":1,"</s>":2,"<unk>":3,"<mask>":4,",":5,"A":6,"B":7,"C":8,"D":9,"E":10,"F":11,"G":12,"R":13,"j":14,"u":15,"v":16,"w":17,"x":18,"y":19,"z":20,"Ġ":21,"Ġx":22,"Ġw":23,"Ġy":24,"Aj":25,"Cj":26,"Dj":27,"Fj":28,"Gj":29,"Ġv":30,"ĠxE":31,"ĠxF":32,"ĠxFj":33,"ĠxDj":34,"ĠxD":35,"ĠxG":36,"ĠxGj":37,"ĠxCj":38,"ĠxC":39,"ĠxA":40,"ĠxAj":41,"ĠwB":42,"ĠxB":43,"ĠwAj":44,"ĠwA":45,"ĠwGj":46,"ĠwG":47,"wGj":48,"ĠyC":49,"wG":50,"ĠyCj":51,"wB":52,"wE":53,"wA":54,"wAj":55,"wFj":56,"wF":57,"wD":58,"wDj":59,"xC":60,"xCj":61,"ĠwFj":62,"wCj":63,"ĠwF":64,"wC":65,"xD":66,"xDj":67,"ĠwE":68,"vB":69,"ĠyD":70,"ĠyDj":71,"xE":72,"vAj":73,"vA":74,"ĠwDj":75,"ĠwD":76,"xF":77,"xFj":78,"vGj":79,"vG":80,"ĠwCj":81,"ĠwC":82,"ĠyE":83,"ĠR":84,"xG":85,"xGj":86,"vFj":87,"vF":88,"ĠyF":89,"ĠvB":90,"ĠyFj":91,"ĠvAj":92,"ĠvA":93,"xA":94,"xAj":95,"vE":96,"Ġz":97,"ĠyG":98,"ĠvGj":99,"ĠvG":100,"ĠyGj":101,"xB":102,"ĠxEwB":103,"ĠxFxC":104,"ĠxFjxCj":105,"vDj":106,"ĠxGjxDj":107,"ĠxGxD":108,"vD":109,"ĠxDwA":110,"ĠxDjwAj":111,"ĠyA":112,"ĠyAj":113,"ĠxAxE":114,"ĠvFj":115,"ĠxAjxF":116,"ĠxBxFj":117,"ĠvF":118,"ĠxCjwGj":119,"ĠxCwG":120,"ĠxFjxD":121,"ĠxGxDj":122,"ĠxFxCj":123,"ĠxExC":124,"ĠxGjxE":125,"ĠyB":126,"vCj":127,"vC":128,"ĠvE":129,"ĠwBwFj":130,"ĠwAjwF":131,"ĠwAwE":132,"yC":133,"ĠyCxG":134,"ĠyCjxGj":135,"yCj":136,"ĠxAxF":137,"ĠxAjxFj":138,"ĠxFjxDj":139,"ĠxFxD":140,"ĠxGxC":141,"ĠxGjxCj":142,"ĠxDjwB":143,"ĠxExCj":144,"ĠxDwAj":145,"ĠxCjwA":146,"ĠxCwGj":147,"ĠxDjxC":148,"ĠxFwAj":149,"ĠxEwA":150,"ĠxFjwB":151,"ĠxDwB":152,"ĠxAxD":153,"ĠxAjxDj":154,"ĠwBwG":155,"ĠxBxE":156,"ĠxDjwGj":157,"ĠxDwG":158,"ĠxEwE":159,"ĠxFwF":160,"ĠxFjwFj":161,"ĠxGjxF":162,"ĠxGxE":163,"ĠxCjwAj":164,"ĠxAxFj":165,"ĠxAjxG":166,"uB":167,"ĠxCwA":168,"ĠwGjwDj":169,"ĠwGwD":170,"ĠxBxGj":171,"ĠyDxA":172,"ĠyDjxAj":173,"ĠyCxF":174,"ĠyCjxFj":175,"ĠxDjwDj":176,"ĠxDwD":177,"ĠxGwG":178,"ĠxGjwGj":179,"ĠzC":180,"yD":181,"ĠxCjwCj":182,"ĠzCj":183,"ĠxCwC":184,"yDj":185,"ĠxBxG":186,"ĠvDj":187,"wAwD":188,"ĠvD":189,"wAjwDj":190,"ĠyCxGj":191,"uAj":192,"wGjwCj":193,"wGwC":194,"ĠyCjxA":195,"wFjvB":196,"ĠxAwA":197,"uA":198,"ĠxAjwAj":199,"ĠyDxAj":200,"wFvAj":201,"ĠyDjxB":202,"ĠxBwB":203,"wEvA":204,"wFjwCj":205,"wFwC":206,"ĠxGwC":207,"ĠxGjwCj":208,"ĠxFjvB":209,"ĠxFvAj":210,"ĠxEvA":211,"ĠxAwD":212,"ĠxAjwDj":213,"ĠwBvB":214,"ĠxEwC":215,"ĠxFwCj":216,"ĠxFjwD":217,"ĠxGwDj":218,"wBwE":219,"ĠxGjwE":220,"ĠxBwE":221,"ĠwAjvAj":222,"ĠwAvA":223,"ĠwFjwCj":224,"ĠwFwC":225,"xCwF":226,"xCjwFj":227,"ĠxCjwFj":228,"ĠxCwF":229,"wDjvGj":230,"wDvG":231,"ĠzD":232,"ĠxDjvGj":233,"ĠzDj":234,"ĠxDvG":235,"ĠwBwE":236,"ĠxCjwGjwCj":237,"ĠxCwGwC":238,"ĠvCj":239,"ĠyCxC":240,"ĠwAjwFj":241,"ĠwAwF":242,"ĠyCjxCj":243,"yE":244,"ĠvC":245,"wGjwE":246,"ĠyDxG":247,"ĠyDjxGj":248,"ĠxDwAwD":249,"vBvE":250,"ĠyCwF":251,"ĠyCjwFj":252,"ĠxDjwAjwDj":253,"xDjwB":254,"ĠxFwD":255,"ĠxFjwDj":256,"xDwAj":257,"ĠxDvB":258,"ĠxDjwC":259,"wGwDj":260,"ĠxEwCj":261,"ĠwAjwFvAj":262,"ĠwBwFjvB":263,"ĠxFjwA":264,"wFjwD":265,"ĠxDjvB":266,"ĠxDvAj":267,"ĠwAwEvA":268,"ĠxFwGj":269,"ĠxAwF":270,"ĠxAjwFj":271,"ĠxGwE":272,"ĠxEwG":273,"ĠxGwAj":274,"xDwG":275,"ĠxGjwF":276,"xDjwGj":277,"ĠxCjvA":278,"ĠxEwBwE":279,"ĠyCxA":280,"ĠyExB":281,"ĠxGjwB":282,"ĠxGjxC":283,"ĠxAxCj":284,"ĠyCjxAj":285,"ĠxCvGj":286,"ĠwAjwDj":287,"ĠyCjxGjxE":288,"ĠxGwB":289,"ĠwAwD":290,"wEwC":291,"ĠwBvG":292,"ĠxGjwDj":293,"ĠxGwD":294,"wFwCj":295,"ĠxAxExC":296,"ĠxAjxFxCj":297,"ĠxFwC":298,"ĠxFjwCj":299,"ĠxGjxDjwB":300,"ĠxGxDwAj":301,"ĠxBxFjxD":302,"ĠyCxGxDj":303,"ĠxAwFj":304,"ĠxFxCwGj":305,"ĠxFjxCjwA":306,"ĠxEwBwG":307,"ĠxAjwG":308,"yF":309,"ĠxBwGj":310,"ĠxCjvAj":311,"ĠxCvA":312,"ĠxAwE":313,"yFj":314,"ĠxAjwF":315,"ĠxAxC":316,"ĠxAjxCj":317,"ĠxEvB":318,"ĠxBwFj":319,"ĠwGjwCj":320,"ĠwGwC":321,"ĠwBwGj":322,"wAwF":323,"wAjwFj":324,"ĠwGjvGj":325,"ĠxDjvAj":326,"ĠxDvA":327,"ĠwGvG":328,"ĠyDxD":329,"ĠyDjxDj":330,"ĠxFjxDwA":331,"ĠxGxDjwAj":332,"ĠxGjxEwB":333,"ĠxFxCjwGj":334,"ĠxExCwG":335,"ĠxEwD":336,"ĠxDjwFj":337,"ĠxDwF":338,"ĠxFwDj":339,"ĠxFjwE":340,"ĠyCjxE":341,"xExC":342,"xFxCj":343,"ĠwGwDvG":344,"ĠwGjwDjvGj":345,"ĠxCjvFj":346,"ĠxFxCwF":347,"ĠxFjxCjwFj":348,"ĠxBwG":349,"ĠxCvF":350,"ĠyCwGj":351,"ĠxBxD":352,"xFjxD":353,"ĠwAjwG":354,"ĠwGjwE":355,"ĠwFwCj":356,"ĠwEwC":357,"ĠwGwDj":358,"ĠyCjwA":359,"xGxDj":360,"vAjvDj":361,"ĠxBvB":362,"ĠwFjwD":363,"ĠwGwE":364,"ĠyCxDj":365,"ĠyExA":366,"ĠxDjwCj":367,"ĠxDwC":368,"ĠxAvA":369,"ĠxAjvAj":370,"ĠyFjxB":371,"ĠyDwAj":372,"ĠyDjwB":373,"ĠyFxAj":374,"ĠyDwG":375,"ĠyDxAxF":376,"ĠyDjxAjxFj":377,"ĠxAxFxC":378,"ĠxAjxFjxCj":379,"ĠyDjwGj":380,"vAvD":381,"xGjxE":382,"ĠxGwF":383,"ĠxGjwFj":384,"ĠyCwC":385,"ĠyCjwCj":386,"ĠxCjwE":387,"ĠxCwDj":388,"ĠyDwD":389,"ĠyDjwDj":390,"ĠwBwD":391,"ĠwAjvFj":392,"ĠwAvF":393,"ĠyFyC":394,"ĠyFjyCj":395,"ĠwAwFj":396,"wFjwCjvFj":397,"wFwCvF":398,"ĠwGjwF":399,"ĠyDxF":400,"ĠyDjxFj":401,"ĠxCvAj":402,"ĠxCjvB":403,"ĠxGjxDjwGj":404,"ĠxGxDwG":405,"ĠxGjvGj":406,"ĠxGvG":407,"ĠyDxB":408,"ĠwBvA":409,"wAvA":410,"ĠxGjxDjxC":411,"wBwG":412,"ĠyCwG":413,"ĠyCjwGj":414,"ĠxAxExCj":415,"ĠxFwG":416,"ĠxAjxD":417,"ĠxCjvGj":418,"ĠxCvG":419,"ĠwFjwCjvFj":420,"ĠwFwCvF":421,"ĠxFjwGj":422,"ĠyCjxAxE":423,"ĠxBxDj":424,"ĠxFjwAj":425,"ĠzE":426,"yG":427,"ĠyDjyC":428,"uGj":429,"ĠyExE":430,"ĠyDxAjxF":431,"ĠyDjxBxFj":432,"ĠxFwA":433,"ĠuB":434,"ĠxEwFj":435,"ĠxAjxC":436,"ĠxAwG":437,"ĠxAjwGj":438,"ĠxDjwF":439,"ĠxDwE":440,"ĠyEyCj":441,"ĠxFjxDjwB":442,"ĠxEwGj":443,"ĠwFjvB":444,"vGjvCj":445,"vGvC":446,"ĠxFxDwAj":447,"ĠxGxDjxC":448,"ĠxGjxExCj":449,"uG":450,"ĠwAjwCj":451,"ĠwAwC":452,"ĠwFvAj":453,"ĠyFxA":454,"ĠyFjxAj":455,"wDjvB":456,"ĠxBxCj":457,"wDvAj":458,"ĠxGjwAj":459,"ĠwEvA":460,"ĠxDjwG":461,"vBvG":462,"ĠyEwE":463,"ĠxBxGxD":464,"ĠxFvF":465,"ĠxFjvFj":466,"ĠxGwA":467,"ĠwFjvFj":468,"wCjvA":469,"ĠwFvF":470,"ĠxGvAj":471,"yGj":472,"ĠxFjvA":473,"ĠxGjvB":474,"ĠxFvGj":475,"wCvGj":476,"ĠxFjxDwB":477,"ĠyCxGjxDj":478,"ĠxDwFj":479,"ĠxDjxCwGj":480,"ĠwEvB":481,"ĠxDwBwG":482,"ĠxCwE":483,"ĠxEvG":484,"ĠyFxF":485,"ĠyFjxFj":486,"ĠxCjwF":487,"ĠxAwB":488,"ĠwBvE":489,"ĠxFjxCjwAj":490,"ĠxFxCjwAj":491,"ĠxCwD":492,"ĠxCjwDj":493,"ĠxAwC":494,"ĠxAjwCj":495,"xDwD":496,"xDjwDj":497,"ĠyCwA":498,"ĠyCjwAj":499,"ĠxBxGjxE":500,"ĠxDjxCj":501,"ĠxDxC":502,"ĠxCjwAwE":503,"ĠxFjxE":504,"ĠxFxCwA":505,"ĠxCwGjwDj":506,"ĠxGjxFxCj":507,"ĠxGxExC":508,"ĠwBvGj":509,"ĠxDjwBwFj":510,"ĠxDwAjwF":511,"ĠwDjvAj":512,"ĠwDvA":513,"xFwAj":514,"ĠxAjxDwAj":515,"ĠxBxDjwB":516,"ĠyCxE":517,"ĠwBwGwD":518,"yDxAj":519,"ĠuAj":520,"ĠwAjvGj":521,"ĠwAvG":522,"ĠxGjxCwGj":523,"ĠxGxDwB":524,"yDjxB":525,"ĠxGwBwG":526,"ĠuA":527,"ĠxGjvAj":528,"ĠxGjxFj":529,"ĠxAvB":530,"ĠxAjwC":531,"ĠxBwD":532,"ĠxBwCj":533,"ĠxEvE":534,"ĠxGvA":535,"ĠxCwAj":536,"ĠwAjvG":537,"xFwF":538,"ĠyFwF":539,"ĠyFjwFj":540,"ĠxAjxFxD":541,"ĠxBxFjxDj":542,"ĠxFjxC":543,"ĠyDxFj":544,"ĠxBxGxE":545,"ĠyCjxAxFj":546,"ĠyCwDj":547,"ĠyCjwE":548,"ĠxGxCj":549,"wAwE":550,"ĠyDxAjxG":551,"ĠyDjxBxGj":552,"ĠxCjwB":553,"ĠwAvFj":554,"ĠxExD":555,"ĠxFxDj":556,"ĠxGxCwG":557,"ĠxGjxCjwGj":558,"ĠyCjxF":559,"ĠzF":560,"ĠxDwAwF":561,"ĠxDjwAjwFj":562,"ĠwEvE":563,"ĠyDjxG":564,"ĠzFj":565,"ĠxAjxDjwAj":566,"ĠwGjvF":567,"ĠxExCwA":568,"ĠxBxEwB":569,"ĠyEwA":570,"ĠwGvE":571,"ĠxAxFxD":572,"ĠxAjxFjxDj":573,"ĠyFwAj":574,"ĠwEvBvE":575,"ĠyExGj":576,"ĠyFjwB":577,"ĠxBwA":578,"xEwA":579,"ĠyCxExC":580,"ĠyCjxFxCj":581,"ĠxExCjwA":582,"ĠwBwCj":583,"ĠyDxFjxD":584,"ĠyDjxGxDj":585,"ĠxEwAwE":586,"ĠxGxF":587,"ĠxAxEwA":588,"ĠxAxDwA":589,"ĠxDjwGjwDj":590,"ĠxDwGwD":591,"ĠyCwAj":592,"ĠyCjwB":593,"ĠwFjwDj":594,"ĠwFwD":595,"ĠwDjvGj":596,"ĠwDvG":597,"ĠyExGjxE":598,"ĠxAjxE":599,"ĠyDwA":600,"ĠyDjwAj":601,"ĠxFwAjwF":602,"ĠxFjwBwFj":603,"ĠxAxDj":604,"ĠxAjxFwAj":605,"ĠxBxFjwB":606,"ĠxFwB":607,"ĠwCjvGj":608,"ĠyGyC":609,"ĠyGjyCj":610,"ĠxEwBwGj":611,"ĠxFvG":612,"ĠxFjvGj":613,"ĠwCvG":614,"ĠyExC":615,"ĠyFxCj":616,"ĠyCwD":617,"ĠyCjwDj":618,"vBvFj":619,"ĠyDjxC":620,"ĠyExCj":621,"ĠyGxG":622,"ĠwAjwC":623,"ĠwAvB":624,"vAjvF":625,"ĠyGjxGj":626,"ĠxGjxD":627,"wGjwDj":628,"ĠyFjxD":629,"xFjwB":630,"ĠyGxDj":631,"ĠyCxFxC":632,"ĠyCjxFjxCj":633,"ĠxAxG":634,"vAvE":635,"ĠxFxCjwGjwCj":636,"ĠxExCwGwC":637,"ĠxAxFjxD":638,"ĠxAjxGxDj":639,"ĠyDwB":640,"ĠyGjxE":641,"ĠyCxGjxF":642,"ĠxGvB":643,"ĠxAjxGj":644,"ĠxFjxDwAwD":645,"ĠxCjwAwEvA":646,"ĠyCjxAjxFj":647,"ĠxBwDj":648,"ĠwAjvDj":649,"ĠxDjvFj":650,"ĠxGjwC":651,"ĠxAwCj":652,"ĠxAjwD":653,"ĠwBwA":654,"ĠyExG":655,"ĠxGxDjwAjwDj":656,"ĠxDjwBwFjvB":657,"ĠxDwAjwFvAj":658,"ĠxCwGjwDjvGj":659,"ĠwBwGwDvG":660,"ĠxDvF":661,"ĠwAvD":662,"ĠxGjxEwBwE":663,"ĠxCjwAjwFj":664,"ĠxCwAwF":665,"ĠxAxCjwA":666,"ĠyCxD":667,"ĠyCjxDj":668,"ĠxEwBwGjwE":669,"ĠxAjxDjxC":670,"yA":671,"ĠwBvFj":672,"ĠyFxGj":673,"ĠxFjxDjvB":674,"ĠxFxDvAj":675,"ĠxBxExCj":676,"ĠyDjxAjxG":677,"yAj":678,"ĠwGjvAj":679,"ĠwGvA":680,"ĠwDjvAjvDj":681,"ĠxGjxFwCj":682,"ĠxGxEwC":683,"ĠxAxFjwD":684,"ĠxAjxGwDj":685,"ĠwBwDj":686,"ĠxExCjvA":687,"ĠwAwCj":688,"ĠyCxGxE":689,"ĠyGyD":690,"ĠxDjxCvGj":691,"ĠxEvFj":692,"ĠwAjwD":693,"ĠyEwB":694,"ĠxDjwAjwGwDj":695,"yDjxAj":696,"ĠyEyC":697,"ĠyGyE":698,"ĠxDwAwFjwD":699,"ĠwAjvF":700,"ĠwAwG":701,"ĠwAvE":702,"ĠwGjvB":703,"ĠyGxC":704,"ĠyGjxCj":705,"ĠyGjyF":706,"ĠxDjvF":707,"ĠwGjwC":708,"wGjwDjvGj":709,"ĠyCvA":710,"ĠyCjvAj":711,"ĠyFyCj":712,"ĠyGwG":713,"ĠyCjxGjxF":714,"ĠyDxAxFj":715,"ĠxFvA":716,"ĠxFjvAj":717,"ĠyGjwGj":718,"ĠxFjxDwD":719,"ĠxGxDjwDj":720,"ĠxFxCjwCj":721,"ĠxExCwC":722,"ĠwDvAvD":723,"ĠyFjxA":724,"ĠxCjwGjwFwCj":725,"ĠxCwGwEwC":726,"ĠxDvE":727,"ĠxBxF":728,"ĠwGvB":729,"ĠyCjxG":730,"wDvA":731,"ĠyDvB":732,"ĠyAyFj":733,"ĠyAjyG":734,"ĠxGjxEwE":735,"yDxA":736,"wEvB":737,"ĠyDjwC":738,"ĠyEwCj":739,"ĠxDwBvG":740,"ĠxBxGjwE":741,"ĠyFjxAjxFj":742,"ĠyCxFj":743,"ĠyGxAj":744,"wDjvAj":745,"ĠyGjyDj":746,"ĠxAxDwB":747,"ĠwGjvFj":748,"ĠyDwF":749,"ĠxEwAj":750,"ĠwGvAj":751,"ĠwGvF":752,"wCjvGj":753,"wCvG":754,"ĠyDjwFj":755,"xGjxCj":756,"ĠxFxCwG":757,"ĠxDjwAjwG":758,"ĠxAvFj":759,"ĠxAjvG":760,"ĠxBvGj":761,"ĠyGjxB":762,"ĠxDwAwFj":763,"ĠxDjvDj":764,"ĠxDvD":765,"ĠxGjvF":766,"ĠyDjxA":767,"ĠwDjvDj":768,"ĠwDvD":769,"ĠxDjwA":770,"ĠyFwD":771,"ĠyFjwDj":772,"ĠxFxCwAwF":773,"ĠxFjxCjwAjwFj":774,"ĠyAjxFj":775,"ĠxCwGwE":776,"ĠxGvE":777,"ĠyAxF":778,"ĠxGjxCjwAj":779,"ĠyCxAxF":780,"ĠwBwGjwE":781,"ĠyGjyE":782,"ĠxCjwGjwF":783,"ĠxGjxDjwAj":784,"wGjvGj":785,"ĠxGxCwC":786,"ĠxGjxCjwCj":787,"ĠxAxFxCwF":788,"ĠxAjxFjxCjwFj":789,"ĠxEwF":790,"ĠxEvGj":791,"ĠxFwFj":792,"ĠxFjwG":793,"ĠxGwGj":794,"wGwDvG":795,"ĠwFjvDj":796,"ĠwFvD":797,"ĠyExAj":798,"ĠxGxDwA":799,"ĠxBxA":800,"ĠwAjwFjwCj":801,"ĠwAwFwC":802,"ĠwFjvA":803,"ĠyDxC":804,"ĠyDjxCj":805,"ĠvBvFj":806,"ĠxFjxCjwGj":807,"ĠwAjwGj":808,"ĠwEwCj":809,"xGxC":810,"ĠyAxD":811,"ĠyAjxDj":812,"ĠxDwGj":813,"ĠwDjwC":814,"ĠwCjvFj":815,"ĠwCvF":816,"ĠxAxDwD":817,"ĠxAjxDjwDj":818,"ĠvAjvF":819,"ĠxEwBwFj":820,"ĠxDjwAjwF":821,"yB":822,"ĠxFwAwF":823,"ĠxFjwAjwFj":824,"ĠxGjwA":825,"ĠxAwAj":826,"ĠxAjwB":827,"ĠwFvGj":828,"ĠyFyD":829,"ĠyFjyDj":830,"ĠvAvE":831,"ĠxDwAwE":832,"ĠxAxFwF":833,"ĠxAjxFjwFj":834,"ĠwEvG":835,"ĠyFxD":836,"ĠyFjxDj":837,"ĠxDjwBvB":838,"ĠxDwAjvAj":839,"ĠxCjwAvA":840,"ĠyFxAxF":841,"ĠwBwGvG":842,"ĠxCjvCj":843,"ĠxCvC":844,"ĠxAvG":845,"ĠwAjwGwDj":846,"ĠwAwFjwD":847,"ĠwGjvCj":848,"ĠwGvC":849,"ĠyCxAj":850,"ĠyCjxB":851,"wEvBvE":852,"ĠyAxA":853,"ĠyAjxAj":854,"ĠxCwGjvGj":855,"ĠxFvFj":856,"ĠxFjvG":857,"ĠxGvGj":858,"ĠxAvAj":859,"ĠxAjvB":860,"ĠxAjvGj":861,"ĠwGjwFwCj":862,"ĠwGwEwC":863,"ĠxFwAjvAj":864,"ĠxEwAvA":865,"ĠxFjwBvB":866,"ĠxBxEwE":867,"ĠxEvF":868,"ĠxGjvA":869,"ĠwDjvB":870,"ĠwDvAj":871,"ĠxGxDwBwG":872,"ĠxAxEwB":873,"ĠxAjxFxC":874,"ĠxCjwGjwDj":875,"ĠxCwGwD":876,"ĠxFjxDjwAj":877,"ĠxBwC":878,"ĠwAjwFjwCjvFj":879,"ĠwAwFwCvF":880,"ĠyCwCj":881,"ĠyCjwD":882,"ĠyDwDj":883,"ĠwDvB":884,"ĠyAyE":885,"ĠyByGj":886,"ĠxGxCwA":887,"ĠxDjvG":888,"ĠxDvFj":889,"ĠyCwE":890,"ĠyDwE":891,"ĠyDxGj":892,"ĠxGxDwD":893,"ĠxBxFjxCj":894,"ĠxBvA":895,"ĠyCvAj":896,"ĠyCjwF":897,"ĠyCjvB":898,"ĠwFjvGj":899,"ĠyDjwE":900,"ĠxBxFjxDjwB":901,"ĠxDjwGjvGj":902,"ĠxDwGvG":903,"ĠyDxBxG":904,"ĠwGjvE":905,"ĠyDjwF":906,"ĠxFxCwC":907,"ĠxFjxCjwCj":908,"ĠxGjxDjwDj":909,"ĠyAjyF":910,"ĠxAjxFxDwAj":911,"ĠxFxDwA":912,"uFj":913,"ĠxCjvF":914,"wCjvFj":915,"ĠwFvG":916,"wCvF":917,"ĠyDjwG":918,"ĠwCjvA":919,"ĠyFxC":920,"ĠyFjxCj":921,"ĠyGxB":922,"ĠyExBxGj":923,"uF":924,"ĠxCvE":925,"ĠxBvG":926,"ĠwGjvDj":927,"ĠwGvD":928,"ĠyCvGj":929,"ĠyDwFj":930,"ĠyDvAj":931,"ĠyDjvB":932,"ĠyEwFj":933,"ĠyAyF":934,"ĠyAjyFj":935,"ĠxAxExCjwA":936,"wGwD":937,"ĠyCjvA":938,"ĠzG":939,"ĠyGjyC":940,"ĠxAxEwE":941,"ĠyByFj":942,"ĠxFjxDjwAjwDj":943,"ĠxFxDwAwD":944,"ĠyDjyCxGj":945,"ĠxEwBvB":946,"ĠxFxCwAj":947,"ĠxFjxCjwB":948,"ĠxExCjwGjwCj":949,"ĠxDjxCwGwC":950,"ĠxDwBwFjvB":951,"ĠwFjvAj":952,"ĠwFvA":953,"ĠyDxE":954,"ĠwCvGj":955,"ĠzGj":956,"ĠxAjxFwF":957,"ĠxBxFjwFj":958,"ĠxCjwAjvFj":959,"ĠxCjwAjwFvAj":960,"ĠxCwAvF":961,"ĠxEwGjwE":962,"ĠxDjwE":963,"ĠwCjvGjvCj":964,"ĠwCvGvC":965,"ĠvBvG":966,"ĠxCwAwEvA":967,"ĠyCxFxD":968,"ĠyCjxFjxDj":969,"wGvG":970,"ĠyDjxF":971,"ĠxCwCj":972,"xEwE":973,"ĠxGjxDjvGj":974,"ĠxGxDvG":975,"ĠyAyCj":976,"ĠwBwFjwDjvB":977,"ĠwAjwFwDvAj":978,"ĠxEwAwFj":979,"ĠxGjxFxC":980,"ĠyCxFwF":981,"ĠyCjxFjwFj":982,"ĠxDjwGwDj":983,"ĠxDwFjwD":984,"ĠxCjwD":985,"ĠxCjwFjwCj":986,"ĠxCwFwC":987,"ĠwBwC":988,"xCjwCj":989,"ĠyDwC":990,"ĠyDjwCj":991,"ĠwCjvAj":992,"ĠwCvA":993,"ĠyEwGj":994,"ĠyExFj":995,"ĠyAyD":996,"ĠyAjyDj":997,"ĠyBxE":998,"ĠyByE":999,"ĠxDjwGjwF":1000,"ĠxDwGwE":1001,"ĠxDwDj":1002,"ĠxDjwAjvAj":1003,"ĠwAwEwCjvA":1004,"ĠxGxEwB":1005,"ĠxGvF":1006,"ĠxGjvFj":1007,"ĠxCjwG":1008,"ĠxCjwFwCj":1009,"ĠxCwEwC":1010,"ĠxFxCwD":1011,"ĠxFxCvF":1012,"ĠxFjxCjwDj":1013,"ĠxFjxCjvFj":1014,"ĠxDwAvA":1015,"ĠyBxB":1016,"ĠwGjwDjwCvGj":1017,"ĠwGwDvBvG":1018,"ĠyEyCjxA":1019,"ĠxCjvE":1020,"ĠxCvDj":1021,"ĠwGjwFj":1022,"ĠwGwF":1023,"ĠwGvDj":1024,"xCwC":1025,"ĠyFjyD":1026,"ĠyGyDj":1027,"vDjuGj":1028,"ĠxExCjwCj":1029,"ĠxDjxCwC":1030,"ĠxDwBvB":1031,"ĠxAxDwAj":1032,"ĠxAjxDjwB":1033,"ĠyExBxG":1034,"ĠxAxExCvA":1035,"ĠxAjxFxCjvAj":1036,"ĠyFjyCjxA":1037,"ĠxCwFj":1038,"ĠxAvF":1039,"ĠxAjvFj":1040,"ĠyGyDxAj":1041,"ĠyGjyDjxB":1042,"vDuG":1043,"ĠxFjxDjwDj":1044,"ĠxFxDwD":1045,"ĠxExCjwGj":1046,"ĠxDjxCwG":1047,"ĠxDwBwFj":1048,"ĠxCjwAjvAj":1049,"ĠxCwAvA":1050,"ĠyCjxGjxEwCj":1051,"ĠxBxFjxDvB":1052,"ĠyCxGxDjwC":1053,"ĠyFyCxA":1054,"ĠyFjyCjxAj":1055,"ĠxFjxDjwBvB":1056,"ĠxFxDwAjvAj":1057,"ĠwEvFj":1058,"ĠxGjxFwF":1059,"ĠxGjxFxCwF":1060,"ĠxGxEwE":1061,"ĠxGxEwBwE":1062,"ĠxAxFjwFj":1063,"ĠxAxFjxCjwFj":1064,"ĠxAjxGwG":1065,"ĠyCxAwF":1066,"ĠyCjxAjwFj":1067,"ĠwBvD":1068,"ĠwDjvF":1069,"ĠwDvE":1070,"ĠxAxEvA":1071,"ĠxAjxFvAj":1072,"ĠxBxFjvB":1073,"ĠxExCjwAvA":1074,"ĠxAxDwAwD":1075,"ĠxAxFjxCj":1076,"ĠxAxFjxDwD":1077,"ĠxAjxGxD":1078,"ĠxAjxGxDwG":1079,"ĠxAjxGxDjwDj":1080,"ĠxBxGjxDj":1081,"ĠxBxGjxDjwGj":1082,"ĠxGjxDjxCwGj":1083,"ĠxDwBwGvG":1084,"ĠxGjxFxCjwCj":1085,"ĠxGxExCwC":1086,"ĠyEwC":1087,"ĠyFwCj":1088,"ĠyFjwD":1089,"ĠyGwDj":1090,"ĠxEwBwCj":1091,"ĠxDwAvB":1092,"ĠxDjwAjwC":1093,"ĠxFwAjwG":1094,"ĠxFjwBwGj":1095,"ĠxAjxDjwAjwDj":1096,"ĠxBxEwBwE":1097,"ĠxAxExCwC":1098,"ĠxAjxFxCjwCj":1099,"ĠxBxFjxDwD":1100,"ĠyCxGxDjwDj":1101,"ĠyFyCxGj":1102,"ĠwBwF":1103,"ĠwFjvD":1104,"ĠxCwGwDj":1105,"ĠwBwFjwD":1106,"ĠxGxCwGwC":1107,"ĠxGjxCjwGjwCj":1108,"ĠxFwAjwFj":1109,"ĠxEwAwF":1110,"ĠxCjwAjwF":1111,"ĠxCwAwE":1112,"ĠxBxGjwGj":1113,"ĠxBxGwG":1114,"ĠyCxGjwGj":1115,"ĠyCjxGjxEwE":1116,"ĠxGjxDjwBvB":1117,"ĠxGxDwAjvAj":1118,"ĠxFxCwGjvGj":1119,"ĠxFjxCjwAvA":1120,"ĠxEwBwGvG":1121,"ĠxDjxCwGjvGj":1122,"ĠwFjwE":1123,"ĠwFwDj":1124,"ĠwEwD":1125,"xFjwFj":1126,"ĠxCjwGjvAj":1127,"ĠxCwGvA":1128,"ĠxCwGvG":1129,"ĠxFwAjwFvAj":1130,"ĠxEwAwEvA":1131,"ĠxFjwBwFjvB":1132,"ĠxDjwGjwDjvGj":1133,"ĠxDwGwDvG":1134,"ĠyCjxAwA":1135,"ĠyDxAjwAj":1136,"ĠyDjxBwB":1137,"ĠwFjvE":1138,"xBxE":1139,"ĠxCjwGjvGj":1140,"ĠxAjxFxDvAj":1141,"ĠxBxFjxDjvB":1142,"vAjvFj":1143,"vAvF":1144,"ĠxCjwGjwE":1145,"ĠwAjwFwCj":1146,"ĠwAwEwC":1147,"yCxF":1148,"yCjxFj":1149,"ĠxBxGjxEwE":1150,"xCwGj":1151,"xCjwA":1152,"ĠwFvCj":1153,"ĠwEvC":1154,"ĠyGjwE":1155,"ĠxEwBvE":1156,"ĠyCxGwC":1157,"ĠyCjxGjwCj":1158,"ĠzCyF":1159,"ĠzCjyFj":1160,"ĠxGjxDjxCvGj":1161,"ĠxBxC":1162,"ĠwFvDj":1163,"ĠyBxG":1164,"ĠzCxGj":1165,"ĠzCjxA":1166,"ĠzDxAj":1167,"ĠzDjxB":1168,"ĠxAxExCjvA":1169,"ĠyCxCj":1170,"ĠyFwG":1171,"ĠyFyDxAj":1172,"ĠyFjwGj":1173,"ĠxGjxDjwF":1174,"ĠxGxDwE":1175,"ĠyCxGxC":1176,"ĠyCjxGjxCj":1177,"yDjxAjxDj":1178,"ĠxFvDj":1179,"ĠxFjvE":1180,"ĠwBuB":1181,"ĠyCjxD":1182,"xDwAwD":1183,"xDjwAjwDj":1184,"ĠwEvD":1185,"ĠyDxDj":1186,"ĠyEwD":1187,"ĠyFjyDjxB":1188,"vEuA":1189,"ĠyDxAxFwD":1190,"ĠyDjxAjxFjwDj":1191,"ĠuGj":1192,"ĠxEvD":1193,"ĠxCjvDj":1194,"ĠxCvD":1195,"ĠyFwDj":1196,"ĠyFjwE":1197,"ĠyGwE":1198,"ĠxFjxDvB":1199,"ĠxGxDjwC":1200,"ĠxFxCjvAj":1201,"ĠxExCvA":1202,"ĠxGjxEwCj":1203,"ĠzCxF":1204,"ĠzCjxFj":1205,"ĠxBxGxDwG":1206,"ĠyCxGjxDjwGj":1207,"ĠxGxDwBvG":1208,"vBvFjuB":1209,"vAjvFuAj":1210,"ĠwDjvFj":1211,"ĠwDvF":1212,"ĠxAxEwFj":1213,"ĠxAjxFwG":1214,"ĠxBxFjwGj":1215,"ĠwEvCj":1216,"ĠyGjwF":1217,"ĠxDjwGjwCj":1218,"ĠxDwGwC":1219,"ĠyCxFxCwF":1220,"ĠyCjxFjxCjwFj":1221,"ĠwAjwFjvFj":1222,"ĠwAwFvF":1223,"ĠyDxGxD":1224,"ĠyDjxGjxDj":1225,"ĠxGjxDjwBvGj":1226,"ĠxGxDwAjvG":1227,"ĠxFxCwGjvF":1228,"ĠxFjxCjwAvFj":1229,"ĠxFvD":1230,"ĠxFjvDj":1231,"ĠwAjuAj":1232,"ĠwAuA":1233,"ĠyDjxE":1234,"ĠwDjvC":1235,"ĠxEwBwA":1236,"ĠxBxExC":1237,"ĠyCxFxCj":1238,"ĠyFjxBxGj":1239,"ĠyFxAjxG":1240,"ĠyCjxAxEwA":1241,"ĠyDxAjxFwAj":1242,"ĠyDjxBxFjwB":1243,"vAvEuA":1244,"ĠyCxGxEwC":1245,"ĠyCjxGjxFwCj":1246,"ĠxAvE":1247,"ĠxAjvF":1248,"ĠxBvFj":1249,"wDvAvD":1250,"vGjvDj":1251,"vGvD":1252,"ĠxGjxDjxCj":1253,"ĠxGxDxC":1254,"ĠyAwFj":1255,"ĠyAjwG":1256,"ĠxFjxDwFj":1257,"ĠxGxDjwG":1258,"ĠxFxCjwF":1259,"ĠxExCwE":1260,"ĠyBwGj":1261,"ĠxFwAjwDj":1262,"ĠxEwAwD":1263,"ĠxFjwBwE":1264,"ĠyCjxFjxD":1265,"ĠyDjxGjxE":1266,"ĠxEwBwGvE":1267,"ĠxFjxDwAvB":1268,"ĠxGxDjwAjwC":1269,"ĠxGjxEwBwCj":1270,"ĠyDjxAjxGwDj":1271,"ĠyDxAxFjwD":1272,"yDxAxD":1273,"ĠwDuB":1274,"ĠwCjvCj":1275,"ĠwCvC":1276,"ĠxGjxEwGj":1277,"ĠyDxGxDj":1278,"ĠxFxCjwGjvAj":1279,"ĠxExCwGvA":1280,"ĠyCxExCvA":1281,"ĠyCjxFxCjvAj":1282,"wDjvAjvDj":1283,"ĠwFjuB":1284,"ĠwFuAj":1285,"vFjuB":1286,"vFuAj":1287,"ĠyFwA":1288,"ĠvBvE":1289,"ĠyFjwAj":1290,"ĠyGxE":1291,"ĠyGjxF":1292,"ĠyAxFj":1293,"ĠyAjxG":1294,"ĠyDxAwD":1295,"ĠyDjxAjwDj":1296,"ĠyDxFjxDvB":1297,"ĠyDjxGxDjwC":1298,"ĠyExGjxEwCj":1299,"vFjvCj":1300,"vFvC":1301,"ĠyBxGj":1302,"ĠxCjwAwFj":1303,"ĠxCwGjwF":1304,"ĠwBwGwE":1305,"ĠyDxGxE":1306,"ĠyDjxGjxF":1307,"ĠwGjwEvBvE":1308,"ĠyExAxE":1309,"ĠyFjxBxFj":1310,"ĠyFxAjxF":1311,"ĠxGxDjxCwGwC":1312,"ĠxGjxExCjwGjwCj":1313,"ĠxFjxDwBwFjvB":1314,"ĠyGyEyC":1315,"ĠyGjyFyCj":1316,"ĠxDjvA":1317,"ĠxEwBvA":1318,"ĠxFxCvAj":1319,"ĠxFjxCjvB":1320,"ĠyAwA":1321,"ĠyAjwAj":1322,"ĠxBxFjxE":1323,"ĠxGjxCjwA":1324,"ĠxCjwFjwDj":1325,"ĠxCwFwD":1326,"ĠxFjxDjwBwFjvB":1327,"zC":1328,"zCj":1329,"ĠuG":1330,"ĠwEuA":1331,"ĠyExD":1332,"ĠyFxDj":1333,"ĠxAxFwD":1334,"ĠxAjxFjwDj":1335,"ĠxGxCwGj":1336,"ĠxFjwBwG":1337,"ĠyCjxGjxEwB":1338,"ĠyCxGxDjwAj":1339,"ĠwGwDjvAjvDj":1340,"ĠyExAxFj":1341,"ĠxFxDwAjwFvAj":1342,"ĠyGxBxG":1343,"ĠxEvAj":1344,"ĠwEvGj":1345,"ĠyAjyD":1346,"ĠyByDj":1347,"ĠyCxGxExC":1348,"ĠyCjxGjxFxCj":1349,"ĠxFjxDwAwFjwD":1350,"ĠxGxDjwAjwGwDj":1351,"ĠxGjxEwBwGjwE":1352,"ĠxFxCjwGjwFwCj":1353,"ĠxExCwGwEwC":1354,"ĠxFjxCjwAjvFj":1355,"ĠxFxCwAvF":1356,"ĠxAxFxDwAwD":1357,"ĠxAjxFjxDjwAjwDj":1358,"ĠyGjyCxGj":1359,"ĠxFvB":1360,"ĠxFjwC":1361,"ĠxDvGj":1362,"ĠyCvG":1363,"ĠyCjvGj":1364,"ĠwDjwCj":1365,"ĠwDwC":1366,"ĠyFjxE":1367,"xAxF":1368,"ĠxFxCwAwD":1369,"ĠxFjxCjwAjwDj":1370,"ĠxGxCwF":1371,"ĠxGjxCjwFj":1372,"ĠxDjwBwGj":1373,"ĠxDwAjwG":1374,"ĠxAxDwG":1375,"ĠxAjxDjwGj":1376,"ĠwBwEvB":1377,"ĠyCxAxFwF":1378,"ĠxAxExCwG":1379,"ĠwFjwDvAvD":1380,"ĠxAxFxCwD":1381,"ĠxAjxFjxCjwDj":1382,"ĠyCjxAjxFjwFj":1383,"ĠxGjwD":1384,"ĠxAjwA":1385,"ĠxBwAj":1386,"ĠwAjvCj":1387,"ĠwAvC":1388,"ĠwFjwDjvB":1389,"wCjvGjvCj":1390,"ĠwFwDvAj":1391,"wCvGvC":1392,"ĠwDjvG":1393,"ĠwDvFj":1394,"ĠxEwBwGjwCj":1395,"ĠxFxCvA":1396,"ĠxFjxCjvAj":1397,"ĠxDwAwFjvB":1398,"ĠxDjwAjwGwC":1399,"ĠxCjwGjwFvAj":1400,"ĠxCwGwEvA":1401,"yCjxAj":1402,"ĠzCyG":1403,"ĠzCjyGj":1404,"ĠxAjxFxCjwGj":1405,"ĠxBxFjxDwA":1406,"ĠxAwGj":1407,"ĠxAwBwG":1408,"wBwFj":1409,"wAwFj":1410,"ĠyFxG":1411,"ĠyFjxGj":1412,"ĠvAjvFj":1413,"ĠvAvF":1414,"ĠxEwBvG":1415,"ĠxExCwAvA":1416,"ĠwBwFjwCj":1417,"ĠxGxCvA":1418,"ĠxGjxCjvAj":1419,"ĠxDjwBwDj":1420,"ĠxDwAjwD":1421,"ĠxCjwAvFj":1422,"ĠxCwGjvF":1423,"ĠwBwGvE":1424,"ĠxAxCjwAvA":1425,"ĠwFwCjvGjvCj":1426,"ĠwEwCvGvC":1427,"ĠxGxDjxCwC":1428,"ĠxGjxExCjwCj":1429,"ĠxFjxDwBvB":1430,"ĠxFxCjwAjvAj":1431,"ĠxAjxDwAjvAj":1432,"ĠxBxDjwBvB":1433,"ĠxDwAwFvF":1434,"ĠxDjwAjwFjvFj":1435,"ĠxFwBwG":1436,"ĠxGwCj":1437,"wGjvAj":1438,"wGvA":1439,"wAwEvA":1440,"wAjwF":1441,"ĠwFjvCj":1442,"ĠwFvC":1443,"ĠwEwCjvA":1444,"ĠyDxDwAj":1445,"ĠyDjxDjwB":1446,"ĠyGwF":1447,"ĠyGjwFj":1448,"ĠxFxCvGj":1449,"ĠxFjxCjvA":1450,"ĠxGjxDjvB":1451,"ĠxGxDvAj":1452,"ĠxGxDwAwD":1453,"ĠxFjxDwE":1454,"ĠxGxDjwF":1455,"ĠxFxCjwDj":1456,"ĠxExCwD":1457,"ĠwBwFjwDj":1458,"ĠwAjwFwD":1459,"ĠwAwEwCj":1460,"ĠxAxFxDwD":1461,"ĠxAjxFjxDjwDj":1462,"ĠxDjwBvGj":1463,"ĠxDwAjvG":1464,"ĠxAxDvB":1465,"ĠxAjxDjwC":1466,"ĠxBxEwCj":1467,"ĠyDxAxFjxD":1468,"ĠyCxGjxFwF":1469,"ĠyExBxE":1470,"ĠwAjwDjvAj":1471,"ĠwAwDvA":1472,"ĠyDjyCxG":1473,"ĠyEyCjxGj":1474,"ĠxAjxDwAjvG":1475,"ĠxBxDjwBvGj":1476,"ĠxGjxCwGjvF":1477,"ĠxGwBwGvE":1478,"ĠxBxGxEwE":1479,"ĠyCjxAxFjwFj":1480,"ĠyDxAjxGwG":1481,"ĠyDjxBxGjwGj":1482,"ĠxExCjwAwEvA":1483,"ĠxAxCjwAvFj":1484,"ĠyFjxAjxFjwDj":1485,"ĠyFxAxFwD":1486,"ĠxAwDj":1487,"ĠxAjwE":1488,"ĠyCxDwAj":1489,"ĠyCjxDjwB":1490,"wFjvGj":1491,"wFvG":1492,"ĠyDvA":1493,"ĠyDjvAj":1494,"vAjvCj":1495,"vAvC":1496,"ĠwDjwCvGj":1497,"ĠwCjvF":1498,"ĠwCjuAj":1499,"ĠwCvE":1500,"ĠwCuA":1501,"ĠyEwG":1502,"ĠyGxD":1503,"ĠxGjxDjwAjwDj":1504,"ĠxDwAvG":1505,"ĠxDwAvD":1506,"ĠxDjwAjvGj":1507,"ĠxDjwAjvDj":1508,"ĠyAyC":1509,"ĠyAjyDxAj":1510,"ĠxAxExD":1511,"ĠxAxEwBwE":1512,"ĠxAjxFxDj":1513,"ĠxAjxFxCwF":1514,"ĠxBxFjxCjwFj":1515,"ĠxGjxEwFj":1516,"ĠyByDjxB":1517,"ĠwAjwFwC":1518,"ĠwAwEvB":1519,"ĠyCxGwG":1520,"ĠyCjxGjwGj":1521,"ĠyDxAxD":1522,"ĠyDjxAjxDj":1523,"ĠyDjxAjxGxDj":1524,"ĠzCyC":1525,"ĠzDyG":1526,"ĠzDjyGj":1527,"ĠxGjxFxCjwGjwCj":1528,"ĠxGxExCwGwC":1529,"ĠyCxExCwC":1530,"ĠyCjxFxCjwCj":1531,"ĠyDxFjxDwD":1532,"ĠyDjxGxDjwDj":1533,"ĠxEwBwGjvE":1534,"ĠxAxFjxDwAwD":1535,"ĠxAjxGxDjwAjwDj":1536,"ĠyEyCxG":1537,"ĠyFyCjxGj":1538,"ĠyDxBxGxDwG":1539,"ĠyDjyCxGjxDjwGj":1540,"ĠyAyCjxA":1541,"zD":1542,"ĠxCjvG":1543,"ĠxAxDjwB":1544,"ĠyExExC":1545,"ĠyFxFxCj":1546,"ĠyFjxFjxD":1547,"ĠyGjxDj":1548,"ĠyGjxGjxE":1549,"ĠxEwBvGj":1550,"ĠxGjxDjwCj":1551,"ĠxGxDwC":1552,"ĠxDwAvFj":1553,"ĠxDjwAjvG":1554,"ĠxCjwGjvF":1555,"ĠxCwGvE":1556,"ĠxDjwBwCj":1557,"ĠxDwAjwC":1558,"ĠxCjwAwCj":1559,"ĠxCjwAvB":1560,"ĠxCwGjwC":1561,"ĠxCwGjvAj":1562,"ĠwBwGvB":1563,"ĠwBwGvA":1564,"ĠyCxFwD":1565,"ĠyCjxFjwDj":1566,"ĠxBxGwE":1567,"ĠyCxGjwF":1568,"ĠyCjxAwFj":1569,"ĠxCjwFjvFj":1570,"ĠxCwFvF":1571,"ĠyCxAxE":1572,"ĠyCjxAjxF":1573,"ĠwGjwEvB":1574,"ĠwGwDjvAj":1575,"ĠwFjwDvA":1576,"ĠxGjxCwGjvGj":1577,"ĠxGwBwGvG":1578,"ĠxGxCwGvA":1579,"ĠxGjxCjwGjvAj":1580,"ĠyCjxAjxFjxCjwFj":1581,"ĠyGyDxB":1582,"ĠyCxAxFxCwF":1583,"ĠyExBxGjwE":1584,"ĠxGjvE":1585,"ĠxGjxDwAj":1586,"ĠxAjxExC":1587,"ĠxBxFxCj":1588,"wGjwF":1589,"wBwFjvB":1590,"wAjwFvAj":1591,"ĠwDvBvG":1592,"xFjxCj":1593,"ĠzA":1594,"ĠzAj":1595,"ĠyGxGxDj":1596,"ĠxFxCwGwC":1597,"ĠxFjxCjwGjwCj":1598,"ĠxCjwGjwFj":1599,"ĠxCwGwF":1600,"ĠyByG":1601,"ĠwBwFjwE":1602,"ĠwAjwFwDj":1603,"ĠwAwEwD":1604,"ĠxFwAjvG":1605,"ĠxEwAvFj":1606,"ĠxFjwBvGj":1607,"ĠwGjwDjwC":1608,"ĠwGwDvB":1609,"ĠyCxFwAj":1610,"ĠyCjxFjwB":1611,"ĠzCyA":1612,"ĠzCjyAj":1613,"ĠyDxAjwG":1614,"ĠyDjxBwGj":1615,"ĠxFjwAwFj":1616,"ĠxFwGjwF":1617,"ĠxEwGwE":1618,"ĠxGwAjwG":1619,"ĠxFxCwGjwF":1620,"ĠxFjxCjwAwFj":1621,"ĠxEwBwGwE":1622,"ĠxAxFxCwA":1623,"ĠxAxFxCwAwF":1624,"ĠxAjxFjxCjwAj":1625,"ĠxAjxFjxCjwAjwFj":1626,"ĠyDxAjxFxDwAj":1627,"ĠyDjxBxFjxDjwB":1628,"ĠxBxGxDwBwG":1629,"ĠxFxCjwAjwFvAj":1630,"ĠxBxGjxEwBwE":1631,"ĠxAjxDjwAjwC":1632,"ĠxExCwAwEvA":1633,"ĠxBxEwBwCj":1634,"ĠxAxDwAvB":1635,"ĠyExGjxEwE":1636,"ĠyExBxGwE":1637,"zDj":1638,"ĠxFwE":1639,"ĠxFjwF":1640,"ĠxDjvCj":1641,"ĠxDvC":1642,"ĠxGwFj":1643,"ĠxGjwG":1644,"ĠxCvFj":1645,"ĠwAjvB":1646,"ĠwAwDj":1647,"ĠwAvAj":1648,"ĠwAwFjwCjvFj":1649,"ĠwGjwD":1650,"ĠwGjwFwCvF":1651,"wFjwDj":1652,"wFwD":1653,"xCwGwC":1654,"ĠyGjxAj":1655,"ĠxGjxDjwC":1656,"ĠxGxDvB":1657,"ĠxDwAwG":1658,"ĠxAxEwD":1659,"ĠxAxEwC":1660,"ĠxAjxFwCj":1661,"ĠxBxFjwD":1662,"ĠyBwB":1663,"ĠwBwFjvGj":1664,"ĠwAjwFvG":1665,"ĠwAwEvFj":1666,"ĠyCxGwDj":1667,"ĠyCjxGjwE":1668,"yCjxA":1669,"ĠxBxEwA":1670,"ĠzCyGj":1671,"ĠxGjwBwGj":1672,"ĠxGjxDjwBwFj":1673,"ĠxGxDwAjwF":1674,"ĠxFxCwGjwDj":1675,"ĠxFjxCjwAwE":1676,"ĠxEwBwGwD":1677,"ĠwBwGjwDjvGj":1678,"ĠwAjwGwDvG":1679,"ĠwFwCjvGj":1680,"ĠwEwCvG":1681,"ĠwGwEvBvE":1682,"ĠyDxBxFj":1683,"ĠyCjxAxExCjwA":1684,"ĠyCxGjxDjxCwGj":1685,"ĠxFjxEwBwE":1686,"ĠxExDwAwD":1687,"ĠxFxDjwAjwDj":1688,"ĠxCjwAjwFjvFj":1689,"ĠxCwAwFvF":1690,"ĠxEvCj":1691,"ĠxDjvC":1692,"ĠwBwAwE":1693,"ĠwAjwE":1694,"ĠwGjvA":1695,"ĠyCxFjxD":1696,"wGwE":1697,"ĠyCjxGxDj":1698,"ĠwCjvDj":1699,"ĠyEvB":1700,"ĠxEwBwFjvB":1701,"ĠxDwAwEvA":1702,"ĠxDjwAjwFvAj":1703,"ĠxAjxFwDj":1704,"ĠxCjwGjvFj":1705,"ĠxCwGvF":1706,"ĠyCxGxF":1707,"ĠxDwBwE":1708,"ĠzCjyA":1709,"ĠxFjxDwAwFj":1710,"ĠxGxDjwAjwG":1711,"ĠxGjxEwBwGj":1712,"ĠxFxCjwGjwF":1713,"ĠxExCwGwE":1714,"ĠyCjxAxEwFj":1715,"ĠyDxAjxFwG":1716,"ĠyDjxBxFjwGj":1717,"ĠyFxAxFwF":1718,"ĠyCxGjxDjwF":1719,"ĠxDjxCwGjwDjvGj":1720,"ĠxDwBwGwDvG":1721,"ĠxGjxFjxCjwFj":1722,"ĠxGxFxCwF":1723,"ĠyGjyCjxAj":1724,"ĠyFjxAjxFjwFj":1725,"ĠvBvFjuB":1726,"ĠyFjyCjxAwFj":1727,"ĠyGyDxAjwG":1728,"ĠyGjyDjxBwGj":1729,"ĠyFyCxGjwF":1730,"ĠxEwDj":1731,"ĠxDjwD":1732,"ĠxDwCj":1733,"ĠxDuB":1734,"ĠxGvFj":1735,"ĠxGwBwE":1736,"ĠxGjvG":1737,"ĠxGjxCwF":1738,"ĠxCjxCj":1739,"ĠxCjwC":1740,"ĠxCvB":1741,"ĠxAvGj":1742,"ĠxAxCwF":1743,"ĠxAxCjwFj":1744,"ĠxAjvA":1745,"ĠxAjxCjwFj":1746,"ĠxAjxDwG":1747,"ĠwBvF":1748,"ĠxBvAj":1749,"ĠxBxDwG":1750,"ĠxBxDjwGj":1751,"ĠwAwFjwCj":1752,"ĠyCxDjwGj":1753,"wBwGj":1754,"wBvB":1755,"wAvB":1756,"wDjwC":1757,"ĠwDjvCj":1758,"ĠwDvC":1759,"ĠwCvD":1760,"ĠyFwC":1761,"ĠyFjwCj":1762,"ĠvGjvDj":1763,"ĠvGvD":1764,"ĠxEwBwGwC":1765,"ĠxFxCwGjwCj":1766,"ĠxFjxCjwAwD":1767,"ĠxGjxDjwBwE":1768,"ĠxGxDwAjwDj":1769,"ĠxDjwAjwGj":1770,"ĠxAxEwCj":1771,"ĠxAjxFwD":1772,"ĠxBxFjwE":1773,"ĠxCjwAjwDj":1774,"ĠxCwAwD":1775,"ĠzDyAj":1776,"ĠzDjyB":1777,"ĠwAjwFjvAj":1778,"ĠwAwFvA":1779,"ĠyDxGwG":1780,"ĠyDjxGjwGj":1781,"ĠxGjxDjwBwGj":1782,"ĠxGxDwAjwG":1783,"ĠwBwGjwDj":1784,"ĠwAjwGwD":1785,"ĠyDxAxFwF":1786,"ĠyDxAxFxC":1787,"ĠyDjxAjxFjwFj":1788,"ĠyDjxAjxFjxCj":1789,"ĠxBxGxDwE":1790,"ĠyGyCxA":1791,"ĠxCxC":1792,"ĠxBwF":1793,"ĠwAjwGjwDj":1794,"ĠwGjwGj":1795,"ĠwGwG":1796,"wEwCj":1797,"wDvB":1798,"ĠwEuB":1799,"ĠwCjvE":1800,"ĠyFwGj":1801,"ĠyFjyDxA":1802,"ĠyGyDjxAj":1803,"ĠxBxFjwDj":1804,"yCxGj":1805,"ĠyCxGxDwG":1806,"ĠyCjxGjxDjwGj":1807,"ĠxFjxDjwGj":1808,"ĠxFxDwG":1809,"ĠxExCjwFj":1810,"ĠxDjxCwF":1811,"ĠxFwAjwD":1812,"ĠxEwAwCj":1813,"ĠxFjwBwDj":1814,"ĠxDjwGjwC":1815,"ĠxDjwGjvF":1816,"ĠxDwGvB":1817,"ĠxDwGvE":1818,"ĠxCjwAjwFjwCjvFj":1819,"ĠxAjxGxC":1820,"ĠxCwAwFwCvF":1821,"ĠwGjwDjvF":1822,"ĠwGwDvE":1823,"ĠxBxGjxCj":1824,"ĠxAxCjwAwE":1825,"ĠyCjxGjxExCj":1826,"ĠyDxBwG":1827,"ĠxAjxCwGj":1828,"ĠxBxCjwA":1829,"ĠxAjxDwAjwF":1830,"ĠxBxDjwBwFj":1831,"ĠxGjxCwGjwDj":1832,"ĠxAxGxDwG":1833,"ĠxAjxGjxDjwGj":1834,"ĠyGjyExB":1835,"ĠvAjvFuAj":1836,"ĠyFyCxAwF":1837,"ĠyFjyCjxAjwFj":1838,"ĠxEvC":1839,"ĠxFvCj":1840,"ĠxFwAwD":1841,"ĠxFjvD":1842,"ĠxFjwAjwDj":1843,"ĠxGvDj":1844,"ĠxGvD":1845,"ĠxGjvDj":1846,"ĠyCwFj":1847,"wAjwG":1848,"ĠyDyC":1849,"ĠyDxExC":1850,"ĠyDjxFxCj":1851,"ĠwCvDj":1852,"ĠyFxB":1853,"ĠvBvD":1854,"ĠyFjwA":1855,"ĠyGwD":1856,"ĠyGjwDj":1857,"ĠxDwAvF":1858,"ĠxDjwAjvFj":1859,"ĠwBwFjwDjvGj":1860,"ĠwAjwFwDvG":1861,"ĠxGxCwE":1862,"ĠxGjxCjwF":1863,"ĠxAxDwFj":1864,"ĠxAjxDjwG":1865,"ĠxAxFjxC":1866,"ĠxAjxGxCj":1867,"ĠyDxAwA":1868,"ĠzCjyCj":1869,"ĠwGjwCjvGj":1870,"ĠwGwCvG":1871,"ĠxDjxCjwGjwCj":1872,"ĠxDxCwGwC":1873,"ĠxGwBwGwD":1874,"ĠxDwAwFvD":1875,"ĠxDjwAjwFjvDj":1876,"ĠyDjxGxDjwAj":1877,"ĠyCxFxCwD":1878,"ĠyCjxFjxCjwDj":1879,"ĠyEyCxA":1880,"ĠyFyCjxAj":1881,"ĠvAvEuA":1882,"ĠyByGjyE":1883,"ĠxExE":1884,"ĠwAjwAj":1885,"ĠyDxGjxE":1886,"ĠyExFjxD":1887,"ĠyFxGxDj":1888,"ĠyFjxGjxE":1889,"ĠvAjvDj":1890,"ĠvAvD":1891,"ĠyGxF":1892,"ĠyGjxFj":1893,"ĠyAjyCj":1894,"ĠxFjxDvA":1895,"ĠxGxDjvAj":1896,"ĠxFxCjvGj":1897,"ĠxExCvG":1898,"ĠxGjxEvB":1899,"ĠwAwEwCjvFj":1900,"ĠwGjwDjwCvF":1901,"ĠwGwDvBvE":1902,"ĠzDyA":1903,"ĠzDjyAj":1904,"ĠyExBxGjxE":1905,"ĠyFyCxF":1906,"ĠyFjyCjxFj":1907,"ĠyCjxAxExCj":1908,"ĠyCxGjxDjxC":1909,"ĠyCxExCwG":1910,"ĠyCjxFxCjwGj":1911,"ĠyDxFjxDwA":1912,"ĠxEwAwEvFj":1913,"ĠxDjwGjwDjvF":1914,"ĠxDwGwDvE":1915,"ĠyExGjxEwB":1916,"ĠxFwAjwFvG":1917,"ĠxFjwBwFjvGj":1918,"ĠxBxAxEwA":1919,"ĠyEyCjxAxEwA":1920,"ĠxEwGwC":1921,"ĠxFxF":1922,"ĠxFvC":1923,"ĠxFwGjwCj":1924,"ĠxFjvCj":1925,"ĠxGwAwF":1926,"ĠxGjwAjwFj":1927,"ĠxCjwFjvB":1928,"ĠxCwFvAj":1929,"ĠwBwEvA":1930,"ĠwGjwFjwCj":1931,"ĠwGjwFwC":1932,"ĠwGwCj":1933,"ĠwGwFwC":1934,"ĠyCjwG":1935,"wAvG":1936,"wAjwC":1937,"wAjvGj":1938,"wFjvA":1939,"wFvGj":1940,"wDjvF":1941,"ĠyGwAj":1942,"ĠyGjwB":1943,"ĠyAxE":1944,"ĠyAjxF":1945,"ĠyBxFj":1946,"ĠyCjxGjxFj":1947,"ĠxCwGjwCj":1948,"ĠwBwGwC":1949,"ĠxBxEwGj":1950,"ĠxBxGjxD":1951,"ĠyDxAxG":1952,"ĠyDjxAjwAj":1953,"ĠyDjxAjxGj":1954,"ĠxAwAwF":1955,"ĠxAjwAjwFj":1956,"ĠxGjxCvGj":1957,"ĠxAxCjvA":1958,"ĠxGwBvG":1959,"ĠwGwEvB":1960,"ĠyExAwA":1961,"ĠyFjxBwB":1962,"ĠyFxAjwAj":1963,"ĠxAjxDvAj":1964,"ĠxBxDjvB":1965,"ĠyDxAjxFxD":1966,"ĠyDjxBxFjxDj":1967,"ĠxBxGxDwB":1968,"ĠxBxGxEwBwE":1969,"ĠyCjxAxFjxCjwFj":1970,"ĠyDxAjxGxDwG":1971,"ĠyDjxBxGjxDjwGj":1972,"ĠxEwAwEwCjvA":1973,"ĠxDjwGjwDjwCvGj":1974,"ĠxDwGwDvBvG":1975,"ĠxFwAjwFwDvAj":1976,"ĠxFjwBwFjwDjvB":1977,"ĠyGyCxG":1978,"ĠyGjyCjxGj":1979,"ĠyCxFxCwAwF":1980,"ĠyCjxFjxCjwAjwFj":1981,"ĠyCxGjxFxCwF":1982,"ĠxEuB":1983,"ĠxFjwAwD":1984,"ĠxGwAjwDj":1985,"ĠxGjwBwE":1986,"ĠxCjuAj":1987,"ĠxCjwFjwCjvFj":1988,"ĠxCuA":1989,"ĠxCwFwCvF":1990,"ĠwGvGj":1991,"wBwCj":1992,"wBvA":1993,"wDvF":1994,"wDvE":1995,"xCvAj":1996,"xCjvB":1997,"ĠwFjvG":1998,"ĠwFvFj":1999,"ĠwEvF":2000,"ĠyFjyC":2001,"ĠvAjvCj":2002,"ĠvAvC":2003,"ĠyAyDxA":2004,"ĠyAjyDjxAj":2005,"ĠxCjwGjvCj":2006,"ĠxCwGvC":2007,"ĠxAxFwG":2008,"ĠxAxFwC":2009,"ĠxAjxFjwGj":2010,"ĠxAjxFjwCj":2011,"ĠxDjwBwGjwDjvGj":2012,"ĠxDwAjwGwDvG":2013,"ĠxCjwAwFjwCjvFj":2014,"ĠxCwGjwFwCvF":2015,"ĠwBwGwEvBvE":2016,"ĠyCxFwA":2017,"ĠyCjxFjwAj":2018,"ĠzCxC":2019,"ĠzCjxCj":2020,"ĠxBxGwD":2021,"ĠxBwBwG":2022,"ĠyCxCwGj":2023,"ĠwAjwFjwDj":2024,"ĠwAjwFjvDj":2025,"ĠwAwFwD":2026,"ĠwAwFvD":2027,"ĠyCjxCjwA":2028,"ĠxFjwAvA":2029,"ĠxGwAjvAj":2030,"ĠyCxAxDj":2031,"ĠyExBwE":2032,"ĠxGjwBvB":2033,"ĠyCjxAjxE":2034,"ĠxGjxDjwBwDj":2035,"ĠxGxDwAjwD":2036,"ĠxFxCwGjwC":2037,"ĠxFjxCjwAwCj":2038,"ĠxEwBwGvB":2039,"ĠxAxCwA":2040,"ĠxAxCwC":2041,"ĠxAjxCjwAj":2042,"ĠxAjxCjwCj":2043,"ĠwGjwCjvFj":2044,"ĠwGwCvF":2045,"ĠyCjxEwE":2046,"ĠyCjxEwA":2047,"ĠyCjxExCj":2048,"ĠyCjxEvA":2049,"ĠxBxDwB":2050,"ĠxBxDwD":2051,"ĠxBxDvG":2052,"ĠyCxDjwDj":2053,"ĠyCxDjxC":2054,"ĠyCxDjvGj":2055,"ĠyDxFwAj":2056,"ĠyDxFvAj":2057,"ĠyDjxFjwB":2058,"ĠyDjxFjvB":2059,"ĠzEyA":2060,"ĠxCjwAwEvFj":2061,"ĠxCwGjwDjvF":2062,"ĠxDjwBwFjvGj":2063,"ĠxDwAjwFvG":2064,"ĠyCxEwC":2065,"ĠwBwGwDvE":2066,"ĠxGxCwGwEwC":2067,"ĠxGjxCjwGjwFwCj":2068,"ĠyCjxFwCj":2069,"ĠzFyAj":2070,"ĠxAjxDjwAjwGwDj":2071,"ĠxBxEwBwGjwE":2072,"ĠxAxDwAwFjwD":2073,"ĠyCxAjxFwAj":2074,"ĠyCjxBxFjwB":2075,"ĠyFyCxAxF":2076,"ĠxEwGjwCj":2077,"ĠxFvE":2078,"ĠxFjxFj":2079,"ĠxFjvF":2080,"ĠxDjxDj":2081,"ĠxDjwGwC":2082,"ĠxDxD":2083,"ĠxDwFjvB":2084,"ĠxCjwFvAj":2085,"ĠxCwEvA":2086,"ĠxAwAwD":2087,"ĠxAjwAjwDj":2088,"ĠwBwB":2089,"wEvG":2090,"wDjvFj":2091,"ĠwFjwC":2092,"wCjvE":2093,"wCvDj":2094,"vBvD":2095,"ĠyDjyCj":2096,"ĠyGwB":2097,"ĠyGjxC":2098,"ĠxGjxDjxCwF":2099,"ĠxGxDwBwE":2100,"ĠyAwF":2101,"ĠyAxCj":2102,"ĠyAjwFj":2103,"ĠyAjxD":2104,"ĠxAxExCjwFj":2105,"ĠwBwFjvFj":2106,"ĠwAjwFvF":2107,"ĠyCxGxD":2108,"ĠyCjxGjxDj":2109,"ĠxGxCwAwD":2110,"ĠxGxCwGjvGj":2111,"ĠxGjxCjwAjwDj":2112,"ĠxGjxCjwAvA":2113,"ĠxFjwBwGvG":2114,"ĠxAxCwD":2115,"ĠxAjxCjwDj":2116,"ĠwBwGjvE":2117,"ĠyDxFxD":2118,"ĠyDjxFjxDj":2119,"ĠxAjxDwAjwGwDvG":2120,"ĠxBxDjwBwGjwDjvGj":2121,"ĠxGjxCwGjwFwCvF":2122,"ĠxGwBwGwEvBvE":2123,"ĠxFjxCwGj":2124,"ĠzFjyB":2125,"ĠxAxCjwAwFjwCjvFj":2126,"ĠyByExB":2127,"ĠxAxDwAjvAj":2128,"ĠxAjxDjwBvB":2129,"ĠyFjyCjxAjxFj":2130,"ĠxFwAjwFjvFj":2131,"ĠxEwAwFvF":2132,"ĠyFyDxAjxFwAj":2133,"ĠxGxG":2134,"ĠxGjxGj":2135,"ĠwAwA":2136,"ĠyCvB":2137,"ĠyCjwC":2138,"wEvFj":2139,"wAjvAj":2140,"ĠyDwCj":2141,"ĠyDjwD":2142,"vGjvE":2143,"ĠyEwDj":2144,"ĠzB":2145,"ĠyGxA":2146,"ĠxDwAwFvAj":2147,"ĠxDjwAjwFjvB":2148,"ĠxAxExCwF":2149,"ĠxAjxFxCjwFj":2150,"ĠxAjxFxDwG":2151,"ĠxBxFjxDwG":2152,"ĠxBxFjxDjwGj":2153,"ĠxFjxDwBwG":2154,"ĠxFxCjwAjwFj":2155,"ĠxExCwAwF":2156,"ĠyCxGwA":2157,"ĠyCjxGjwAj":2158,"ĠxAxFwA":2159,"ĠxAxFxDwAj":2160,"ĠxAjxFjwAj":2161,"ĠxAjxFjxDjwB":2162,"ĠxAxDwBwG":2163,"ĠxBxEvA":2164,"ĠxBxExCwC":2165,"ĠyCxFvAj":2166,"ĠyCxFxDwAj":2167,"ĠyCxFxDwG":2168,"ĠyCxFxCjwCj":2169,"ĠyCjxFjvB":2170,"ĠyCjxFjxDjwB":2171,"ĠyCjxFjxDjwGj":2172,"ĠyCjxFjxDwD":2173,"ĠyCxGjwDj":2174,"ĠyCjxAwE":2175,"ĠyDxAjwF":2176,"ĠyDjxBwFj":2177,"ĠyDxGxDjwDj":2178,"ĠyDjxGjxEwE":2179,"xDjwBwFj":2180,"xDwAjwF":2181,"ĠxFwGjvGj":2182,"ĠxEwGvG":2183,"wBwGwD":2184,"ĠxFjwAjwFjwCj":2185,"ĠzEyB":2186,"ĠxFwAwFwC":2187,"ĠxGxDjxCwGj":2188,"ĠxGxDjxCvGj":2189,"ĠxGjxExCjwA":2190,"ĠxGjxExCjvA":2191,"ĠxFjxDwBvG":2192,"ĠxFxCjwAjvFj":2193,"ĠxBxGxEwC":2194,"ĠyCjxAxFjwD":2195,"ĠyDxAjxGwDj":2196,"ĠyDjxBxGjwE":2197,"ĠxDwAwFvA":2198,"ĠxDjwAjwFjvAj":2199,"ĠxExCwAvF":2200,"ĠxAxFxDvAj":2201,"ĠxAjxFjxDjvB":2202,"ĠyCxGjxFwCj":2203,"ĠyAyFjyDxAxD":2204,"ĠyAjyGyDjxAjxDj":2205,"ĠwBwGjwEvBvE":2206,"ĠyFjyDjxBxFjwB":2207,"ĠyGyEyCxGxC":2208,"ĠyGjyFyCjxGjxCj":2209,"ĠxCjuB":2210,"ĠxCuAj":2211,"ĠwBuA":2212,"ĠwAjvE":2213,"ĠwAjwDjvGj":2214,"ĠwAvDj":2215,"ĠwAwDvG":2216,"ĠwGjuGj":2217,"ĠwGuG":2218,"xDwC":2219,"xDjwCj":2220,"xEwD":2221,"ĠwDjuAj":2222,"ĠwDuA":2223,"xFwDj":2224,"xFjwE":2225,"xGxDwG":2226,"ĠxEwBwAvA":2227,"ĠxDwAvAj":2228,"ĠxDjwAjvB":2229,"ĠyBxDj":2230,"ĠwAwEvE":2231,"ĠyCxGwF":2232,"ĠyCxGxDjwGj":2233,"ĠyCjxGjwFj":2234,"ĠxGxCwD":2235,"ĠxFwAjvDj":2236,"ĠxEwAvD":2237,"ĠxFjwBvE":2238,"ĠxAxDwBwE":2239,"ĠxGjxFwAj":2240,"ĠxGxEwA":2241,"ĠxAxFjwB":2242,"ĠwGjwDjwCj":2243,"ĠwGjwDjvAj":2244,"ĠwGwDwC":2245,"ĠwGwDvA":2246,"ĠyDxAxE":2247,"ĠxGwGwC":2248,"ĠxGjwGjwCj":2249,"yDxG":2250,"yDjxGj":2251,"ĠxBwBwE":2252,"ĠzDyD":2253,"ĠzDjyDj":2254,"ĠwAjwFjvGj":2255,"ĠwAwFvG":2256,"ĠxGwAjwC":2257,"ĠyCxAxEwA":2258,"ĠxGjwBwCj":2259,"ĠyCjxGjxEwA":2260,"ĠwGjwEvE":2261,"ĠyDxBxF":2262,"ĠxGjxDjxCwGjwDjvGj":2263,"ĠyDjyCxFj":2264,"ĠxFjxCjwAjwFjwCjvFj":2265,"ĠxFxCwAwFwCvF":2266,"ĠxCwAjwF":2267,"ĠyDxFjwD":2268,"ĠxCjwBwFj":2269,"ĠxDwAwFwD":2270,"ĠxDjwAjwFjwDj":2271,"ĠyDjxGwDj":2272,"ĠxEwAwEwCj":2273,"ĠxDjwGjwDjwC":2274,"ĠxDwGwDvB":2275,"ĠxFwAjwFwD":2276,"ĠxFjwBwFjwDj":2277,"ĠxEwBwGjwEvBvE":2278,"ĠxAjxDjxCvGj":2279,"ĠxBxExCjvA":2280,"ĠyEyCxC":2281,"ĠwAwGwD":2282,"ĠyFyCjxCj":2283,"ĠxAxDwBvG":2284,"ĠxDjwAjwGvDj":2285,"ĠxDwAwFjvD":2286,"ĠyGjyExE":2287,"ĠxGxDwBwGwDvG":2288,"ĠxFxCwAjvAj":2289,"ĠxFjxCjwBvB":2290,"ĠyCxFxDvAj":2291,"ĠyCjxFjxDjvB":2292,"ĠyFjyDxD":2293,"ĠyGyDjxDj":2294,"ĠxDjuAj":2295,"ĠxDuA":2296,"ĠwFjwEvB":2297,"ĠwFvB":2298,"ĠyDwGj":2299,"xFxC":2300,"ĠyGwA":2301,"ĠxDwAwFwC":2302,"ĠxDjwAjwFjwCj":2303,"ĠyAxG":2304,"ĠyAjxGj":2305,"ĠxGxCwAwF":2306,"ĠxGxCwAvA":2307,"ĠxGjxCjwDj":2308,"ĠxGjxCjwAjwFj":2309,"ĠxDwAjwDj":2310,"ĠxCjwAwD":2311,"ĠxFwAjwC":2312,"ĠxFwAjwGwC":2313,"ĠxEwAvB":2314,"ĠxEwAwFjvB":2315,"ĠxFjwBwCj":2316,"ĠxFjwBwGjwCj":2317,"ĠxAxDvG":2318,"ĠxAjxDjvGj":2319,"ĠxAjxDjxCwF":2320,"ĠxBxExCjwFj":2321,"ĠxDjwGjvAj":2322,"ĠxDjwGjwFvAj":2323,"ĠxDwGvA":2324,"ĠxDwGwEvA":2325,"ĠyCxFxDwD":2326,"ĠyCjxFjxDjwDj":2327,"ĠwBwEvE":2328,"ĠyCjxAjxFwAj":2329,"ĠyCjxGjxEwGj":2330,"ĠxAxExCwE":2331,"ĠxAjxFxCjwF":2332,"ĠxBxFjxDwFj":2333,"ĠyCxGxDjwG":2334,"ĠyCxGxDjxC":2335,"ĠxDjwFjwDj":2336,"ĠxDwFwD":2337,"ĠyCjxEwFj":2338,"ĠxBxDwE":2339,"ĠyCxDjwF":2340,"ĠyExAxF":2341,"ĠyFjxBxG":2342,"ĠyFxAjxFj":2343,"ĠyEyCjxG":2344,"ĠxGxCjwA":2345,"ĠyExGjwE":2346,"ĠyGyCxGj":2347,"ĠyGjyCjxA":2348,"ĠxAjxDjxCwC":2349,"ĠxBxExCjwCj":2350,"ĠyAyFjyD":2351,"ĠyAjyGyDj":2352,"ĠxAxDwBvB":2353,"ĠxCwGwEvC":2354,"ĠxGjxCjwAjvAj":2355,"ĠxCjwGjwFvCj":2356,"ĠyFyDxGj":2357,"ĠyFjyDjxA":2358,"ĠxAxExCjwAwEvA":2359,"ĠxExDwG":2360,"ĠxFxDjwGj":2361,"ĠxGxFwAj":2362,"ĠxAwFjwD":2363,"ĠxAjwGwDj":2364,"ĠwBwGjwCj":2365,"ĠxBwGjwE":2366,"ĠwAjwGwC":2367,"ĠwAjwFjvB":2368,"ĠwAwFjvB":2369,"ĠwAwFvAj":2370,"ĠwGjwFvAj":2371,"ĠwGwEvA":2372,"wGjvFj":2373,"wGvF":2374,"xDwA":2375,"xDjwAj":2376,"ĠyDxDwG":2377,"ĠyDjxDjwGj":2378,"ĠwDjuGj":2379,"ĠvGjvCj":2380,"ĠvGvC":2381,"ĠyGjwAj":2382,"ĠxGjxDjxCjwCj":2383,"ĠxGxDxCwC":2384,"ĠxDwAwGvG":2385,"ĠxDjwAjwGjvGj":2386,"ĠyAyDxAj":2387,"ĠyAjyDjxB":2388,"ĠxCjwGjvA":2389,"ĠxCjwGjwDjvGj":2390,"ĠxCwGvGj":2391,"ĠxCwGwDvG":2392,"ĠwBwFjvG":2393,"ĠxDjwBwE":2394,"ĠxAxDwE":2395,"ĠxAjxDjwF":2396,"ĠxBxEwFj":2397,"ĠxEwEvA":2398,"ĠxFwFvAj":2399,"ĠxFjwFjvB":2400,"ĠyDxAwB":2401,"ĠyDjxAjxC":2402,"ĠyDjxAjxF":2403,"ĠyCxFwG":2404,"ĠyCjxFjwGj":2405,"ĠzCyE":2406,"ĠzCjyF":2407,"ĠxBxGxExC":2408,"ĠyCxGjxFxCj":2409,"ĠyCjxAxFjxD":2410,"ĠyDxAjxGxDj":2411,"ĠyDjxBxGjxE":2412,"ĠwFjwCjvAjvFj":2413,"ĠwFwCvAvF":2414,"ĠwBwEvBvE":2415,"ĠxFjwAvB":2416,"ĠxFwGjvAj":2417,"ĠxEwGvA":2418,"ĠyExBwB":2419,"ĠyExBxCj":2420,"ĠyExBxFj":2421,"ĠwAjwDjvAjvDj":2422,"ĠxFjxDwAwFjvB":2423,"ĠxGxDjwAjwGwC":2424,"ĠxGjxEwBwGjwCj":2425,"ĠxAxFxCwAwD":2426,"ĠxAjxFjxCjwAjwDj":2427,"ĠxCjwEwCj":2428,"ĠxCwDjwC":2429,"ĠwBwDvB":2430,"ĠyDxBxFjwB":2431,"ĠyDjyCwGj":2432,"ĠyDjyCxGxC":2433,"ĠyEyCjxGjxCj":2434,"ĠxCwGjwDjwC":2435,"ĠwBwGwDvB":2436,"ĠxFjxCwAwD":2437,"ĠxGxCjwAjwDj":2438,"ĠxGxCwGwE":2439,"ĠxGjxCjwGjwF":2440,"ĠzFzC":2441,"ĠzFjzCj":2442,"ĠxAjxDjwAjwG":2443,"ĠxBxEwBwGj":2444,"ĠxAxDwAwFj":2445,"ĠxAjxExCj":2446,"ĠxAxDjxC":2447,"ĠxFwBwGjwCj":2448,"ĠyCxFxCwA":2449,"ĠyCjxFjxCjwAj":2450,"ĠyExGwC":2451,"ĠxAjxDjxCwGj":2452,"ĠyFxGjwCj":2453,"ĠxBxExCjwA":2454,"ĠyGyExAj":2455,"ĠyGjyFxB":2456,"ĠxEwAjwGwC":2457,"ĠxGjxCjwAjvFj":2458,"ĠxFwAwFwDvAvD":2459,"ĠxFjwAjwFjwDjvAjvDj":2460,"ĠxGxCwAvF":2461,"ĠyAyFxF":2462,"ĠyAyFyC":2463,"ĠyAjyFjxFj":2464,"ĠzCyFyC":2465,"ĠzCjyFjyCj":2466,"ĠyGxBxGwE":2467,"ĠyGjyCxGjwF":2468,"ĠyAjyDxAjwG":2469,"ĠyByDjxBwGj":2470,"ĠyAyCjxAwFj":2471,"ĠxDwGjwE":2472,"ĠxAjxAj":2473,"ĠwBvDj":2474,"ĠxBvE":2475,"ĠwGjvD":2476,"ĠwGvCj":2477,"ĠyCvF":2478,"ĠyCxCwF":2479,"ĠyCwAwF":2480,"ĠyCjvFj":2481,"ĠyCjxCjwFj":2482,"ĠyCjwAjwFj":2483,"ĠyDvG":2484,"ĠyDjvGj":2485,"xEwB":2486,"ĠvBvGj":2487,"ĠvBuB":2488,"ĠvAjuAj":2489,"xAxD":2490,"ĠyGyCj":2491,"ĠyGjyD":2492,"ĠxEwBwC":2493,"ĠxFxCwCj":2494,"ĠyAxC":2495,"ĠyAxB":2496,"ĠyAjxCj":2497,"ĠxCjwGjwEvA":2498,"ĠxCwGwDjvGj":2499,"ĠxFjxDwAjwDj":2500,"ĠxGxDjwBwE":2501,"ĠxFxCjwAwD":2502,"ĠxExCwGjwCj":2503,"ĠxGjxExCwF":2504,"vCjuFj":2505,"vCuF":2506,"ĠwBwFjvE":2507,"ĠwBwFjuB":2508,"ĠwBwFjwCjvGj":2509,"ĠwAjwFuAj":2510,"ĠwAjwFwCvG":2511,"ĠwAwEuA":2512,"ĠwAwEvBvFj":2513,"ĠxAxFxCjwFj":2514,"ĠxAjxFjxDwG":2515,"ĠxFjxDjvAj":2516,"ĠxFxDvA":2517,"ĠxGxCvGj":2518,"ĠxGxCvF":2519,"ĠxGjxCjvA":2520,"ĠxGjxCjvFj":2521,"ĠxDjwBwGwC":2522,"ĠxExCjvB":2523,"ĠxExCjvGj":2524,"ĠxDwAjwFjvB":2525,"ĠxCjwAwFvAj":2526,"ĠxCwGjwEvA":2527,"ĠxDjxCvAj":2528,"ĠxDjxCvG":2529,"ĠxFwAjvFj":2530,"ĠxEwAvF":2531,"ĠxFjwBvG":2532,"ĠxDwBvA":2533,"ĠxDwBvFj":2534,"ĠxAxDvAj":2535,"ĠxAjxDjvB":2536,"ĠxDjwGjvCj":2537,"ĠxDwGvC":2538,"ĠyDxAxEwA":2539,"ĠyDjxAjxFwAj":2540,"ĠxBxGwB":2541,"ĠxBxGxDjwGj":2542,"ĠyCxGjxC":2543,"ĠyCjxAxCj":2544,"ĠwBwEwCj":2545,"ĠyDxGwC":2546,"ĠyDxGxDwG":2547,"ĠyDjxGjwCj":2548,"ĠyDjxGjxDjwGj":2549,"ĠxGwEwC":2550,"ĠxGjwFwCj":2551,"ĠyExBxFjwB":2552,"ĠwAwDvAvD":2553,"ĠxAxExCwA":2554,"ĠxAjxFxCjwAj":2555,"ĠxBxFjxDwB":2556,"yFjxB":2557,"ĠxAxCvF":2558,"ĠxAjxCjvFj":2559,"ĠwGjwCjvGjvCj":2560,"ĠwGwCvGvC":2561,"ĠwBwGjvGj":2562,"ĠxFjxDwAvD":2563,"ĠxGxDjwAjvDj":2564,"ĠxGjxEwBvE":2565,"xExCwG":2566,"xFxCjwGj":2567,"xFjxDwA":2568,"ĠwFwCjvCj":2569,"ĠwEwCvC":2570,"ĠwGwDjvDj":2571,"xGxDjwAj":2572,"ĠwFjwDvD":2573,"ĠyExAxEwA":2574,"ĠyFjxBxFjwB":2575,"ĠyFxAjxFwAj":2576,"ĠyDxAxFxD":2577,"ĠyDjxAjxFjxDj":2578,"ĠxAxFxCvF":2579,"ĠxAjxFjxCjvFj":2580,"xGjxEwB":2581,"ĠwFjvBvFj":2582,"ĠwAjwCjvAj":2583,"ĠwAwCvA":2584,"ĠwFvAjvF":2585,"ĠyFxAwF":2586,"ĠyFjxAjwFj":2587,"ĠwEvAvE":2588,"ĠxDjxCjwCj":2589,"ĠxDxCwC":2590,"ĠxGjxFjxCj":2591,"ĠxCwAjvAj":2592,"ĠxFjxCwA":2593,"ĠxGxCjwAj":2594,"ĠxCjwBvB":2595,"ĠxExDwA":2596,"ĠxFxDjwAj":2597,"ĠxFwBwGj":2598,"ĠyExGxC":2599,"ĠyFxGjxCj":2600,"ĠxDjwAjwGwDjvAjvDj":2601,"ĠxDwAwFjwDvAvD":2602,"ĠyFjxAwD":2603,"ĠyFjxAxD":2604,"ĠyAyFjyC":2605,"ĠyGxAjwDj":2606,"ĠyGxAjxDj":2607,"ĠyGjxBxE":2608,"ĠxDjwAwFj":2609,"ĠxDjwAwFjvB":2610,"ĠxDwGjwFvAj":2611,"ĠxFwAwFvD":2612,"ĠxFjwAjwFjvDj":2613,"ĠxBxFjxDjwBwFjvB":2614,"ĠxAjxFxDwAjwFvAj":2615,"ĠxEwGjwEwCjvGjvCj":2616,"ĠxDjwGwDjwCvGvC":2617,"ĠxDwFjwDvBvFjuB":2618,"ĠxCjwGwEvA":2619,"ĠxCjwFwCjvAjvFuAj":2620,"ĠxCwEwCvAvEuA":2621,"ĠxCwGwDjwC":2622,"ĠwBwFjwDvB":2623,"ĠxCjwGjwEwCj":2624,"ĠwAjwFwCjvAj":2625,"ĠwAwEwCvA":2626,"ĠxFjxDwAwFjwDvFj":2627,"ĠxGxDjwAjwGwDjvG":2628,"ĠxGjxEwBwGjwEvGj":2629,"ĠxFxCjwGjwFwCjvF":2630,"ĠxExCwGwEwCvE":2631,"vAjvCjuFj":2632,"vAvCuF":2633,"ĠxAxFxCwAwFvA":2634,"ĠxAjxFjxCjwAjwFjvAj":2635,"ĠyDxAjxFxDwAjwD":2636,"ĠyDjxBxFjxDjwBwDj":2637,"ĠxBxGxDwBwGvB":2638,"ĠyCjxAxExCjwAwCj":2639,"ĠyCxGjxDjxCwGjwC":2640,"zE":2641,"ĠxEwAjwFj":2642,"ĠxExDwD":2643,"ĠxFxDjwDj":2644,"ĠxDjwFjvB":2645,"ĠxDjwAwF":2646,"ĠxDwFvAj":2647,"ĠxGxFwF":2648,"ĠxCjwEvA":2649,"ĠxCwAjwDj":2650,"ĠxCwDjvGj":2651,"ĠwBwAj":2652,"ĠwBwAwD":2653,"ĠwBwDvG":2654,"ĠwAjvD":2655,"ĠwAjwGjwCj":2656,"ĠwAvCj":2657,"ĠwAwGwC":2658,"ĠwGjvC":2659,"wGvAj":2660,"ĠyCjxC":2661,"ĠyCjxFwAj":2662,"ĠwFwDjvAj":2663,"ĠwEvAj":2664,"ĠwEwDvA":2665,"ĠyDxCj":2666,"ĠyDjwA":2667,"ĠyDjxD":2668,"ĠwDjuB":2669,"ĠwDjwCjvGj":2670,"ĠwDvGj":2671,"ĠwDuAj":2672,"ĠwDuG":2673,"ĠwDwCvG":2674,"ĠwCjuA":2675,"ĠyEwAj":2676,"ĠyExDj":2677,"ĠyEvA":2678,"xGjxDjwGj":2679,"ĠyFvAj":2680,"ĠyFjvB":2681,"ĠyFjyDxAxD":2682,"ĠvAuA":2683,"ĠyGyDjxAjxDj":2684,"ĠvGvE":2685,"ĠyAjyC":2686,"ĠxFxCjwAjwDj":2687,"ĠxExCwAwD":2688,"ĠyByCj":2689,"ĠyByD":2690,"ĠwBwFjvDj":2691,"ĠwBwFjwDvG":2692,"ĠwAjwFvFj":2693,"ĠwAjwFvDj":2694,"ĠwAjwFwCjvFj":2695,"ĠwAwEvF":2696,"ĠwAwEwCvF":2697,"ĠxFjxDjwCj":2698,"ĠxFxDwC":2699,"ĠxDjwGjwE":2700,"ĠxDwGwDj":2701,"ĠxGjxFwDj":2702,"ĠxGxEwD":2703,"ĠxCjwAjvF":2704,"ĠxAxFjwE":2705,"ĠxAjxGwF":2706,"ĠxCwAvE":2707,"ĠwGjwDjvDj":2708,"ĠwGjwDjvAjvF":2709,"ĠwGwDvAvE":2710,"ĠxBxGjwFj":2711,"ĠyDxAwG":2712,"ĠyDjxAjwGj":2713,"ĠzCyDj":2714,"ĠzCjyE":2715,"ĠxCjwFjwD":2716,"ĠxCwFwCj":2717,"ĠzDjyG":2718,"ĠwBwEwC":2719,"ĠyDxGxExC":2720,"ĠyDjxGjxFxCj":2721,"wGwDjvAj":2722,"wFjwDvA":2723,"ĠyCxAwA":2724,"ĠxGjxCwDj":2725,"ĠxAxCjwE":2726,"ĠyCjxAjwAj":2727,"ĠwAjwDjwC":2728,"ĠwAwDvB":2729,"wEwCvG":2730,"wFwCjvGj":2731,"ĠxFjxDwAvA":2732,"ĠxGxDjwAjvAj":2733,"ĠxGjxEwBvB":2734,"ĠxFxCjwGjvCj":2735,"ĠxFxCjwGjwFvAj":2736,"ĠxExCwGvC":2737,"ĠxExCwGwEvA":2738,"ĠxDjwFjvFj":2739,"ĠxDwFvF":2740,"ĠyExAxFjxD":2741,"ĠyFjxBxGjxE":2742,"ĠyFxAjxGxDj":2743,"ĠyDxAxFwAj":2744,"ĠyDjxAjxFjwB":2745,"ĠxAjxDwF":2746,"ĠyCjxAxExCjwFj":2747,"ĠzEyGj":2748,"ĠyEyCjwA":2749,"ĠxBxGxDvG":2750,"ĠxBxGxDwBwE":2751,"ĠyCxGjxDjvGj":2752,"ĠyCxGjxDjxCwF":2753,"ĠxCjwAwEwCj":2754,"ĠxFjxEwE":2755,"ĠxDjwBwFjwDj":2756,"ĠxDwAjwFwD":2757,"ĠwDvAvE":2758,"ĠyCxEwA":2759,"ĠxGjxFjwFj":2760,"ĠyDxFjwB":2761,"ĠyDjxGxC":2762,"ĠyExGjxCj":2763,"ĠxGjxDwB":2764,"ĠyEyCxGxC":2765,"ĠyFyCjxGjxCj":2766,"ĠxCjwGjwFwCjvGjvCj":2767,"ĠxCwGwEwCvGvC":2768,"ĠyAjyGyCj":2769,"ĠyGjyDjyC":2770,"ĠyGjyDjyCxGj":2771,"ĠyGjyEyCj":2772,"ĠyGjyExBxE":2773,"ĠxDwGjwF":2774,"ĠyAyEyCjxA":2775,"ĠyAjyFyDxAj":2776,"ĠwCjvAjvFj":2777,"ĠwCvAvF":2778,"ĠyFjyDxB":2779,"ĠyGyDjyC":2780,"ĠyExBxGxD":2781,"ĠyFjyCjxAxE":2782,"ĠxCwFjwDjvGj":2783,"ĠyFyCxGjxDj":2784,"ĠwBwFwDvG":2785,"yCjxAjxFj":2786,"ĠyGyDxBwG":2787,"ĠyByGjyExBxE":2788,"ĠxFjwGjwE":2789,"ĠxCjwGwDj":2790,"ĠxCwFjwD":2791,"ĠxAvD":2792,"ĠxAjvDj":2793,"ĠwBwAvA":2794,"ĠwAjwEwC":2795,"ĠwGjwEvA":2796,"wGjvF":2797,"wGjwFvAj":2798,"ĠyCwB":2799,"wGwEvA":2800,"wBwGjwCj":2801,"wAvFj":2802,"wAwFjvB":2803,"wAjwGwC":2804,"ĠyDyCxF":2805,"ĠyDjyCjxFj":2806,"ĠwCjuGj":2807,"ĠwCuG":2808,"ĠvGjvE":2809,"ĠxFxCwFwC":2810,"ĠxFjxCjwD":2811,"ĠxFjxCjwFjwCj":2812,"ĠxFjxCjwGjwDj":2813,"ĠxGjxDjwE":2814,"ĠxGxDwDj":2815,"ĠxFjxDwBwE":2816,"ĠxGxDjxCwF":2817,"ĠxGjxExCjwFj":2818,"ĠwAjwFvD":2819,"ĠwAwEvD":2820,"ĠwAwEvCj":2821,"ĠxAjxFjxC":2822,"ĠxCjwAjvGj":2823,"ĠxBxGxCj":2824,"ĠzDxG":2825,"ĠzDjxGj":2826,"ĠyDxGwE":2827,"ĠyDjxGjwF":2828,"ĠxEwBwEvB":2829,"ĠxGwBwD":2830,"ĠwGjwCjvAj":2831,"ĠwGwCvA":2832,"ĠxFjxDwAwE":2833,"ĠxGxDjwAjwF":2834,"ĠxGjxEwBwFj":2835,"ĠxFxCjwGjwDj":2836,"ĠxFxCjwGjvGj":2837,"ĠxExCwGwD":2838,"ĠxExCwGvG":2839,"ĠyDxFwG":2840,"ĠyDjxFjwGj":2841,"ĠyDxBwB":2842,"ĠyCjxAxEvA":2843,"ĠyDjyCxC":2844,"ĠyDxAjxFvAj":2845,"ĠyDjxBxFjvB":2846,"ĠyEyCjxCj":2847,"ĠxCjwAwEwCjvA":2848,"ĠxFjxExCj":2849,"ĠxCwGjwDjwCvGj":2850,"ĠxDjwBwFjwDjvB":2851,"ĠxDwAjwFwDvAj":2852,"ĠyCxEvA":2853,"ĠwBwGwDvBvG":2854,"ĠxFjxCwGjvGj":2855,"ĠyDxFjvB":2856,"ĠxGxCjwAvA":2857,"ĠyCjxFvAj":2858,"ĠyDjxGwC":2859,"ĠyExGjwCj":2860,"ĠxGxFxC":2861,"ĠxAxGwG":2862,"ĠxAxGxC":2863,"ĠxAjxGjwGj":2864,"ĠxAjxGjxCj":2865,"ĠyCjxAjxFjxCj":2866,"ĠxEwAjwG":2867,"ĠxFxCwGwD":2868,"ĠyGjxBwE":2869,"ĠyDjxAxF":2870,"ĠyCxAxFxC":2871,"ĠwBwGjwEvE":2872,"ĠyExAjxFj":2873,"yByE":2874,"ĠyAyEyCj":2875,"ĠyByFjyDjxB":2876,"ĠyFjxBxGjwE":2877,"ĠyFxAjxGwDj":2878,"ĠyDxGxEwC":2879,"ĠyDjxGjxFwCj":2880,"ĠyExAxFjwD":2881,"ĠzCjyGjyE":2882,"ĠxFwBwGvG":2883,"ĠxAxDjwBvB":2884,"ĠxGjxDwAjvAj":2885,"ĠxAjxExCwC":2886,"ĠxBxFxCjwCj":2887,"ĠyEyCxAxEwA":2888,"ĠyFyCjxAjxFwAj":2889,"ĠzEyAyE":2890,"ĠzFyAjyF":2891,"ĠxEvDj":2892,"ĠxDjvD":2893,"ĠxDxCj":2894,"ĠxDvCj":2895,"ĠxCjxC":2896,"ĠxCjvC":2897,"ĠxCjwBwE":2898,"ĠxCuB":2899,"ĠxAxA":2900,"ĠwBwFwCj":2901,"ĠwGuB":2902,"ĠwGwDjvGj":2903,"wGjvB":2904,"wGvE":2905,"wBvGj":2906,"wAjvG":2907,"wFjvDj":2908,"wFjwDjvGj":2909,"wFwDj":2910,"wFvD":2911,"wFwDvG":2912,"ĠwFjvC":2913,"ĠwFjwDvG":2914,"ĠwFjvBvE":2915,"ĠwFuB":2916,"ĠwFvAjvDj":2917,"ĠwEvAvD":2918,"ĠwEvBvG":2919,"ĠwDjvA":2920,"ĠwCjvB":2921,"ĠwCjvG":2922,"ĠwCvAj":2923,"ĠyEwF":2924,"ĠyFyDxA":2925,"ĠvBvA":2926,"ĠyFjyDjxAj":2927,"ĠvAjvG":2928,"ĠvAvFj":2929,"ĠyGwC":2930,"ĠyGxAxF":2931,"ĠyGjwCj":2932,"ĠxEwBwD":2933,"ĠxEwBwFjwCj":2934,"ĠxEwBwAwE":2935,"ĠxFxCwDj":2936,"ĠxFjxCjwE":2937,"ĠxGjxDjwFj":2938,"ĠxGxDwF":2939,"ĠxDwAwEvB":2940,"ĠxDjwAjwFwC":2941,"ĠyAwG":2942,"ĠyAjwGj":2943,"ĠxAxExDwD":2944,"ĠxAjxFxDjwDj":2945,"ĠxBxFjxEwE":2946,"ĠxCjwGjwDjvAj":2947,"ĠxCwGwDvA":2948,"ĠyBxD":2949,"ĠxFjxDjwFj":2950,"ĠxFjxDjwAvB":2951,"ĠxFxDwF":2952,"ĠxFxDwGjvAj":2953,"ĠxExCjwGvA":2954,"ĠxDjxCwFjvGj":2955,"ĠxFwAjwGvG":2956,"ĠxFjwBwGjvGj":2957,"ĠxDwBwFvG":2958,"ĠxBxEwC":2959,"ĠxGjxFwC":2960,"ĠxGjxFwBwCj":2961,"ĠxGxEvB":2962,"ĠxGxEwAjwC":2963,"ĠxCjwAjwFjwCj":2964,"ĠxAxFjwCj":2965,"ĠxAjxGwD":2966,"ĠxCwAvG":2967,"ĠxCwAwFwC":2968,"ĠwGwDvD":2969,"ĠxBxGjwDj":2970,"ĠyDxAwF":2971,"ĠyDjxAjwFj":2972,"ĠyCxFwCj":2973,"ĠyCxFvF":2974,"ĠyCjxFjwD":2975,"ĠyCjxFjvFj":2976,"ĠzCxDj":2977,"ĠzCxE":2978,"ĠzCjxE":2979,"ĠzCjxF":2980,"ĠzCjxAj":2981,"ĠyDxAjxD":2982,"ĠyDjxBxDj":2983,"ĠwFjwCjvGj":2984,"ĠwFwCvGj":2985,"ĠwFwCvG":2986,"ĠzDxFj":2987,"ĠyDxGwDj":2988,"ĠyDxGvG":2989,"ĠyDjxGjwE":2990,"ĠyDjxGjvGj":2991,"ĠxDwAwDvA":2992,"ĠxDjwAjwDjvAj":2993,"ĠxFwDvAj":2994,"ĠxFjwDjvB":2995,"ĠxDvBvG":2996,"ĠxDjwCvGj":2997,"ĠxEwCjvA":2998,"ĠxFjwAvFj":2999,"ĠxFwGjvF":3000,"ĠxEwGvE":3001,"ĠxGjwBvE":3002,"ĠxGjxCvF":3003,"ĠxAxCjvFj":3004,"ĠxGwBvE":3005,"ĠxAxCvA":3006,"ĠxAjxCjvAj":3007,"ĠwBwGjvB":3008,"ĠwAjwGvG":3009,"ĠwGwEvE":3010,"ĠyExAwD":3011,"ĠyExAvA":3012,"ĠyFjxBwE":3013,"ĠyFjxBvB":3014,"ĠyFxAjwDj":3015,"ĠyFxAjvAj":3016,"ĠyFyCxGxC":3017,"ĠyFjyCjxGjxCj":3018,"ĠwAwFjvFj":3019,"ĠwGjwFvF":3020,"ĠxAjxDvG":3021,"ĠxBxDjwFj":3022,"ĠxBxDjvGj":3023,"wDjvBvFj":3024,"wDvAjvF":3025,"ĠxFjxEwB":3026,"ĠxGjxFjwB":3027,"ĠzFyA":3028,"ĠzFjyAj":3029,"ĠwFjwDjvAjvDj":3030,"ĠwFwDvAvD":3031,"ĠwDjvGjvDj":3032,"ĠwDvGvD":3033,"ĠyGyCwC":3034,"ĠyGjyCjwCj":3035,"ĠxGjxDwBwE":3036,"ĠyFjxAjxFjxCj":3037,"ĠxFxCwGvA":3038,"ĠyDjxAxFwF":3039,"ĠwBwGjwEvB":3040,"ĠyExAjxFjwFj":3041,"ĠxBxAxD":3042,"ĠwAjwFjwCjvDj":3043,"ĠwAwFwCvD":3044,"ĠxFjxCjwGjvAj":3045,"ĠxEwBwFjvGj":3046,"ĠxDjwAjwFvG":3047,"ĠyFyDwAj":3048,"ĠyFjyDjwB":3049,"ĠxDwAwEvFj":3050,"ĠyFxAxFxC":3051,"ĠwAjwGwDjvAj":3052,"ĠwAjwGwDjvAjvDj":3053,"ĠwAwFjwDvA":3054,"ĠwAwFjwDvAvD":3055,"ĠyCxAjxDj":3056,"ĠyCjxBxE":3057,"ĠwGjwFwCjvGj":3058,"ĠwGjwFwCjvGjvCj":3059,"ĠwGwEwCvG":3060,"ĠwGwEwCvGvC":3061,"ĠxCjwGjwDjvF":3062,"ĠxCwGwDvE":3063,"ĠyAyFyD":3064,"ĠyAjyFjyDj":3065,"ĠzGzC":3066,"ĠzGzD":3067,"ĠzGjzCj":3068,"ĠzGjzDj":3069,"ĠxEwAwFjvFj":3070,"ĠyGyDxAjxF":3071,"ĠyGjyDjxBxFj":3072,"ĠxCwGwDjvC":3073,"ĠwBwFjwDuB":3074,"ĠxCjwGjwEvCj":3075,"ĠyDxGxDwE":3076,"ĠyDjxGjxDjwF":3077,"ĠyExAxEwFj":3078,"ĠyFjxBxFjwGj":3079,"ĠyFxAjxFwG":3080,"ĠyCjxGjxEwBwGjwE":3081,"ĠyCxGxDjwAjwGwDj":3082,"ĠxAxExCwGwEwC":3083,"ĠxAjxFxCjwGjwFwCj":3084,"ĠxBxFjxDwAwFjwD":3085,"ĠzDyGyD":3086,"ĠzDjyGjyDj":3087,"ĠzAzD":3088,"ĠzAjzDj":3089,"ĠxCjwGjwFjvFj":3090,"ĠxCwGwFvF":3091,"ĠyGjxAjxFj":3092,"ĠxGjxDjwBwFjwDjvB":3093,"ĠxGxDwAjwFwDvAj":3094,"ĠxFxCwGjwDjwCvGj":3095,"ĠxFjxCjwAwEwCjvA":3096,"ĠxEwBwGwDvBvG":3097,"ĠyCxFjxDwD":3098,"ĠyCjxGxDjwDj":3099,"ĠyDxAxFxCwAwF":3100,"ĠyDjxAjxFjxCjwAjwFj":3101,"ĠxAxFjxCwD":3102,"ĠxAjxGxCjwDj":3103,"ĠyDxGjxEwE":3104,"ĠzFjyByFj":3105,"ĠzBzE":3106,"ĠxFjxDwBwGvB":3107,"ĠxFxCjwAjwFjvAj":3108,"ĠxExCwAwFvA":3109,"ĠxAxFxDwAjwD":3110,"ĠxAjxFjxDjwBwDj":3111,"ĠxGxDjxCwGjwC":3112,"ĠxGjxExCjwAwCj":3113,"ĠxBxGxExCwE":3114,"ĠyCxGjxFxCjwF":3115,"ĠyCjxAxFjxDwFj":3116,"ĠyDxAjxGxDjwG":3117,"ĠyDjxBxGjxEwGj":3118,"ĠxEwFjwD":3119,"ĠxFwGwDj":3120,"ĠxDjvE":3121,"ĠxGvC":3122,"ĠxGjvCj":3123,"ĠwBvAj":3124,"ĠxBxB":3125,"ĠwAjwA":3126,"ĠwAjvA":3127,"ĠwAvGj":3128,"ĠwAwDjvB":3129,"ĠwGjvG":3130,"ĠwGjuB":3131,"ĠwGjvBvE":3132,"ĠwGvFj":3133,"ĠwGvAjvDj":3134,"wGjwFj":3135,"wGwF":3136,"wFjwE":3137,"ĠwFjvF":3138,"ĠwFjvAvD":3139,"ĠwFjwFjvA":3140,"ĠwFvE":3141,"ĠwFwFvGj":3142,"ĠwEwEvG":3143,"ĠwDjwDjvFj":3144,"ĠwDwDvF":3145,"vGjvF":3146,"vGvE":3147,"ĠwCjwCjvE":3148,"ĠwCwCvDj":3149,"xGwG":3150,"xGjwGj":3151,"ĠyFwE":3152,"ĠyFwFj":3153,"ĠvBvBvD":3154,"ĠyFjwG":3155,"ĠyFjwF":3156,"ĠvAjvGj":3157,"ĠvAjvAjvCj":3158,"ĠvAvG":3159,"ĠvAvAvC":3160,"ĠyGwGj":3161,"ĠvGjvF":3162,"ĠvGjvDjuGj":3163,"ĠyGjwA":3164,"ĠxFxCwAvA":3165,"ĠxGjxDjxCjwFj":3166,"ĠxGxDxCwF":3167,"ĠyAwB":3168,"ĠyAjxC":3169,"ĠxAxEwG":3170,"ĠxAjxFwGj":3171,"ĠxAjxFxDwD":3172,"ĠxBxFjwA":3173,"ĠxBxFjxDjwDj":3174,"ĠyBxCj":3175,"ĠyBxA":3176,"ĠyCxGxEwA":3177,"ĠyCjxGjxFwAj":3178,"ĠxAxFxDwG":3179,"ĠxAjxFjxDjwGj":3180,"ĠxFjxDjvFj":3181,"ĠxFxDvF":3182,"ĠxGxCwEwC":3183,"ĠxGjxCjwFwCj":3184,"ĠxDjwBwGjwCj":3185,"ĠxDjwBwFjwCj":3186,"ĠxExCjwE":3187,"ĠxExCjvE":3188,"ĠxDwAjwGwC":3189,"ĠxDwAjwFwC":3190,"ĠxDjxCwDj":3191,"ĠxDjxCvDj":3192,"ĠxFwAjwGwDj":3193,"ĠxFwAjwDvAj":3194,"ĠxEwAwFjwD":3195,"ĠxEwAwCjvA":3196,"ĠxFjwBwGjwE":3197,"ĠxFjwBwDjvB":3198,"ĠxDwBwD":3199,"ĠxDwBvD":3200,"ĠxAxDwFjwD":3201,"ĠxAjxDjwGwDj":3202,"ĠxBxEvE":3203,"ĠxBxEwGjwE":3204,"ĠxDjwGjwFwCj":3205,"ĠxDjwGjwCvGj":3206,"ĠxDwGwEwC":3207,"ĠxDwGvBvG":3208,"ĠxEwEwC":3209,"ĠxFwFwCj":3210,"ĠxGjxFvGj":3211,"ĠxGxEvG":3212,"ĠxAxFjvA":3213,"ĠxAjxGvAj":3214,"ĠwGjwDjvCj":3215,"ĠwGjwDjvC":3216,"ĠwGwDvC":3217,"ĠwGwDuB":3218,"ĠyDxAxFjwB":3219,"ĠyCxFwAwF":3220,"ĠyCjxFjwAjwFj":3221,"ĠxDjwDjvGj":3222,"ĠxDwDvG":3223,"ĠzCwA":3224,"ĠzCxG":3225,"ĠzCxAj":3226,"ĠzCyD":3227,"ĠzCjwAj":3228,"ĠzCjxGj":3229,"ĠzCjxB":3230,"ĠzCjyDj":3231,"ĠyCxGjxFwAj":3232,"ĠxAwAvA":3233,"ĠxAjwAjvAj":3234,"ĠxBwBvB":3235,"ĠwFjwCjvDj":3236,"ĠwFwCvD":3237,"ĠxCjwFjuB":3238,"ĠxCwFuAj":3239,"ĠzDxD":3240,"ĠzDxF":3241,"ĠzDyF":3242,"ĠzDjxDj":3243,"ĠzDjxFj":3244,"ĠzDjxG":3245,"ĠzDjyFj":3246,"ĠwBwEuA":3247,"ĠxCjwGjwCjvF":3248,"ĠxCwGwCvE":3249,"ĠyCxCwC":3250,"ĠyCjxCjwCj":3251,"ĠxDwAwDvFj":3252,"ĠxDjwAjwDjvG":3253,"ĠxGwAjvG":3254,"ĠxEwBwEvGj":3255,"ĠyExBxGjxCj":3256,"ĠxGjwBvGj":3257,"ĠwAjwDjvDj":3258,"ĠwAwDvD":3259,"ĠxAxExCwAwEvA":3260,"ĠxAjxFxCjwAjwFvAj":3261,"ĠxGjxDjwBwGjwDjvGj":3262,"ĠxGxDwAjwGwDvG":3263,"ĠxBxFjxDwBwFjvB":3264,"ĠyCxGxDjxCwGwC":3265,"ĠxFxCwGjwFwCvF":3266,"ĠxFjxCjwAwFjwCjvFj":3267,"ĠxEwBwGwEvBvE":3268,"yFxAj":3269,"ĠyDxDwD":3270,"ĠyDjxDjwDj":3271,"ĠxFjxDwAvFj":3272,"ĠxGxDjwAjvG":3273,"ĠxGjxEwBvGj":3274,"ĠxFxCjwGjvF":3275,"ĠxExCwGvE":3276,"ĠxDjwFjvGj":3277,"ĠxDwFvG":3278,"ĠyCjxEwCj":3279,"ĠxFxCwFvA":3280,"ĠxFjxCjwFjvAj":3281,"ĠxBxDvB":3282,"ĠwGjwEvCj":3283,"ĠwFwCjvFj":3284,"ĠwFwCjuAj":3285,"ĠwEwCvF":3286,"ĠwEwCuA":3287,"ĠwGwDjvC":3288,"ĠwFjwDuB":3289,"ĠyCxDjwC":3290,"ĠyDxAxFxDwAwD":3291,"ĠyDjxAjxFjxDjwAjwDj":3292,"ĠxAxFxCvA":3293,"ĠxAjxFjxCjvAj":3294,"ĠyFyCwF":3295,"ĠyFjyCjwFj":3296,"ĠyDxFwD":3297,"ĠyDjxFjwDj":3298,"ĠxGjxDjwGjwC":3299,"ĠxGxDwGvB":3300,"ĠxGjxDjxCwC":3301,"ĠxAxExCjwCj":3302,"ĠxFjwAjwCj":3303,"ĠyDxAjxFxDwG":3304,"ĠyDjxBxFjxDjwGj":3305,"ĠxFwAwC":3306,"ĠxFjxDjwBwDj":3307,"ĠxFxDwAjwD":3308,"ĠyFxAwD":3309,"ĠyFjxAjwDj":3310,"vBvGvD":3311,"wCjvAvE":3312,"wCvGjvDj":3313,"ĠxDjxCwGjwC":3314,"ĠwEvBvFj":3315,"ĠxDwBwGvB":3316,"ĠxFjxCjwAjvAj":3317,"ĠxBxGjxEwGj":3318,"ĠxFjxEwA":3319,"ĠxGjxFxCjwF":3320,"ĠxGxExCwE":3321,"ĠwDjvAjvF":3322,"ĠyCxEwG":3323,"ĠxGxDwBvB":3324,"ĠxCwAjwFvAj":3325,"ĠyDxFjwA":3326,"ĠxBxGxEwA":3327,"ĠyCjxAxFjwB":3328,"ĠxGxCjvA":3329,"ĠxCjwBwFjvB":3330,"ĠxFxDjxC":3331,"ĠyCjxFwGj":3332,"ĠyDjxGwAj":3333,"ĠxExCjwAwCj":3334,"ĠxAxEwAwCj":3335,"ĠwFjwDjvDj":3336,"ĠwFwDvD":3337,"ĠyExGjxExCj":3338,"ĠxAjxEwC":3339,"ĠxAxDjvB":3340,"ĠxAjxFwAjwD":3341,"ĠxBxFjwBwDj":3342,"ĠwCjvGjvDj":3343,"ĠwCvGvD":3344,"ĠxGjxDvAj":3345,"ĠxAxFjxDwFj":3346,"ĠxAjxGxDjwG":3347,"ĠyDjxAjxGxC":3348,"ĠyGyExB":3349,"ĠxBxFwCj":3350,"ĠyCjxGwDj":3351,"ĠyCxFjwD":3352,"ĠxFxCwGwEwC":3353,"ĠxGjxDjwAjwC":3354,"ĠxGjxDjwAjwGwDj":3355,"ĠxGxDwAvB":3356,"ĠxGxDwAwFjwD":3357,"ĠxFjxCjwGjwFwCj":3358,"ĠxEwBwFjwDjvB":3359,"ĠxDjwAjwFwDvAj":3360,"ĠxFwAwFvF":3361,"ĠxFjwAjwFjvFj":3362,"ĠxDwAwEwCjvA":3363,"ĠxAxEwBwCj":3364,"ĠxAxEwBwGjwE":3365,"ĠxAjxFxCwD":3366,"ĠxAjxFxCwAwF":3367,"ĠxCjwGjwDjwCvGj":3368,"ĠxCwGwDvBvG":3369,"ĠxBxFjxCjwDj":3370,"ĠxBxFjxCjwAjwFj":3371,"ĠxFxCwAjwFvAj":3372,"ĠxFjxCjwBwFjvB":3373,"ĠxDjwGjwFvF":3374,"ĠxDwGwEvE":3375,"ĠyEyCjxAxE":3376,"ĠxAxDwAjvG":3377,"ĠxAjxDjwBvGj":3378,"ĠwAjwFwCjuAj":3379,"ĠwAwEwCuA":3380,"ĠxEwBwAwEvA":3381,"ĠxBxExCvA":3382,"ĠyCxFxCjvAj":3383,"ĠyCjxFjxDvB":3384,"ĠyDjxGjxEwCj":3385,"ĠyDxGxDjwC":3386,"ĠyCxGxExCwGwC":3387,"ĠyCjxGjxFxCjwGjwCj":3388,"ĠwGjwGjvB":3389,"ĠwGwGvAj":3390,"ĠyCjxGjxExCjwGjwCj":3391,"ĠwBwAjwFjwCj":3392,"ĠxDjwFwCj":3393,"ĠxDwEwC":3394,"ĠxCjuGj":3395,"ĠxCuG":3396,"ĠwBvCj":3397,"ĠwAjvC":3398,"ĠwAuB":3399,"ĠwGjwDvAj":3400,"ĠwGwCjvA":3401,"wGjvDj":3402,"wGjwFwCj":3403,"wGvD":3404,"wGwEwC":3405,"wEwCjvFj":3406,"wDvBvE":3407,"wDjwCvF":3408,"ĠwFjwFj":3409,"ĠwFwF":3410,"ĠwFvGjvCj":3411,"xDvG":3412,"xDjvGj":3413,"ĠwEwE":3414,"ĠwEvGvC":3415,"ĠyDvD":3416,"ĠyDjvDj":3417,"ĠwDjvGjvCj":3418,"ĠwDvGvC":3419,"ĠwCuGj":3420,"ĠyEvE":3421,"ĠyFvF":3422,"ĠyFyDxAxD":3423,"ĠvBuG":3424,"ĠyFjxG":3425,"ĠyFjvFj":3426,"ĠyFjyE":3427,"ĠyFjyDjxAjxDj":3428,"ĠyGvG":3429,"ĠyGxGj":3430,"ĠvGvDuG":3431,"ĠyGjvGj":3432,"ĠyGjxA":3433,"xBxG":3434,"ĠxEwBwAwD":3435,"ĠxFxCwAjwDj":3436,"ĠxFjxCjwBwE":3437,"ĠxDwAwGwC":3438,"ĠxDjwAjwGjwCj":3439,"ĠyAwAj":3440,"ĠyAwD":3441,"ĠyAxAj":3442,"ĠyAjwB":3443,"ĠyAjwDj":3444,"ĠyAjyE":3445,"ĠxAxExDwAwD":3446,"ĠvFjvCj":3447,"ĠvFjuB":3448,"ĠxAjxFxDjwAjwDj":3449,"ĠvFvC":3450,"ĠvFuAj":3451,"ĠxFjxDwCj":3452,"ĠxFjxDvG":3453,"ĠxGxDjwD":3454,"ĠxGxDjvGj":3455,"ĠxFxCjwFj":3456,"ĠxFxCjwC":3457,"ĠxFxCjvFj":3458,"ĠxExCwF":3459,"ĠxExCvB":3460,"ĠxExCvF":3461,"ĠxGjxEwDj":3462,"ĠxGjxEvA":3463,"ĠvEuA":3464,"ĠyCxGwAj":3465,"ĠyCjxGjwB":3466,"yCjxGj":3467,"ĠxAxFvAj":3468,"ĠxAjxFjvB":3469,"ĠxFjxDjwC":3470,"ĠxFjxDjvGj":3471,"ĠxFjxDjwGjwDj":3472,"ĠxFxDvB":3473,"ĠxFxDvG":3474,"ĠxFxDwGwD":3475,"ĠxDjwBvAj":3476,"ĠxExCjvAj":3477,"ĠxExCjwAwE":3478,"ĠxDwAjvA":3479,"ĠxDjxCvA":3480,"ĠxDwBvGj":3481,"ĠxAxDxC":3482,"ĠxAxDwAwE":3483,"ĠxAjxDjxCj":3484,"ĠxGjxFwGj":3485,"ĠxGjxFvAj":3486,"ĠxGjxFwAjwF":3487,"ĠxGxEwG":3488,"ĠxGxEvA":3489,"ĠxGxEwAwE":3490,"ĠxCjwAjwCj":3491,"ĠxCjwAjvG":3492,"ĠxAxFjwA":3493,"ĠxAxFjvB":3494,"ĠxAxFjwBwFj":3495,"ĠxAjxGwAj":3496,"ĠxAjxGwC":3497,"ĠxCwAwC":3498,"ĠxCwAvFj":3499,"ĠxBxGjwCj":3500,"ĠyCjxFjxE":3501,"ĠxGwGvG":3502,"ĠxGjwGjvGj":3503,"ĠzCxA":3504,"ĠyCxGjxD":3505,"ĠyCjxAxDj":3506,"ĠyDxAjxE":3507,"ĠyDjxBxF":3508,"ĠwFjwCjvAj":3509,"ĠwFjwCjvCj":3510,"ĠwFwCvA":3511,"ĠwFwCvC":3512,"ĠxCjwFjvAj":3513,"ĠxCjwFjvGj":3514,"ĠxCwFvA":3515,"ĠxCwFvG":3516,"ĠzDwB":3517,"ĠzDyFj":3518,"ĠzDjxC":3519,"ĠwBwEvFj":3520,"wGjwEvB":3521,"ĠyDxGxEwA":3522,"ĠyDxGxEwE":3523,"ĠyDjxGjxFwAj":3524,"ĠyDjxGjxFwF":3525,"ĠwAjwFvAjvF":3526,"ĠwBwFjvBvFj":3527,"ĠxFjwAwE":3528,"ĠxFjwAvD":3529,"ĠxFjwAwFjwCj":3530,"ĠxFjwAwFjwD":3531,"ĠwAwEvAvE":3532,"ĠxFwGjwDj":3533,"ĠxFwGjwFwC":3534,"ĠxFwGjwFwCj":3535,"ĠxEwGwD":3536,"ĠxEwGwEwC":3537,"ĠxEwGwEvB":3538,"ĠxGwAjvDj":3539,"ĠxGwAjwGwDj":3540,"ĠxGwAjwGwD":3541,"ĠyCxAxDwA":3542,"ĠxGjwBwGjwE":3543,"ĠxGjwBwGjwDj":3544,"ĠyCjxAjxDjwAj":3545,"ĠwAjwDjwCj":3546,"ĠwAjwDjvF":3547,"ĠwAwDwC":3548,"ĠwAwDvE":3549,"ĠxDjwFjwDjvAj":3550,"ĠxDwFwDvA":3551,"ĠyExAxFjwB":3552,"ĠyFjxBxGjxCj":3553,"ĠyFxAjxGxC":3554,"ĠxAxFxCwC":3555,"ĠxAjxFjxCjwCj":3556,"ĠxCjwEwCjvGj":3557,"ĠxCwDjwCvG":3558,"ĠwBwDvBvFj":3559,"ĠyDxFwF":3560,"ĠyDjxFjwFj":3561,"ĠyDxBxEwB":3562,"ĠyCjxAxEwE":3563,"ĠxFjwAjvFj":3564,"ĠzExCj":3565,"ĠyDjyCxFxC":3566,"ĠyExEwE":3567,"ĠyExEwA":3568,"ĠyDxAjxFwF":3569,"ĠyDjxBxFjwFj":3570,"ĠxFwAvF":3571,"ĠyEyCjxFjxCj":3572,"ĠwFjvBvFjuB":3573,"ĠwAjwCjvAjvF":3574,"ĠwAwCvAvE":3575,"ĠwFvAjvFuAj":3576,"ĠwEvAvEuA":3577,"ĠxBxGxDwD":3578,"ĠyCxGjxDjwDj":3579,"ĠyFxFwAj":3580,"ĠyFjxFjwB":3581,"ĠxDjxCjvGj":3582,"ĠxDxCvG":3583,"ĠxCjwAwEvB":3584,"ĠxCwGjwDjvAj":3585,"ĠwBwGwDvA":3586,"wAwEwD":3587,"ĠwDjvGjvDjuGj":3588,"ĠwDvGvDuG":3589,"ĠxAjxExCjwFj":3590,"ĠxAxDjxCwF":3591,"ĠxFwBvG":3592,"ĠxCjwAjwFjvAj":3593,"ĠxCwAwFvA":3594,"ĠyGjyFyC":3595,"ĠyCjxGxCj":3596,"ĠyAyFjyCj":3597,"ĠyAjyGyD":3598,"ĠyCxFjxC":3599,"ĠwAjwFjwCjvAjvFj":3600,"ĠwAwFwCvAvF":3601,"ĠwCjvFjvCjuFj":3602,"ĠwCvFvCuF":3603,"ĠyAyEyC":3604,"ĠyByGjyDj":3605,"ĠyAjyFyD":3606,"ĠyByFjyDj":3607,"ĠxFxCwAjvF":3608,"ĠxFjxCjwBvFj":3609,"ĠxCjwFjwCjvDj":3610,"ĠxCwFwCvD":3611,"ĠxCjwGwE":3612,"ĠxCwFjwDj":3613,"ĠwBwFwD":3614,"ĠxFwAjwFjvDj":3615,"ĠxEwAwFvD":3616,"ĠzCyFxF":3617,"ĠzCjyFjxFj":3618,"ĠxGjxDjxCjwGjwCj":3619,"ĠxGxDxCwGwC":3620,"vFjvCjuFj":3621,"vFvCuF":3622,"ĠxBxFjxEwBwE":3623,"ĠxGjxCjwAvFj":3624,"ĠxGxCwGjvF":3625,"ĠxFjwBwGvE":3626,"ĠyDxAxFjxDwAwD":3627,"ĠyDjxAjxGxDjwAjwDj":3628,"ĠyGyDxBxG":3629,"ĠxFjwAwFjwFj":3630,"ĠxFwGjwFwF":3631,"ĠxEwGwEwE":3632,"ĠxGwAjwGwG":3633,"ĠxGjwBwGjwGj":3634,"ĠxDjwFjwDjwDj":3635,"ĠxDwFwDwD":3636,"ĠxCjwEwCjwCj":3637,"ĠxCwDjwCwC":3638,"ĠwBwDvBvB":3639,"ĠyGjyDjyCwGj":3640,"ĠyAyEyCjwA":3641,"ĠxEuA":3642,"ĠxExDwAjwF":3643,"ĠxFuAj":3644,"ĠxFxDjwBwFj":3645,"ĠxFjuB":3646,"ĠxFjxCwF":3647,"ĠxFjxExCwG":3648,"ĠxDvDj":3649,"ĠxGxCjwFj":3650,"ĠxGxFxCjwGj":3651,"ĠxGjxDwG":3652,"ĠxGjxFjxDwA":3653,"ĠxCjvD":3654,"ĠxCjwBwGwD":3655,"ĠxCvCj":3656,"ĠxAxDjwGj":3657,"ĠxAxGxDjwAj":3658,"ĠxAjxEwA":3659,"ĠxAjxGjxEwB":3660,"ĠwBvC":3661,"ĠwBwDjvB":3662,"ĠxBxAj":3663,"ĠxBxFwAj":3664,"ĠwAjwDvAj":3665,"ĠwAwCjvA":3666,"ĠwGjwCvGj":3667,"ĠwGuAj":3668,"ĠwGvBvG":3669,"ĠyCvC":3670,"ĠyCyC":3671,"ĠyCxFjwB":3672,"ĠyCjvCj":3673,"ĠyCjyCj":3674,"wBvFj":3675,"wEvCj":3676,"wAvE":3677,"wAjvF":3678,"xCvA":3679,"xCjvAj":3680,"ĠwFjuA":3681,"ĠwFuGj":3682,"xDvA":3683,"xDjvAj":3684,"ĠwEuG":3685,"ĠyDxGjxCj":3686,"ĠwDjvBvFj":3687,"ĠwDvAjvF":3688,"xFwC":3689,"xFjwD":3690,"xFjwCj":3691,"ĠwCjuB":3692,"ĠwCjvAvE":3693,"ĠwCvFj":3694,"xGwDj":3695,"xGwFwDj":3696,"xGjwFjwE":3697,"ĠyFxE":3698,"ĠvBvCj":3699,"ĠyFjxF":3700,"ĠvAjvC":3701,"ĠvAuB":3702,"ĠyGxFj":3703,"ĠyGjxG":3704,"ĠyGjyDjxAjxDj":3705,"ĠxEwBvD":3706,"ĠxFxCvDj":3707,"ĠxFjxCjvE":3708,"ĠxGjxDjvFj":3709,"ĠxGxDvF":3710,"ĠxDwAwC":3711,"ĠxDjwAjwCj":3712,"ĠyAvA":3713,"ĠyAyDj":3714,"ĠyAjvAj":3715,"ĠyAjxB":3716,"ĠxAxExDwG":3717,"ĠxAjxFxDjwGj":3718,"ĠxBxFjxEwA":3719,"ĠxFjxDwGj":3720,"ĠxGxDjwA":3721,"ĠxFxCjwG":3722,"ĠxExCwFj":3723,"ĠxExCwAwE":3724,"ĠxGjxEwA":3725,"ĠxGjxEwAj":3726,"ĠyBvB":3727,"ĠyCxGwE":3728,"ĠyCxGxFwAj":3729,"ĠyCxGxFwF":3730,"ĠyCxGxDwAwD":3731,"ĠyCjxGjwF":3732,"ĠyCjxGjxFjwB":3733,"ĠyCjxGjxFjwFj":3734,"ĠyCjxGjxDjwAjwDj":3735,"ĠxAxFwB":3736,"ĠxFjxDjxDjwCj":3737,"ĠxFxDxDwC":3738,"ĠxGxCwAjwG":3739,"ĠxGjxCjwBwGj":3740,"ĠxDjwBvFj":3741,"ĠxDjwBwGjwDj":3742,"ĠxExCjvFj":3743,"ĠxExCjxCjvB":3744,"ĠxDwAjvF":3745,"ĠxDwAjwGwD":3746,"ĠxCjwAvGj":3747,"ĠxCjwAvE":3748,"ĠxCjwAwFjwCj":3749,"ĠxCwGjvG":3750,"ĠxCwGjvDj":3751,"ĠxCwGjwFwC":3752,"ĠxDjxCvF":3753,"ĠxDjxCxCvAj":3754,"ĠxFwAjwGwDvG":3755,"ĠxFwAjwGjwF":3756,"ĠxEwAwFjwCjvFj":3757,"ĠxEwAwGwE":3758,"ĠxFjwBwGjwDjvGj":3759,"ĠxFjwBwAwFj":3760,"ĠxDwBvE":3761,"ĠxDwBwBvA":3762,"ĠxAxDvD":3763,"ĠxAjxDjvDj":3764,"ĠwBwGvFj":3765,"ĠwBwGwEvB":3766,"ĠxDjwGjwFwCvF":3767,"ĠxDjwGjwFjwDj":3768,"ĠxDwGwEvBvE":3769,"ĠxDwGwFwD":3770,"ĠxEwEwCj":3771,"ĠxFwFwD":3772,"ĠxFjwFjwDj":3773,"ĠxGjxFwD":3774,"ĠxGjxFxFwDj":3775,"ĠxGxEwCj":3776,"ĠxGxExEwD":3777,"ĠxCjwAjwAjvGj":3778,"ĠxAxFjwDj":3779,"ĠxAxFjxFjwE":3780,"ĠxAjxGwE":3781,"ĠxAjxGxGwFwDj":3782,"ĠxCwAwAvG":3783,"ĠxBxGjwF":3784,"ĠxBxGjvB":3785,"ĠxBxGjxGjwFjwE":3786,"ĠyDxAwFj":3787,"ĠyDxAxC":3788,"ĠyDjxAjwG":3789,"ĠyDjxAjxCj":3790,"ĠxDjwDjwC":3791,"ĠxDwDvB":3792,"ĠxGwGwE":3793,"ĠxGjwGjwF":3794,"ĠxCjwCjvFj":3795,"ĠxCwCvF":3796,"ĠxBxGwA":3797,"ĠyCxGjwAj":3798,"ĠyCjxAwB":3799,"ĠxAwAwFj":3800,"ĠxAjwAjwG":3801,"ĠyDxAjxC":3802,"ĠyDjxBxCj":3803,"ĠxBwBwGj":3804,"ĠwFjwCjvB":3805,"ĠwFwCvAj":3806,"ĠxCjwFjwEwCj":3807,"ĠxCwFwDjwC":3808,"ĠwBwEvGj":3809,"ĠwBwEwDvB":3810,"ĠyCxCvF":3811,"ĠwAjwFjvF":3812,"ĠwAjwFjwDjvAj":3813,"ĠwAwFvE":3814,"ĠwAwFwDvA":3815,"ĠyCjxCjvFj":3816,"ĠxFwGjvCj":3817,"ĠxEwGvC":3818,"ĠxGwAjwF":3819,"ĠyCxAwD":3820,"ĠyExBwGj":3821,"ĠxGjwBwFj":3822,"ĠxGjxCwC":3823,"ĠxAxCjwCj":3824,"ĠyCjxAjwDj":3825,"ĠwAjwDjuGj":3826,"ĠxGwBvB":3827,"ĠwAwDuG":3828,"ĠxAxCwG":3829,"ĠxAjxCjwGj":3830,"ĠwGjwCjuFj":3831,"ĠwGwCuF":3832,"ĠwBwGjvDj":3833,"ĠyDxDvG":3834,"ĠyDjxDjvGj":3835,"ĠwAjwGvAj":3836,"ĠwAjwGvD":3837,"ĠwGwEvG":3838,"ĠwGwEuB":3839,"ĠyExAwFj":3840,"ĠyExAxFjwFj":3841,"ĠyFjxBwGj":3842,"ĠyFxAjwG":3843,"ĠyFyCxC":3844,"ĠyFyCxGxDwG":3845,"ĠyFjyCjxCj":3846,"ĠyFjyCjxGjxDjwGj":3847,"ĠwAwFjvA":3848,"ĠwAwFjvCj":3849,"ĠwGjwFvGj":3850,"ĠwGjwFvC":3851,"ĠxFwGwCjvGj":3852,"ĠxAjxDwD":3853,"ĠxAjxDxC":3854,"ĠxFjwGjwDvA":3855,"ĠxBxDjwDj":3856,"ĠxBxDjxCj":3857,"ĠxFjwAjvDj":3858,"ĠzEyE":3859,"ĠxFwAvD":3860,"ĠxEwFjwCvG":3861,"ĠxDjwFvBvFj":3862,"ĠxDwEvAjvF":3863,"ĠwAjwCjvFj":3864,"ĠwAwCvF":3865,"ĠxGjwAjvGj":3866,"ĠxGjwAjwEvB":3867,"ĠxGwAvG":3868,"ĠxGwAwDjvAj":3869,"ĠxFjxDwBwFj":3870,"ĠwEvBvA":3871,"ĠxFxCjwAjwF":3872,"ĠxCwDvGjvDj":3873,"ĠxCjwDjvAvE":3874,"ĠxDjxCjwGj":3875,"ĠxDjxCjvAj":3876,"ĠxDjxCjwAwE":3877,"ĠxDxCwG":3878,"ĠxDxCvA":3879,"ĠxDxCwGjwDj":3880,"ĠxFjxEwCj":3881,"ĠwDjvAjvGj":3882,"ĠwDvAvG":3883,"ĠxGjxFjwDj":3884,"ĠxCwAjvF":3885,"ĠxCwAjwFjwCj":3886,"ĠxFjxCwD":3887,"ĠxFjxCvGj":3888,"ĠyDxFjxE":3889,"ĠxGxCjwDj":3890,"ĠxCjwBvFj":3891,"ĠxExDwB":3892,"ĠxExDvB":3893,"ĠxFxDjwC":3894,"ĠxGxCwGwD":3895,"ĠxGjxCjwGjwDj":3896,"ĠxAjxDjwAjwF":3897,"ĠxBxEwBwFj":3898,"ĠyExGjwB":3899,"ĠwBwCjvGvD":3900,"ĠxGxFwD":3901,"ĠwFjwDjvAj":3902,"ĠwFwDvA":3903,"ĠxAjxEwFj":3904,"ĠxAjxExCjwCj":3905,"ĠxAxDjwF":3906,"ĠxAxDjxCwC":3907,"ĠxFwBwCj":3908,"ĠwCjvGjvFj":3909,"ĠyGyCwF":3910,"ĠyGyCxGxC":3911,"ĠyGjyCjwFj":3912,"ĠyGjyCjxGjxCj":3913,"ĠwCvGvF":3914,"ĠwAjwCvFjvCj":3915,"ĠwAvBvFvC":3916,"ĠxGjxDwE":3917,"wGjwDjwCj":3918,"ĠxAxGwE":3919,"ĠxAjxGjwF":3920,"ĠwBwAvE":3921,"ĠwBwAwEvA":3922,"ĠwBwAwFwC":3923,"ĠxAjxDjxCwGwC":3924,"ĠxBxExCjwGjwCj":3925,"ĠyGyDwG":3926,"ĠyGyDxAxD":3927,"ĠyEyCwA":3928,"ĠyFyCjwAj":3929,"ĠxBxFxD":3930,"ĠxBxFxDwD":3931,"ĠyCjxGxC":3932,"ĠyCjxGxE":3933,"ĠyCjxGxEwE":3934,"ĠyCxFjxDj":3935,"ĠyCxFjxDjwDj":3936,"ĠyGjyDjwGj":3937,"ĠyGjyDjxGj":3938,"ĠxAxDwBwFjvB":3939,"ĠxEwAjwC":3940,"ĠyDjxAxD":3941,"ĠxGjxCjwAjwFvAj":3942,"ĠyGjyExCj":3943,"ĠxGjxDjwAjwFvAj":3944,"ĠyExAjxDj":3945,"ĠxGxDwAwEvA":3946,"ĠxBxAwFj":3947,"ĠwAjwFjwCjvAj":3948,"ĠwAwFwCvA":3949,"ĠwAjwGjvDj":3950,"ĠyCxAjwG":3951,"ĠyCjxBwGj":3952,"ĠxAxEwBwFjvB":3953,"ĠxAjxFxCwGwC":3954,"ĠxFjxDjwAjwEvB":3955,"ĠyAyEwA":3956,"ĠyAyExBxE":3957,"ĠxGxCwAwEvA":3958,"ĠxBxFjxCjwGjwCj":3959,"ĠyDxBxGxD":3960,"ĠyAjyFwAj":3961,"ĠyAjyFyCxF":3962,"ĠxFxDwAwDjvAj":3963,"ĠyAyFyCxF":3964,"ĠyAjyFjyCjxFj":3965,"ĠyByFjwB":3966,"ĠyByFjyD":3967,"ĠyByFjyCjxFj":3968,"ĠyDjyCxGjxDj":3969,"ĠxEwGjwEvB":3970,"ĠxEwGjwEvE":3971,"ĠyCxFxDwAwD":3972,"ĠyCjxFjxDjwAjwDj":3973,"ĠyAyDxB":3974,"ĠyAjyDjyC":3975,"ĠyByEyCj":3976,"ĠyFjyDwB":3977,"ĠyGyDjxC":3978,"ĠxExCjwGjwDvA":3979,"ĠxDjxCwGwCjvGj":3980,"ĠxDwBwFjwCvG":3981,"ĠxFwAjwFjvAj":3982,"ĠxEwAwFvA":3983,"ĠxCjwAjwFvBvFj":3984,"ĠxCwAwEvAjvF":3985,"ĠyFyDxAjxF":3986,"ĠyFjyDjxBxFj":3987,"ĠxEwBwAvE":3988,"ĠyFjxBxGjwGj":3989,"ĠyFxAjxGwG":3990,"ĠxGjxCjwAwCj":3991,"zCyF":3992,"zCjyFj":3993,"ĠxGxCwGjwC":3994,"ĠxFjwBwGvB":3995,"xAxFxC":3996,"ĠwFjwDjvBvFj":3997,"ĠwFwDvAjvF":3998,"ĠzCyGxC":3999,"ĠzCyGyDj":4000,"ĠzCyGyE":4001,"ĠzCjyGjxCj":4002,"ĠwEwCjvAvE":4003,"ĠwDjwCvGjvDj":4004,"ĠyAyCwF":4005,"ĠyEyCxGxE":4006,"ĠyFyCjxGjxF":4007,"ĠwDvBvGvD":4008,"ĠwBwFjwEvE":4009,"ĠwAjwFwDjvDj":4010,"ĠwAwEwDvD":4011,"ĠzCyAyF":4012,"ĠzCjyAjyFj":4013,"ĠwAwFjwCjvGvD":4014,"ĠwBwGjwDjvAvE":4015,"ĠwAjwGwDvGjvDj":4016,"ĠyFjyDxAxFj":4017,"ĠyGyDjxAjxG":4018,"ĠxAjxGxCwGwEwC":4019,"ĠxBxGjxCjwGjwFwCj":4020,"ĠyGjyExBxGj":4021,"ĠyAjyCjwFj":4022,"ĠzDyAxD":4023,"ĠzDjyAjxDj":4024,"ĠzDjyAjyG":4025,"ĠzEyBxE":4026,"ĠyDxAxEwBwE":4027,"ĠyDjxAjxFxCwF":4028,"ĠyExBxFjxCjwFj":4029,"ĠzFzCxF":4030,"ĠzFjzCjxFj":4031,"ĠxFjxDjwGjwDjwCvGj":4032,"ĠxFxDwGwDvBvG":4033,"ĠxGjxFwAjwFwDvAj":4034,"ĠxGxEwAwEwCjvA":4035,"ĠxAxFjwBwFjwDjvB":4036,"ĠyCxAxDwAwFjwD":4037,"ĠyCjxAjxDjwAjwGwDj":4038,"ĠwAjwDjwCjvAjvCjuFj":4039,"ĠwAwDwCvAvCuF":4040,"ĠyDxBxEwBwGjwE":4041,"ĠyDjyCxFxCwAwF":4042,"ĠyEyCjxFjxCjwAjwFj":4043,"ĠxFjxDjxDjwCjvB":4044,"ĠxFxDxDwCvAj":4045,"ĠxGxCwAjwGvAjvDj":4046,"ĠxGjxCjwBwGjvBvE":4047,"ĠxExCjxCjvBvA":4048,"ĠxDjxCxCvAjvGj":4049,"ĠxFwAjwGjwFvGjvCj":4050,"ĠxEwAwGwEvGvC":4051,"ĠxFjwBwAwFjvAvD":4052,"ĠxDwBwBvAvG":4053,"ĠxDjwGjwFjwDjvFjuB":4054,"ĠxDwGwFwDvFuAj":4055,"ĠxGjxFxFwDjwCj":4056,"ĠxGxExEwDwC":4057,"ĠxCjwAjwAjvGjvFj":4058,"ĠxAxFjxFjwEwD":4059,"ĠxCwAwAvGvF":4060,"ĠxCjwFjwEwCjvEuA":4061,"ĠxCwFwDjwCvDjuGj":4062,"ĠwBwEwDvBvDuG":4063,"ĠuFj":4064,"ĠxExDj":4065,"ĠxDjxD":4066,"ĠxDjwFjwCj":4067,"ĠxDjxCjwFj":4068,"ĠxDwFwC":4069,"ĠxDxCwF":4070,"ĠxGjwEvA":4071,"ĠxCwB":4072,"ĠxAwFvAj":4073,"ĠxAjwFjvB":4074,"ĠxBwGwC":4075,"ĠwGjwFjvB":4076,"ĠwGwFj":4077,"ĠwGwFvAj":4078,"ĠyCwGjwCj":4079,"wGwCj":4080,"ĠyCjwAwD":4081,"wFjwC":4082,"wFvB":4083,"wDuB":4084,"wDjvC":4085,"ĠwFjwF":4086,"ĠwFjwEvA":4087,"ĠwFwE":4088,"ĠwFwDjvGj":4089,"xDvB":4090,"xDjwC":4091,"ĠwEvDj":4092,"ĠwEwDvG":4093,"ĠwEwCjvGj":4094,"ĠyDyD":4095,"ĠyDwAjwDj":4096,"ĠyDjyDj":4097,"ĠyDjwBwE":4098,"xEvA":4099,"vAjvG":4100,"vAvFj":4101,"ĠwDjwDj":4102,"ĠwDjvD":4103,"ĠwDjwCvG":4104,"ĠwDwD":4105,"ĠwDvCj":4106,"ĠwDvBvFj":4107,"ĠwDwCjvAvE":4108,"xFvAj":4109,"xFjvB":4110,"ĠwCjvC":4111,"ĠwCjvAjvF":4112,"ĠwCjwCvGjvDj":4113,"ĠwCuB":4114,"ĠwCuAj":4115,"ĠwCvAvE":4116,"ĠwCvBvGvD":4117,"ĠyExF":4118,"ĠyFwB":4119,"ĠyFxFj":4120,"ĠvBvF":4121,"ĠvBuA":4122,"ĠvBvEuA":4123,"ĠyFjxC":4124,"xAwA":4125,"ĠyGxCj":4126,"ĠyGyF":4127,"ĠyGjyFj":4128,"ĠxEwBwB":4129,"ĠxEwBwDj":4130,"ĠxEwBvFj":4131,"ĠxFxCxC":4132,"ĠxFxCvG":4133,"ĠxFjxCjxCj":4134,"ĠxFjxCjvGj":4135,"ĠxGjxDjxDj":4136,"ĠxGjxDjvAj":4137,"ĠxGxDxD":4138,"ĠxGxDvA":4139,"ĠxDwAwA":4140,"ĠxDwAwCj":4141,"ĠxDwAwGwDvG":4142,"ĠxDjwAjwAj":4143,"ĠxDjwAjwD":4144,"ĠxDjwAjwGjwDjvGj":4145,"ĠxAxEvB":4146,"ĠxAxEvG":4147,"ĠxAjxFvGj":4148,"ĠxBxFjvA":4149,"ĠxCjwGjwGj":4150,"ĠxCjwGjwC":4151,"ĠxCjwGjvB":4152,"ĠxCjwGjvE":4153,"ĠxCjwGjwFjwCjvFj":4154,"ĠxCwGwG":4155,"ĠxCwGvB":4156,"ĠxCwGvAj":4157,"ĠxCwGvDj":4158,"ĠxCwGwFwCvF":4159,"ĠxFjxDwG":4160,"ĠxFjxDvFj":4161,"ĠxFjxDwGjwE":4162,"ĠxGxDjwGj":4163,"ĠxGxDjvG":4164,"ĠxGxDjwAwF":4165,"ĠxFxCjvF":4166,"ĠxFxCjwGwDj":4167,"ĠxExCvE":4168,"ĠxExCwFjwD":4169,"ĠxGjxEvGj":4170,"ĠxGjxEwAjwFj":4171,"ĠyBwG":4172,"ĠyBwE":4173,"ĠwBwFjvAj":4174,"ĠwBwFjvD":4175,"ĠwAjwFvA":4176,"ĠwAjwFvCj":4177,"ĠwAwEvGj":4178,"ĠwAwEvC":4179,"yCxG":4180,"ĠyCxGvAj":4181,"ĠyCjxGjvB":4182,"ĠyCjxGjxFwF":4183,"ĠyCjxGjxFjxCj":4184,"yCjwAj":4185,"ĠxAxFwAj":4186,"ĠxAxFvA":4187,"ĠxAjxFjwB":4188,"ĠxAjxFjvAj":4189,"ĠxGxCwAjvGj":4190,"ĠxGjxCjwBvA":4191,"ĠxDjwBwGjwE":4192,"ĠxDwAjwGwDj":4193,"ĠxCjwAwFjvB":4194,"ĠxCjwAwFjwD":4195,"ĠxCwGjwE":4196,"ĠxCwGjwFvAj":4197,"ĠxCwGjwFwCj":4198,"ĠxFwAjwFwC":4199,"ĠxFwAjwGjvFj":4200,"ĠxEwAwGvF":4201,"ĠxFjwBwFjwCj":4202,"ĠxFjwBwAvG":4203,"ĠxAxDxCvAj":4204,"ĠxAjxDjxCjvB":4205,"ĠwBwGwDj":4206,"ĠwBwGwEvA":4207,"ĠwBwGwEwC":4208,"ĠxBxExDwC":4209,"ĠxDjwGjvB":4210,"ĠxDwGvAj":4211,"ĠxEwEuA":4212,"ĠxFwFuAj":4213,"ĠxFjwFjuB":4214,"ĠxGjxFwBwGj":4215,"ĠxGxEwAjwG":4216,"ĠxCjwAjwEvFj":4217,"ĠxCwAwDjvF":4218,"ĠwGjwDjvB":4219,"ĠwGjwDjvG":4220,"ĠwGwDvAj":4221,"ĠwGwDvFj":4222,"ĠyDxAwC":4223,"ĠyDxAxDwAwD":4224,"ĠyDjxAjwCj":4225,"ĠyDjxAjxDjwAjwDj":4226,"ĠyCxFxDjwCj":4227,"ĠyCjxFjxEwD":4228,"ĠxDjwDjvB":4229,"ĠxGwGvC":4230,"ĠxGjwGjvCj":4231,"ĠzCwGj":4232,"ĠzCxD":4233,"ĠxCjwCjvAj":4234,"ĠzCjwA":4235,"ĠzCjxDj":4236,"ĠxCwCvA":4237,"ĠxBxGvB":4238,"ĠyCxGjwC":4239,"ĠyCjxAwCj":4240,"ĠxAwAvD":4241,"ĠxAwAwFwD":4242,"ĠxAjwAjvDj":4243,"ĠxAjwAjwFjwDj":4244,"ĠyDxAjwD":4245,"ĠyDjxBwDj":4246,"ĠxBwBvE":4247,"ĠxBwBwGwE":4248,"wFjwCjvB":4249,"wFwCvAj":4250,"ĠxEwCvF":4251,"ĠxFwCjvFj":4252,"ĠxFjwDvG":4253,"ĠxGwDjvGj":4254,"ĠwFjwCjvA":4255,"ĠwFjwCjvF":4256,"ĠwFwCvE":4257,"ĠxCjwFjvA":4258,"ĠxCjwFjwDjvGj":4259,"ĠxCwFvGj":4260,"ĠxCwFwDvG":4261,"ĠwBwEvG":4262,"ĠxCjwGjwCjvGj":4263,"ĠxCwGwCvG":4264,"ĠyCxCwGjwF":4265,"ĠwAjwFjwDjvGj":4266,"ĠwAwFwDvG":4267,"ĠyCjxCjwAwFj":4268,"ĠyDxGwA":4269,"ĠyDxGxFwDj":4270,"ĠyDjxGjwAj":4271,"ĠyDjxGjxFjwE":4272,"ĠxFjwAwCj":4273,"ĠxFwGjwC":4274,"ĠxEwGvB":4275,"ĠxGjxCvG":4276,"ĠxAxCjvGj":4277,"ĠxGwBvFj":4278,"ĠxGjxDjwBvAj":4279,"ĠxGxDwAjvA":4280,"ĠxFxCwGjvG":4281,"ĠxFjxCjwAvGj":4282,"ĠxEwBwGvFj":4283,"ĠxAxCvD":4284,"ĠxAjxCjvDj":4285,"ĠwGwCvGj":4286,"ĠwBwGjwDvE":4287,"ĠxDjwFjwDjvB":4288,"ĠxDwFwDvAj":4289,"ĠyCjxEwB":4290,"ĠyCjxEvB":4291,"ĠyCjxEvFj":4292,"ĠxBxDwA":4293,"ĠxBxDvA":4294,"ĠxBxDvE":4295,"ĠwAjwGvDj":4296,"ĠwGjwEvFj":4297,"ĠwGwEvC":4298,"ĠyCxDjwAj":4299,"ĠyCxDjvAj":4300,"ĠyCxDjvF":4301,"ĠyExAxC":4302,"ĠyFxAjxCj":4303,"ĠxAxFxCwG":4304,"ĠxAjxFjxCjwGj":4305,"ĠxCjwEvFj":4306,"ĠxCjwEwCjvA":4307,"ĠxCwDjvF":4308,"ĠxCwDjwCvGj":4309,"ĠwBwDvE":4310,"ĠwBwDvBvG":4311,"ĠwAwFjvD":4312,"ĠwGjwFvCj":4313,"ĠxGjxDjwGjwDj":4314,"ĠxGxDwGwD":4315,"ĠxFwGvF":4316,"ĠxAjxDvA":4317,"ĠxFjwGjvFj":4318,"ĠyCjxAxEwCj":4319,"ĠxBxDjvAj":4320,"ĠxFjwAjvF":4321,"ĠyDxAjxFwD":4322,"ĠxFwAvE":4323,"ĠxEwFjvE":4324,"ĠxAjxCwGjvGj":4325,"ĠxDjwFvDj":4326,"ĠxDwEvD":4327,"ĠxFjxDjwBwFj":4328,"ĠxEwGjvB":4329,"ĠxEwGjvE":4330,"ĠwFjvBvGj":4331,"ĠwFjvBvG":4332,"ĠxFxDwAjwF":4333,"ĠxGxDjxCwG":4334,"ĠxGjxExCjwGj":4335,"ĠwFvAjvG":4336,"ĠyFxAxD":4337,"ĠyFjxAjxDj":4338,"ĠxBxCjwAvA":4339,"ĠwEvAvFj":4340,"ĠxBxGxDvB":4341,"ĠyCxGjxDjwC":4342,"ĠxDjxCwGjwDj":4343,"ĠwEvBvGj":4344,"ĠxDwBwGwD":4345,"ĠxFjxCjwAjwFjwCj":4346,"ĠxCwDvC":4347,"ĠxCjwDjvCj":4348,"ĠxFjxEvB":4349,"ĠxFxCwAwFwC":4350,"ĠxDjwBwFjvDj":4351,"ĠxDjwBwFjwDjvGj":4352,"ĠxDwAjwFwDvG":4353,"ĠxCwAjwC":4354,"ĠxCwAjwFwCvF":4355,"ĠxBxGxEwB":4356,"ĠyCjxAxFjxCj":4357,"ĠyDxAjxGxC":4358,"ĠyDxAjxGxD":4359,"ĠyDjxBxGjxCj":4360,"ĠyDjxBxGjxDj":4361,"ĠxCjwBwCj":4362,"ĠxCjwBwFjwCjvFj":4363,"ĠxExDvA":4364,"ĠxFxDjvAj":4365,"ĠxGxCwGvE":4366,"ĠxGjxCjwGjvF":4367,"ĠxAjxDjwAjvG":4368,"ĠxBxEwBvGj":4369,"ĠyCxExCwAwEvA":4370,"ĠyCjxFxCjwAjwFvAj":4371,"ĠwBwCjuB":4372,"ĠyDxFjxDwBwFjvB":4373,"ĠyDjxGxDjxCwGwC":4374,"ĠxAxEwAwEvA":4375,"ĠxAxDwAvFj":4376,"ĠwFwDvGj":4377,"ĠxAjxFwAjwFvAj":4378,"ĠxBxFjwBwFjvB":4379,"ĠyGyCxC":4380,"ĠyGjyCjxCj":4381,"ĠyCxFxCvA":4382,"ĠyCjxFjxCjvAj":4383,"ĠxAxGxD":4384,"ĠyCxGjxFxC":4385,"ĠxAjxGjxDj":4386,"ĠwBwAvB":4387,"ĠyExGwA":4388,"ĠyExGxE":4389,"ĠyExGxExC":4390,"ĠxEwBwGjwEvB":4391,"ĠyFxGjwAj":4392,"ĠyFxGjxF":4393,"ĠyFxGjxFxCj":4394,"ĠyDjxAjxGwG":4395,"ĠyCxGxEwE":4396,"ĠyGyDxGxDwG":4397,"ĠxDjwAjwGwDjvAj":4398,"ĠyGyExC":4399,"ĠyGyExE":4400,"ĠxDwAwFjwDvA":4401,"ĠyGjyFxCj":4402,"ĠyGjyFxF":4403,"ĠyDxAxFjwFj":4404,"ĠyFjxAwB":4405,"ĠyFjxAxFjxD":4406,"ĠyAyFjxD":4407,"ĠyAyFjxFj":4408,"ĠyAjyGxDj":4409,"ĠyAjyGxG":4410,"ĠyGxAjxGxDj":4411,"ĠyGjyDjxGjxDjwGj":4412,"ĠyGjxBxGj":4413,"ĠyGjxBxGjxE":4414,"ĠyDjxAwF":4415,"ĠyExAjwFj":4416,"ĠxDwGjvE":4417,"ĠwCjvFjvCj":4418,"ĠwCjvFjuB":4419,"ĠwCvFvC":4420,"ĠwCvFuAj":4421,"ĠyFyDxD":4422,"ĠyFjyDjxDj":4423,"ĠwAjwGwDjvDj":4424,"ĠwAwFjwDvD":4425,"ĠwGjwFwCjvCj":4426,"ĠwGwEwCvC":4427,"ĠyByGjxE":4428,"ĠyByGjxGj":4429,"ĠyDxGjwE":4430,"ĠyGxBwE":4431,"ĠyAyFxD":4432,"ĠyAjyFjxDj":4433,"wGwDwC":4434,"ĠyGjyCwF":4435,"ĠyAyCjwFj":4436,"ĠxEwAwFjvD":4437,"ĠyAyDxD":4438,"ĠyAjyDjxDj":4439,"ĠyByExE":4440,"ĠxDjwGjwFvCj":4441,"ĠxDwGwEvC":4442,"ĠxFwAjwGvDj":4443,"ĠxFjwBwGjvE":4444,"ĠyCxGxCwGwC":4445,"ĠyCjxGjxCjwGjwCj":4446,"ĠyDxGxDvB":4447,"ĠyDjxGjxDjwC":4448,"ĠxGjxDjxCjvGj":4449,"ĠxGxDxCvG":4450,"ĠyExAxEwCj":4451,"ĠyFjxBxFjwDj":4452,"ĠyFxAjxFwD":4453,"ĠxBxFjxEvB":4454,"ĠyGxBxGwG":4455,"ĠyAjyDwG":4456,"ĠyByDjwGj":4457,"ĠyGjyCxGjwGj":4458,"yCjxAjwAj":4459,"ĠzCjyGjyF":4460,"ĠxAwBwGvG":4461,"ĠxAwBwGvE":4462,"wBwFjwE":4463,"ĠyDxDwAjwG":4464,"ĠyDjxDjwBwGj":4465,"ĠyExBxEwBwE":4466,"ĠyCxDwAjvAj":4467,"ĠyCxDwAjvG":4468,"ĠyCjxDjwBvB":4469,"ĠyCjxDjwBvGj":4470,"ĠxAxExDvA":4471,"ĠxAjxFxDjvAj":4472,"ĠyByGxG":4473,"ĠyByGyD":4474,"ĠzCyAxF":4475,"ĠzCjyAjxFj":4476,"ĠzCyGjxGj":4477,"ĠwBwAwEvBvE":4478,"ĠyCxGxFwC":4479,"ĠzCjyAyE":4480,"ĠxAxCjwAwEwCjvA":4481,"ĠxAjxCwGjvF":4482,"ĠxBxCjwAvFj":4483,"ĠxAjxDwAjwFwDvAj":4484,"ĠxBxDjwBwFjwDjvB":4485,"ĠxGjxCwGjwDjwCvGj":4486,"ĠyDyCxGxC":4487,"ĠxAxFjxCwA":4488,"ĠxAjxGxCjwAj":4489,"ĠxGwBwGwDvBvG":4490,"ĠzDyAyFj":4491,"ĠyFyCxFxCwF":4492,"ĠyFjyCjxFjxCjwFj":4493,"ĠxGwAwFvF":4494,"ĠxGjwAjwFjvFj":4495,"ĠyCjxGjxFjwCj":4496,"ĠxBxGjxDwE":4497,"ĠyCxAxDjwF":4498,"ĠyCjxAjxEwFj":4499,"ĠyDjyCjxGjxCj":4500,"ĠzEyByG":4501,"ĠzCyEyC":4502,"ĠzFzCyGj":4503,"ĠzFjzCjyA":4504,"ĠwAjwCjvAjvAjvCjuFj":4505,"ĠwAwCvAvAvCuF":4506,"ĠzGzCyG":4507,"ĠzGzDyAj":4508,"ĠzGjzCjyGj":4509,"ĠzAzDyA":4510,"ĠzAjzDjyAj":4511,"ĠwAjwAwFwC":4512,"ĠyExGjxExCjwGjwCj":4513,"ĠxFjwAwFjwFjvAvD":4514,"ĠxFwGjwFwFvGjvCj":4515,"ĠxEwGwEwEvGvC":4516,"ĠxGwAjwGwGvAjvDj":4517,"ĠxGjwBwGjwGjvBvE":4518,"ĠxDjwFjwDjwDjvFjuB":4519,"ĠxDwFwDwDvFuAj":4520,"ĠxCjwEwCjwCjvEuA":4521,"ĠxCwDjwCwCvDjuGj":4522,"ĠwBwDvBvBvDuG":4523,"Ġj":4524,"ĠuF":4525,"ĠxExEwE":4526,"ĠxFwGwC":4527,"ĠxFwBwE":4528,"ĠxFwAvA":4529,"ĠxFxFwF":4530,"ĠxFjwGjwCj":4531,"ĠxFjxFjwFj":4532,"ĠxDjuB":4533,"ĠxDjxDjwDj":4534,"ĠxDuAj":4535,"ĠxDxDwD":4536,"ĠxGwAwD":4537,"ĠxGwAvA":4538,"ĠxGjwAjwDj":4539,"ĠxCjuA":4540,"ĠxCjxCjwCj":4541,"ĠxCxCwC":4542,"ĠxAwBwE":4543,"ĠxAjxA":4544,"ĠxAjxCwF":4545,"ĠwBwBvB":4546,"ĠxBwEvA":4547,"ĠxBxCjwFj":4548,"ĠwAjuGj":4549,"ĠwAjwGjwDjvGj":4550,"ĠwAjwEvB":4551,"ĠwAwAvA":4552,"ĠwAwDjvAj":4553,"ĠwAwGjwEvB":4554,"ĠwGjwEwC":4555,"ĠwGjwDvA":4556,"ĠwGjwGwDjvAj":4557,"ĠwGwCjvGj":4558,"ĠwGwFjwDvA":4559,"ĠyCwFvAj":4560,"ĠyCxDwD":4561,"ĠyCjwFjvB":4562,"ĠyCjxDjwDj":4563,"ĠyCjxFwF":4564,"wAvD":4565,"wAjvDj":4566,"wDvGj":4567,"xCwAwD":4568,"xCjwAjwDj":4569,"ĠwFjwDjvGj":4570,"ĠwFjwCvGj":4571,"ĠwFjwCvG":4572,"ĠwFjwFwCjvGj":4573,"ĠwFwDvG":4574,"ĠwFvBvG":4575,"ĠwFvBvFj":4576,"ĠwFwEwCvG":4577,"ĠwEvAjvF":4578,"ĠwEwDjvBvFj":4579,"ĠyDwGwC":4580,"ĠyDwBwG":4581,"ĠyDjwGjwCj":4582,"ĠyDjyCjxAj":4583,"xEwCj":4584,"ĠwDjvE":4585,"ĠwDjvAvE":4586,"ĠwDjvBvFjuB":4587,"ĠwDjwDvAjvF":4588,"ĠwDvDj":4589,"ĠwDvBvE":4590,"ĠwDvBvFjuB":4591,"ĠwDvAjvFuAj":4592,"ĠwDvGjvDj":4593,"ĠwCjvEuA":4594,"ĠwCjvAjvFuAj":4595,"ĠwCjvGvD":4596,"ĠwCvDjuGj":4597,"ĠwCvAvEuA":4598,"ĠwCvFjvCj":4599,"ĠyEyD":4600,"ĠyEwAwD":4601,"ĠyFyDj":4602,"ĠyFwAjwDj":4603,"ĠyFxDwAj":4604,"ĠvBvDuG":4605,"ĠvBvFvC":4606,"ĠyFjwBwE":4607,"ĠyFjxDjwB":4608,"ĠyGyCjxAjwAj":4609,"ĠxEwBvF":4610,"ĠxFxCvFj":4611,"ĠxFjxCjvG":4612,"ĠxGjxDjvA":4613,"ĠxGxDvGj":4614,"ĠxDjwAjwGjwDj":4615,"ĠyAyDxAxD":4616,"ĠyAjyDjxAjxDj":4617,"ĠyAjyCjxAj":4618,"ĠyAjyCjxAjxFj":4619,"ĠxAxEvAj":4620,"ĠxAjxFwC":4621,"ĠxAjxFvB":4622,"ĠxBxFjwCj":4623,"ĠxBxFjwC":4624,"ĠxCjwGjwFjwCj":4625,"ĠxCjwGjwEvBvE":4626,"ĠxCwGwFwC":4627,"ĠxFjxDvE":4628,"ĠxFjxDwGwD":4629,"ĠxFjxDwGwE":4630,"ĠxGxDjvF":4631,"ĠxGxDjwGjwDj":4632,"ĠxGxDjwGjwF":4633,"ĠxFxCjvDj":4634,"ĠxFxCjwFjwCj":4635,"ĠxFxCjwFjwDj":4636,"ĠxExCvD":4637,"ĠxExCwFwC":4638,"ĠxExCwFwD":4639,"ĠxGjxEvFj":4640,"ĠxGjxEwAwFj":4641,"ĠyBxC":4642,"ĠwBwFjwFj":4643,"ĠwBwFjvA":4644,"ĠwAjwFwF":4645,"ĠwAjwFvGj":4646,"ĠwAwEwE":4647,"ĠwAwEvG":4648,"ĠyCxGwD":4649,"ĠyCxGwCj":4650,"ĠyCxGvA":4651,"ĠyCjxGjwDj":4652,"ĠyCjxGjvAj":4653,"ĠxAxFwBwG":4654,"ĠxAxFwAjwG":4655,"ĠxAjxFjxCwGj":4656,"ĠxAjxFjwBwGj":4657,"ĠxFjxDjwE":4658,"ĠxFjxDjwAwFj":4659,"ĠxFxDwDj":4660,"ĠxFxDwAvA":4661,"ĠxFxDwGjwF":4662,"ĠxGxCwAj":4663,"ĠxGjxCjwB":4664,"ĠxDjwBwG":4665,"ĠxDjwBvCj":4666,"ĠxDjwBwGjvGj":4667,"ĠxDjwBwEwCj":4668,"ĠxExCjwD":4669,"ĠxExCjwGwE":4670,"ĠxDwAjwFj":4671,"ĠxDwAjvC":4672,"ĠxDwAjwGvG":4673,"ĠxDwAjwDjwC":4674,"ĠxCjwAwF":4675,"ĠxCjwAuB":4676,"ĠxCjwAwDvB":4677,"ĠxCwGjuAj":4678,"ĠxDjxCwCj":4679,"ĠxDjxCwFjwDj":4680,"ĠxFwAjwGj":4681,"ĠxEwAwG":4682,"ĠxFjwBwA":4683,"ĠxDwBwC":4684,"ĠxDwBwFwD":4685,"ĠxAxDwAvA":4686,"ĠwBwGvD":4687,"ĠwBwGuA":4688,"ĠxBxEwG":4689,"ĠxBxExD":4690,"ĠxEwEvB":4691,"ĠxEwEvG":4692,"ĠxFwFwC":4693,"ĠxFwFvGj":4694,"ĠxFwFvF":4695,"ĠxFjwFjwD":4696,"ĠxFjwFjwCj":4697,"ĠxFjwFjvA":4698,"ĠxFjwFjvFj":4699,"ĠxCjwAjwE":4700,"ĠxCjwAjvCj":4701,"ĠxCjwAjwEwCj":4702,"ĠxAxFjxCjwCj":4703,"ĠxAjxGxDwD":4704,"ĠxCwAwDj":4705,"ĠxCwAvC":4706,"ĠxCwAwDjwC":4707,"ĠwGjwDjvBvFjuB":4708,"ĠwGwDvAjvFuAj":4709,"ĠxBxGjwB":4710,"ĠxBxGjxDjwDj":4711,"ĠyDxAwE":4712,"ĠyDxAvB":4713,"ĠyDjxAjwF":4714,"ĠyDjxAjwC":4715,"ĠyCxFwGj":4716,"ĠyCxFxDj":4717,"ĠyCjxFjwA":4718,"ĠxDjwDjvFj":4719,"ĠxDwDvF":4720,"ĠxGwGwDj":4721,"ĠxGwGvAj":4722,"ĠxGwGwDjvAj":4723,"ĠxGjwGjvB":4724,"ĠxGjwGjwEvB":4725,"ĠzCwF":4726,"ĠzCxCj":4727,"ĠxCjwCjvE":4728,"ĠzCjwFj":4729,"ĠzCjxD":4730,"ĠxCwCvDj":4731,"ĠxBxGwC":4732,"ĠxBxGxCjwA":4733,"ĠyCxGjwCj":4734,"ĠyCxGjxDwAj":4735,"ĠyCjxAwD":4736,"ĠyCjxAxDjwB":4737,"ĠyDxAjwDj":4738,"ĠyDxAjxExC":4739,"ĠyDjxBwE":4740,"ĠyDjxBxFxCj":4741,"ĠxBwBvG":4742,"ĠxAwDvG":4743,"ĠxAjwDjvGj":4744,"ĠwBvBvD":4745,"ĠxEwCvD":4746,"ĠxFwCjvDj":4747,"ĠxFjwDvE":4748,"ĠxGwDjvF":4749,"ĠxGjwEvFj":4750,"ĠwFjwCjvAjvDj":4751,"ĠwFjwCjvAvEuA":4752,"ĠwFwCvAvD":4753,"ĠxCjwFjvDj":4754,"ĠxCwFvD":4755,"ĠzDwG":4756,"ĠzDwAj":4757,"ĠzDxDj":4758,"ĠzDxA":4759,"ĠzDxB":4760,"ĠzDyFjxB":4761,"ĠzDjwGj":4762,"ĠzDjwB":4763,"ĠzDjxE":4764,"ĠzDjxAj":4765,"ĠyCxCwA":4766,"ĠyCxCvGj":4767,"ĠwAjwFjvCj":4768,"ĠwAjwFjwDjvAjvDj":4769,"ĠwAwFwCj":4770,"ĠwAwFvC":4771,"ĠwAwFwDvAvD":4772,"ĠyCjxCjwAj":4773,"ĠyCjxCjvA":4774,"ĠyDxGwAj":4775,"ĠyDjxGjwB":4776,"ĠxFjwAwAwD":4777,"ĠxFwGjwGjwCj":4778,"ĠxAwFvG":4779,"ĠxAjwFjvGj":4780,"ĠxGwEuA":4781,"ĠxEwGwGwC":4782,"ĠxGwAjwAjwDj":4783,"ĠxGjwFuAj":4784,"ĠyCxAwG":4785,"ĠyCxAwE":4786,"ĠyCxAwC":4787,"ĠyCxAxEwE":4788,"ĠyExBwA":4789,"ĠyExBwCj":4790,"ĠyExBxGxC":4791,"ĠxGjwBwBwE":4792,"ĠxGjxCwCj":4793,"ĠxGjxCwAjvF":4794,"ĠxAxCjwD":4795,"ĠxAxCjwBvFj":4796,"ĠyCjxAjwF":4797,"ĠyCjxAjwCj":4798,"ĠyCjxAjxFwF":4799,"ĠwAjwDjvB":4800,"ĠwAjwDjvG":4801,"ĠwAjwDjvFj":4802,"ĠyCjxGjxEwBwE":4803,"ĠxGwBwC":4804,"ĠxGwBwAvE":4805,"ĠwAwDvAj":4806,"ĠwAwDvFj":4807,"ĠwAwDvF":4808,"ĠxAxExCwGwC":4809,"ĠxAjxFxCjwGjwCj":4810,"ĠxGjxDjwBwFjvB":4811,"ĠxGxDwAjwFvAj":4812,"ĠxBxFjxDwAwD":4813,"ĠyCxGxDjwAjwDj":4814,"ĠxAwFjuB":4815,"ĠxFxCwGjwDjvGj":4816,"ĠxFjxCjwAwEvA":4817,"ĠxEwBwGwDvG":4818,"ĠxAjwGvC":4819,"ĠxBwGjvCj":4820,"ĠxAxCwE":4821,"ĠxAxCvG":4822,"ĠxAxCwFwC":4823,"ĠxAxCxCwF":4824,"ĠxAjxCjwF":4825,"ĠxAjxCjvGj":4826,"ĠxAjxCjwFjwCj":4827,"ĠxAjxCjxCjwFj":4828,"ĠwGjwCjvA":4829,"ĠwGjwCjvF":4830,"ĠwGjwCjvE":4831,"ĠwGjwCjvDj":4832,"ĠwGwCvE":4833,"ĠwGwCvDj":4834,"ĠwBwGjwD":4835,"ĠwBwGjwDvB":4836,"ĠyDxDvAj":4837,"ĠyDjxDjvB":4838,"ĠyCjxEwGj":4839,"ĠyCjxEwAwE":4840,"ĠyCjxExEwA":4841,"ĠwGwDvGvD":4842,"ĠwGjwDjvGjvDj":4843,"ĠxBwGvA":4844,"ĠyCwGjvAj":4845,"ĠxBxDwFj":4846,"ĠxBxDxDwG":4847,"ĠwGjwEwCj":4848,"ĠwFwCjvAj":4849,"ĠwFwCjvDj":4850,"ĠwEwCvA":4851,"ĠwEwCvD":4852,"ĠwGwDjwC":4853,"ĠwGwDjvB":4854,"ĠwGwDjvF":4855,"ĠyCjwAvB":4856,"ĠwFjwDvB":4857,"ĠwFjwDvE":4858,"ĠyCxDjwG":4859,"ĠyCxDjxDjwGj":4860,"ĠyExAwB":4861,"ĠyExAxExC":4862,"ĠyFjxBxCj":4863,"ĠyFjxBxD":4864,"ĠyFjxBxFjxD":4865,"ĠyDwAjwC":4866,"ĠyDjwBwCj":4867,"ĠyFxAjxC":4868,"ĠyFxAjxFxCj":4869,"ĠyDxAxFxCwF":4870,"ĠyDjxAjxFjxCjwFj":4871,"ĠyFyCwAj":4872,"ĠyFyCxGjxCj":4873,"ĠyFjyCjwB":4874,"ĠyDxFwA":4875,"ĠyDxFxC":4876,"ĠyDxFxFwAj":4877,"ĠyDxFwAjwF":4878,"ĠyDjxFjwAj":4879,"ĠyDjxFjxCj":4880,"ĠyDjxFjxFjwB":4881,"ĠyDjxFjwBwFj":4882,"ĠyDxBxFjwFj":4883,"ĠxGjxDjxCwGjwDj":4884,"ĠxFwGvAj":4885,"ĠxFwGvG":4886,"ĠxAjxDwDj":4887,"ĠxFjwGjvB":4888,"ĠxFjwGjvGj":4889,"ĠxBxDjwE":4890,"ĠxFjwAjvAj":4891,"ĠxFjwAjwGjvDj":4892,"ĠyDjxBxFjwDj":4893,"ĠxFwAwGvD":4894,"ĠxEwFjvA":4895,"ĠxAjxCwAj":4896,"ĠxAjxCwDj":4897,"ĠxAjxCwC":4898,"ĠxAjxCvAj":4899,"ĠxDjwFvGj":4900,"ĠxDwEvG":4901,"ĠxEwGjvCj":4902,"ĠwFjvBvD":4903,"ĠwFvAjvFj":4904,"ĠwFvAjvCj":4905,"ĠxBxCjwB":4906,"ĠxBxCjwCj":4907,"ĠxGjwAjwCj":4908,"ĠxGjwAjvAj":4909,"ĠwEvAvF":4910,"ĠwEvAvC":4911,"ĠxDjwGvDj":4912,"ĠxDjwGvC":4913,"ĠxGwAwC":4914,"ĠxDwFjvD":4915,"ĠxDwFjuB":4916,"ĠwEvBuB":4917,"ĠxCwEuA":4918,"ĠyFxFwF":4919,"ĠyFjxFjwFj":4920,"ĠxCjwFuAj":4921,"ĠxAwBwA":4922,"ĠxAwBwD":4923,"ĠxAwBvB":4924,"ĠxAwBvA":4925,"ĠxFjxCjwAjvGj":4926,"ĠxCwDwC":4927,"ĠxCjwDjwCj":4928,"ĠyCwAvD":4929,"ĠyCjwAjvDj":4930,"ĠxBxGjxEwB":4931,"ĠxDjxCjwDj":4932,"ĠxDjxCjwGjvGj":4933,"ĠxDxCwD":4934,"ĠxDxCwGvG":4935,"ĠxCjwAwEwD":4936,"ĠxCjwAwEvE":4937,"ĠxCjwAwEvCj":4938,"ĠxFjxEwFj":4939,"ĠxFxCwAvG":4940,"ĠxCwGjwDjwCj":4941,"ĠxCwGjwDjvDj":4942,"ĠxCwGjwDjvC":4943,"ĠxGjxFxCjwGj":4944,"ĠxGxExCwG":4945,"ĠxDjwBwFjwE":4946,"ĠxDjwBwFjvFj":4947,"ĠxDwAjwFwDj":4948,"ĠxDwAjwFvF":4949,"ĠxDwAjwFvD":4950,"ĠwDjvAjvFj":4951,"ĠwDjvAjuAj":4952,"ĠwDvAvF":4953,"ĠwDvAuA":4954,"ĠxAjxDwAjwD":4955,"ĠxAjxDwAjwFvAj":4956,"ĠxBxDjwBwDj":4957,"ĠxBxDjwBwFjvB":4958,"ĠyCxEwE":4959,"ĠyCxExDvA":4960,"ĠwBwGwDwC":4961,"ĠwBwGwDvD":4962,"ĠwBwGwDuB":4963,"ĠxGjxCwGjwC":4964,"ĠxGjxCwGjwDjvGj":4965,"ĠxGwBwGvB":4966,"ĠxGwBwGwDvG":4967,"ĠxGjxFjwGj":4968,"ĠxGjxFjwCj":4969,"ĠxGjxFjxDjvGj":4970,"ĠxFjxCvF":4971,"ĠyDxFjwFj":4972,"ĠxBxGxEvE":4973,"ĠyCjxAxFjvFj":4974,"ĠxGxCjvFj":4975,"ĠyDxAjxGvG":4976,"ĠyDjxBxGjvGj":4977,"ĠxExDwE":4978,"ĠxFxDjwF":4979,"ĠxGxCwGvGj":4980,"ĠxGxCwGvG":4981,"ĠxGjxCjwGjvA":4982,"ĠxGjxCjwGjvGj":4983,"ĠyCjxFxDjvAj":4984,"ĠxDwAwFvE":4985,"ĠxDjwAjwFjvF":4986,"ĠyDjxGwG":4987,"ĠyDjxGxFwC":4988,"ĠxAjxDjwAjvB":4989,"ĠxAjxDjwAjvAj":4990,"ĠxBxEwBvB":4991,"ĠyExGjwGj":4992,"ĠyExGjxFjwCj":4993,"ĠyCxExCwGwC":4994,"ĠyCjxFxCjwGjwCj":4995,"ĠyDxFjxDwAwD":4996,"ĠyDjxGxDjwAjwDj":4997,"ĠxEwAwEvB":4998,"ĠxEwAwEvF":4999,"ĠxGxFwG":5000,"ĠxGxFwC":5001,"ĠxGxFxDvG":5002,"ĠxAxDwAvAj":5003,"ĠxDjwGjwDjvAj":5004,"ĠxDwGwDvA":5005,"ĠwFjwDjvFj":5006,"ĠwFwDvF":5007,"ĠxAjxEwG":5008,"ĠxAjxEwAj":5009,"ĠxAjxEvA":5010,"ĠxFwAjwFvFj":5011,"ĠxFjwBwFjvG":5012,"ĠxAxDjwA":5013,"ĠxAxDjwFj":5014,"ĠxAxDjvGj":5015,"ĠxFwBvE":5016,"ĠwCjvGjuGj":5017,"ĠyGyCxDj":5018,"ĠyGjyCjxE":5019,"ĠxEwBwGjvGj":5020,"ĠxEwBwGjvFj":5021,"ĠyDjxCvF":5022,"ĠyExCjvFj":5023,"ĠxGjxDwGj":5024,"ĠxGjxDwF":5025,"ĠxGjxDvG":5026,"ĠxGjxDwBvB":5027,"ĠxAxGwD":5028,"ĠxAxFjxDwA":5029,"ĠxAjxGxDjwAj":5030,"ĠyDwBvE":5031,"ĠyCxGjxFvF":5032,"ĠxAxCjwAwCj":5033,"ĠxAxCjwAwEvA":5034,"ĠyGyDxC":5035,"ĠyGyDxG":5036,"ĠwAwGvD":5037,"ĠwAwGwDvG":5038,"ĠyFjxAxFj":5039,"ĠxBxFwGj":5040,"ĠxBxFwB":5041,"ĠxBxFvAj":5042,"ĠyCjxGwAj":5043,"ĠyCjxGwC":5044,"wDvAvG":5045,"ĠyAyFjyDxA":5046,"ĠyAjyGyDjxAj":5047,"ĠyFjxAjxFjxDjwAjwDj":5048,"ĠyCxFjwA":5049,"ĠyCxFjvB":5050,"ĠyGxAjxG":5051,"ĠyGjyDjxCj":5052,"ĠxEwAjwE":5053,"ĠxEwAjvFj":5054,"ĠxDjwAjwGvF":5055,"ĠxDwAwFjvE":5056,"ĠyDjxAwD":5057,"ĠyDjxAxC":5058,"ĠyDjxAxFjwFj":5059,"ĠxDjwAwDj":5060,"ĠxDjwAvB":5061,"ĠxDjwAvF":5062,"ĠxCwGwEvD":5063,"ĠxGjxCjwAjvGj":5064,"ĠxCjwGjwFvDj":5065,"ĠxEwFwDvA":5066,"ĠxFwFjwDjvAj":5067,"ĠxFjwGwEvB":5068,"ĠxGwGjwFwC":5069,"ĠyExAjwDj":5070,"ĠyExAjxGwG":5071,"ĠxBxAxE":5072,"ĠwAjwFjwCjvB":5073,"ĠwAjwFjwCjvGj":5074,"ĠwAjwFjwCjvCj":5075,"ĠwAwFwCvAj":5076,"ĠwAwFwCvG":5077,"ĠwAwFwCvC":5078,"ĠwEwCjvFj":5079,"ĠwEwCjvE":5080,"ĠwEwCjvGjvCj":5081,"ĠxDwGjvAj":5082,"ĠwDjwCvF":5083,"ĠwDjwCvDj":5084,"ĠwDjwCvGvC":5085,"ĠxGjwAwFjwCj":5086,"ĠxAwAjwGwD":5087,"ĠxAjwBwGjwDj":5088,"ĠyFxDvG":5089,"ĠyFjxDjvGj":5090,"ĠyFxAxFxDwAwD":5091,"ĠyCxAjxF":5092,"ĠyCxAjxG":5093,"ĠyCjxBxFj":5094,"ĠyCjxBxGj":5095,"ĠxGxDwBwGwD":5096,"ĠxFjxDjwAjvAj":5097,"ĠxFjxDjwAjwFjvB":5098,"ĠwDvBvD":5099,"ĠyAyExD":5100,"ĠxGxCwAvG":5101,"ĠyDxGjwB":5102,"ĠyDxGjwCj":5103,"ĠyDxGjxF":5104,"ĠyDxGjxFwF":5105,"ĠyDxBxGwG":5106,"ĠyAjyFxDj":5107,"ĠyAjyFyCj":5108,"ĠxFxDwAwFvAj":5109,"ĠyExBxGjwGj":5110,"ĠyAjyFjyCj":5111,"ĠyAjyFjyCjxAjxFj":5112,"ĠzGyByE":5113,"ĠyByFjxE":5114,"ĠyDjyCxGjwGj":5115,"ĠxFxCwAjwFwCvF":5116,"ĠxFjxCjwBwFjwCjvFj":5117,"ĠwFjvAjvFj":5118,"ĠwFvAvF":5119,"ĠyDxEwG":5120,"ĠwCvGjvDj":5121,"ĠzGjzCyF":5122,"ĠxEwGjwEvCj":5123,"ĠxDjwEwCjvGj":5124,"ĠvBvGvD":5125,"ĠyDjxFwGj":5126,"ĠxCwCjvAjvF":5127,"ĠxEwAwFjvE":5128,"ĠxGjxFxCwC":5129,"ĠxGjxFxCwGjwCj":5130,"ĠxGjxFxCwFjwCj":5131,"ĠxDjwGwDjvDj":5132,"ĠxDjwGwDjvC":5133,"ĠxDwFjwDvD":5134,"ĠxDwFjwDuB":5135,"ĠxCjwDvBvFj":5136,"ĠxCjwFjwCjvGj":5137,"ĠxCwFwCvG":5138,"ĠwBwCvAvE":5139,"ĠwCjvAjvCj":5140,"ĠwCvAvC":5141,"ĠyExFjwA":5142,"ĠyAyDwG":5143,"ĠyAyDxBxE":5144,"ĠyAjyDjwGj":5145,"ĠyAjyDjyCxF":5146,"ĠyByExBxE":5147,"ĠyByEyCjxFj":5148,"ĠxDjwGjwFvDj":5149,"ĠxDwGwEvD":5150,"ĠxDwDjwCvG":5151,"ĠxGxEwBvB":5152,"ĠxGxEwBwGwC":5153,"ĠxGxEwBwFwC":5154,"ĠxCjwFwCjvCj":5155,"ĠxCwEwCvC":5156,"ĠwGjwFjvCj":5157,"ĠwGwFvC":5158,"ĠxAxDwAjwD":5159,"ĠxAjxDjwBwDj":5160,"ĠyFjyCjxAxD":5161,"ĠxCwFjvGj":5162,"ĠyGyDxAjxDj":5163,"ĠyGjyDjxBxE":5164,"ĠxExCjwGjwEvA":5165,"ĠxDjxCwGwDjvGj":5166,"ĠxDwBwFjwDvG":5167,"ĠxAxFjxCjwAwD":5168,"ĠxAjxGxDwAjwDj":5169,"ĠxBxGjxDjwBwE":5170,"ĠxFwAjwGvF":5171,"ĠxFjwBwGjvFj":5172,"ĠwBwFvG":5173,"ĠxCwGwDjvG":5174,"ĠxCwGwDjvAjvDj":5175,"ĠwBwFjwDvFj":5176,"ĠwBwFjwDvAvD":5177,"ĠxCjwGjwEvGj":5178,"ĠwAjwFwCjvF":5179,"ĠwAjwFwCjvGjvCj":5180,"ĠwAwEwCvE":5181,"ĠwAwEwCvGvC":5182,"ĠzCyFyCxF":5183,"ĠzCjyFjyCjxFj":5184,"ĠwDjvFjuB":5185,"ĠwDvFuAj":5186,"ĠxBxExCwE":5187,"ĠyCxFxCjwF":5188,"ĠxGjxDjxCjwGjwDjvGj":5189,"ĠxGxDxCwGwDvG":5190,"ĠyCjxFjxDwFj":5191,"ĠyDjxGjxEwGj":5192,"ĠyDxGxDjwG":5193,"ĠxCjwAwFjvFj":5194,"ĠxCwGjwFvF":5195,"ĠwBwGwEvE":5196,"ĠyGyEyCxG":5197,"ĠyGjyFyCjxGj":5198,"ĠxBxFjxEwBwFjvB":5199,"ĠyGxBxGxD":5200,"ĠyFxGwAj":5201,"ĠyFjxGjwB":5202,"wAjwFwDj":5203,"ĠwBwFjwDjvCj":5204,"ĠwAjwFwDvC":5205,"ĠwAwEwCjuB":5206,"ĠwAjwDjvAjvG":5207,"ĠwAwDvAvFj":5208,"ĠyDjyCxGwG":5209,"ĠyEyCjxGjwGj":5210,"ĠyAyCxAxF":5211,"ĠxAxExDwAwEvA":5212,"ĠxAjxFxDjwAjwFvAj":5213,"ĠyEyCxGxExC":5214,"ĠyFyCjxGjxFxCj":5215,"zDyG":5216,"ĠyExExCwA":5217,"ĠyFxFxCjwAj":5218,"ĠyFjxFjxDwB":5219,"ĠyGjxGjxExCj":5220,"ĠwGjwEvBvA":5221,"ĠwGwDjvAjvGj":5222,"ĠwGwDjvAjvG":5223,"ĠwFjwDvAvG":5224,"ĠwFjwDvAvFj":5225,"ĠyGyDxBxGxDwG":5226,"ĠzAzCjyFj":5227,"ĠzAjzDyG":5228,"ĠyGxGxDjxC":5229,"zDjyGj":5230,"ĠwAwDjwCvF":5231,"ĠwGjwDvBvE":5232,"ĠyGjxAjxCj":5233,"ĠzCyGjyDj":5234,"ĠwFwCjvGjvFj":5235,"ĠwFwCjvGjvF":5236,"ĠwEwCvGvF":5237,"ĠwEwCvGvE":5238,"ĠwBwAwEvE":5239,"ĠwBwAwEvD":5240,"ĠwAjwEwCjvFj":5241,"ĠyCxGxFxCwGwC":5242,"ĠzCjyAxA":5243,"ĠyGjyCjxAjxDj":5244,"ĠxBxDwGwD":5245,"ĠyCxDjwGjwDj":5246,"ĠzDyAjxAj":5247,"ĠzDyAjyF":5248,"ĠzDjyBxB":5249,"ĠzDjyByFj":5250,"ĠyGyCxAxD":5251,"ĠwAjwGjwDjvCj":5252,"ĠyFjyDxAxFjxD":5253,"ĠyGyDjxAjxGxDj":5254,"ĠyGjyExBxGjxE":5255,"ĠyDyCxG":5256,"ĠyDyCxA":5257,"ĠyDxExCwC":5258,"ĠyDjxFxCjwCj":5259,"ĠyFxBxGjwGj":5260,"ĠwGjwCjvGjvF":5261,"ĠwGwCvGvE":5262,"ĠyByGjyExB":5263,"ĠwAjwAjvAj":5264,"ĠyExFjxDwD":5265,"ĠyFxGxDjwDj":5266,"ĠyFjxGjxEwE":5267,"ĠyExBxGjxEwBwE":5268,"ĠxEwGwCvG":5269,"ĠxFwGjwCjvGj":5270,"ĠwGjwFjwCjuB":5271,"ĠwGwFwCuAj":5272,"ĠxCwGjwCjvAj":5273,"ĠwBwGwCvA":5274,"ĠyDxAxGwD":5275,"ĠyDxAxGxDwAwD":5276,"ĠyDjxAjxGjwDj":5277,"ĠyDjxAjxGjxDjwAjwDj":5278,"ĠxFjwAwDvA":5279,"ĠxGwAjwDjvAj":5280,"ĠxGjwBwEvB":5281,"ĠyFjyCxAwA":5282,"ĠvAjvCjuFj":5283,"ĠvAvCuF":5284,"ĠyFyCxAxFxCwF":5285,"ĠyDjyCjxGj":5286,"ĠyFjyCjxAjxFjxCjwFj":5287,"ĠxGxGwG":5288,"ĠxGjxGjwGj":5289,"ĠzBzDjyGj":5290,"ĠyGxAxC":5291,"ĠzEyByGj":5292,"ĠxCwAjwFvF":5293,"ĠxCwAjwFvDj":5294,"ĠxCjwBwFjvFj":5295,"ĠxCjwBwFjvE":5296,"ĠwAwGwDvC":5297,"ĠwFjwEvBuA":5298,"ĠzCyExA":5299,"ĠzCjyFxAj":5300,"ĠzCjyFyCj":5301,"ĠyAyFyCxAxF":5302,"ĠyAxBxD":5303,"ĠwFwDjvAjuGj":5304,"ĠwEwDvAuG":5305,"ĠwDjwCjvGjuFj":5306,"ĠwDwCvGuF":5307,"ĠyAjyCxDj":5308,"ĠyByCjxE":5309,"ĠyByDxBxG":5310,"ĠzCyDjyCxGj":5311,"ĠzCjyEyCjxA":5312,"ĠzDjyGyC":5313,"ĠzEyGjyCj":5314,"ĠyGjyDjyCxGjxDjwGj":5315,"ĠyAyEyCjxAxEwA":5316,"ĠyAjyFyDxAjxFwAj":5317,"ĠxFjxExCjvFj":5318,"ĠyByFjyDjxBxFjwB":5319,"ĠwEvBvGvDuG":5320,"ĠxEwBwAwEvBvE":5321,"ĠwFwCvGjvDjuGj":5322,"ĠzFyAyD":5323,"ĠzFjyAjyDj":5324,"ĠzGzDxG":5325,"ĠzGjzDjxGj":5326,"ĠzBzEyB":5327,"ĠzCyDxF":5328,"ĠzCjyDjxFj":5329,"ĠzDyFyDxAj":5330,"ĠzDjyFjyDjxB":5331,"ĠxFxDjxCvF":5332,"ĠyAjyFyDwAj":5333,"ĠyByFjyDjwB":5334,"ĠxAjxDxCvG":5335,"ĠxBxDjxCjvGj":5336,"ĠyDxFjxEvB":5337,"ĠxExDwBvE":5338,"ĠyCjxGjxFjxCjwGjwCj":5339,"ĠxExDjwB":5340,"ĠxExDjwBwFj":5341,"ĠxExExCwG":5342,"ĠxFxE":5343,"ĠxFxExC":5344,"ĠxFxExCwG":5345,"ĠxFxFxCjwGj":5346,"ĠxFjxF":5347,"ĠxFjxFxCj":5348,"ĠxFjxFxCjwGj":5349,"ĠxFjxFjxDwA":5350,"ĠxDjxDwAj":5351,"ĠxDjxDjwBwFj":5352,"ĠxDjxDwAjwF":5353,"ĠxDwGjwDjvGj":5354,"ĠxDxDwAjwF":5355,"ĠxGxFjxD":5356,"ĠxGxFjxDwA":5357,"ĠxGxGxDjwAj":5358,"ĠxGjxGxDj":5359,"ĠxGjxGxDjwAj":5360,"ĠxGjxGjxEwB":5361,"ĠxCjwGwDvG":5362,"ĠxCwFjwCjvFj":5363,"ĠxCwBwG":5364,"ĠxCuGj":5365,"ĠxCwBwGwD":5366,"ĠxAxGj":5367,"ĠxAxGjxE":5368,"ĠxAxGjxEwB":5369,"ĠxAxAxFxC":5370,"ĠxAjxAxFxC":5371,"ĠwBwBwE":5372,"ĠwBwDjvGj":5373,"ĠwBwFwCvF":5374,"ĠwBuG":5375,"ĠwBwBwGwD":5376,"ĠxBvF":5377,"ĠwAjwAjwDj":5378,"ĠwAjwDvG":5379,"ĠwAjwEvBvE":5380,"ĠwAwGj":5381,"ĠwAwAwD":5382,"ĠwAuG":5383,"ĠwAwDjvAjvDj":5384,"ĠwGjwG":5385,"ĠwGjwGjwCj":5386,"ĠwGjwGjwDjvGj":5387,"ĠwGwGwC":5388,"ĠwGvBvE":5389,"ĠwGwGwDvG":5390,"wGjvCj":5391,"ĠyCvFj":5392,"ĠyCxDwG":5393,"wGvC":5394,"ĠyCjvG":5395,"ĠyCjxDjwGj":5396,"wDwC":5397,"wDjwCj":5398,"xCwG":5399,"xCwE":5400,"xCwGwF":5401,"xCjwF":5402,"xCjwGjwFj":5403,"ĠwFjwFjvB":5404,"ĠwFjwFjwCjvFj":5405,"wCjvDj":5406,"ĠwFwFvAj":5407,"ĠwFwFwCvF":5408,"wCvD":5409,"xDjxCwF":5410,"ĠwEwEvA":5411,"ĠwEvAjvFj":5412,"vBvCj":5413,"ĠyDvGj":5414,"ĠyDxEwA":5415,"ĠyDjvA":5416,"ĠyDjxFwAj":5417,"vAjvGvC":5418,"vAvFjuB":5419,"ĠwDjwDjvGj":5420,"ĠwDjwCjvFj":5421,"ĠwDjvAvF":5422,"ĠwDwDvG":5423,"ĠwDwCvF":5424,"ĠwDvGjvE":5425,"vGvEuA":5426,"ĠwCjwCj":5427,"ĠwCjvD":5428,"ĠwCjvAjvDj":5429,"ĠwCjuFj":5430,"ĠwCwC":5431,"ĠwCvAvD":5432,"ĠwCuF":5433,"ĠyEvAj":5434,"ĠyExFjwB":5435,"ĠyFvB":5436,"ĠvBvDj":5437,"ĠvBvGjvDj":5438,"ĠyFjwC":5439,"ĠvAjuFj":5440,"ĠvAjvDjuGj":5441,"ĠvAjvGvD":5442,"ĠvAuF":5443,"ĠvAvDuG":5444,"ĠvAvFjvCj":5445,"xAxCwGwF":5446,"ĠyGwCj":5447,"ĠvGjvFj":5448,"ĠvGjvFvC":5449,"ĠvGvF":5450,"ĠvGvDj":5451,"ĠyGjwD":5452,"ĠyGjxD":5453,"xBwB":5454,"ĠxEwBwAj":5455,"ĠxEwBwEvA":5456,"ĠxEwBwFjwD":5457,"ĠxFxCwFvAj":5458,"ĠxFxCwGwDj":5459,"ĠxFjxCjwFjvB":5460,"ĠxFjxCjwGjwE":5461,"ĠxFjxCjwGjvGj":5462,"ĠxGjxDjwGjwCj":5463,"ĠxGxDwGwC":5464,"ĠxDwAwGj":5465,"ĠxDwAwDvG":5466,"ĠxDwAwEwC":5467,"ĠxDjwAjwA":5468,"ĠxDjwAjwDjvGj":5469,"ĠxDjwAjwFwCj":5470,"ĠyAwE":5471,"ĠyAwDj":5472,"ĠyAxDj":5473,"ĠyAyG":5474,"ĠyAjwE":5475,"ĠyAjwF":5476,"ĠyAjxE":5477,"ĠyAjyGj":5478,"ĠxAxEwAwD":5479,"ĠxAxEwAwE":5480,"ĠxAjxFwAjwDj":5481,"ĠxBxFjwBwE":5482,"ĠxCjwGjwG":5483,"ĠxCjwGjwDjvB":5484,"ĠxCjwGjwEvB":5485,"ĠxCwGwFj":5486,"ĠxCwGwDvAj":5487,"ĠxCwGwDjvAj":5488,"ĠxFjxDwAj":5489,"ĠxFjxDwF":5490,"ĠxFjxDvD":5491,"ĠxGxDjwFj":5492,"ĠxGxDjvDj":5493,"ĠxFxCjwE":5494,"ĠxFxCjwA":5495,"ĠxFxCjvCj":5496,"ĠxExCwGj":5497,"ĠxExCwDj":5498,"ĠxExCvC":5499,"ĠxGjxEwG":5500,"ĠxGjxEvE":5501,"ĠxGjxEwAwE":5502,"ĠyBwFj":5503,"ĠyByF":5504,"ĠwBwFjwF":5505,"ĠwBwFjwCjvA":5506,"ĠwBwFjwDvA":5507,"ĠwAjwFwE":5508,"ĠwAjwFwCvGj":5509,"ĠwAjwFwCjvGj":5510,"ĠwAwEwDj":5511,"ĠwAwEvBvG":5512,"ĠwAwEwCvG":5513,"ĠyCjxGjwD":5514,"ĠxAxFwGj":5515,"ĠxAxFvG":5516,"ĠxAxFvF":5517,"ĠxAjxFjwA":5518,"ĠxAjxFjvGj":5519,"ĠxAjxFjvFj":5520,"ĠxFjxDjwA":5521,"ĠxFjxDjxC":5522,"ĠxFjxDjxCj":5523,"ĠxFjxDjvE":5524,"ĠxFjxDjwAwFjvB":5525,"ĠxFxDwB":5526,"ĠxFxDxC":5527,"ĠxFxDvDj":5528,"ĠxFxDwGjwFvAj":5529,"ĠxGxCvAj":5530,"ĠxGxCwAjwDj":5531,"ĠxGxCwGwDj":5532,"ĠxGxCwAwE":5533,"ĠxGxCwGjwDj":5534,"ĠxGjxCjvB":5535,"ĠxGjxCjwBwE":5536,"ĠxGjxCjwGjwE":5537,"ĠxGjxCjwAwE":5538,"ĠxDjwBwD":5539,"ĠxDjwBvE":5540,"ĠxDjwBwEvB":5541,"ĠxExCjwG":5542,"ĠxExCjwB":5543,"ĠxExCjwAj":5544,"ĠxExCjvD":5545,"ĠxExCjwGvAj":5546,"ĠxExCjwGwEvA":5547,"ĠxDwAjvDj":5548,"ĠxDwAjwDjvAj":5549,"ĠxCjwAvD":5550,"ĠxCjwAwDvA":5551,"ĠxCwGjvCj":5552,"ĠxCwGjwCjvGj":5553,"ĠxDjxCwA":5554,"ĠxDjxCwAj":5555,"ĠxDjxCwFj":5556,"ĠxDjxCvCj":5557,"ĠxDjxCwFjvA":5558,"ĠxFwAjvGj":5559,"ĠxFwAjwGjwCj":5560,"ĠxFwAjwFjwCj":5561,"ĠxFwAjwGwD":5562,"ĠxEwAvG":5563,"ĠxEwAwGwC":5564,"ĠxEwAwFjwCj":5565,"ĠxEwAwFwC":5566,"ĠxFjwBvA":5567,"ĠxFjwBwAwD":5568,"ĠxFjwBwGjwDj":5569,"ĠxFjwBwGwD":5570,"ĠxDwBwGj":5571,"ĠxDwBwA":5572,"ĠxDwBwF":5573,"ĠxDwBvC":5574,"ĠxDwBwFvGj":5575,"ĠxAxDwF":5576,"ĠxAxDwC":5577,"ĠxAjxDjwFj":5578,"ĠxAjxDjwCj":5579,"ĠwBwGvC":5580,"ĠwBwGwCvG":5581,"ĠxDjwGjwFj":5582,"ĠxDjwGjvFj":5583,"ĠxDjwGjvE":5584,"ĠxDjwGjwFwC":5585,"ĠxDjwGjwEvB":5586,"ĠxDwGwF":5587,"ĠxDwGvF":5588,"ĠxDwGvDj":5589,"ĠxDwGwEvB":5590,"ĠxDwGwDjvAj":5591,"ĠxEwEvC":5592,"ĠxEwEwCjvA":5593,"ĠxEwEvAjvF":5594,"ĠxEwEwCvG":5595,"ĠxEwEwCjvE":5596,"ĠxFwFvCj":5597,"ĠxFwFwDvAj":5598,"ĠxFwFvBvFj":5599,"ĠxFwFwCjvGj":5600,"ĠxFwFwDvF":5601,"ĠxFjwFjvD":5602,"ĠxFjwFjwDjvB":5603,"ĠxFjwFjwCvG":5604,"ĠxFjwFjwDvB":5605,"ĠxFjwFjwDjvFj":5606,"ĠxGjxFwB":5607,"ĠxGjxFxD":5608,"ĠxGjxFvFj":5609,"ĠxGjxFwBwGjwCj":5610,"ĠxGxEwAj":5611,"ĠxGxExCj":5612,"ĠxGxEvF":5613,"ĠxGxEwAjwGwC":5614,"ĠxCjwAjwGj":5615,"ĠxCjwAjwFwCj":5616,"ĠxCjwAjwEvG":5617,"ĠxAxFjxDj":5618,"ĠxAxFjvG":5619,"ĠxAjxGxE":5620,"ĠxAjxGvGj":5621,"ĠxCwAwG":5622,"ĠxCwAwEwC":5623,"ĠxCwAwDjvFj":5624,"ĠwGjwDjwD":5625,"ĠwGjwDjvE":5626,"ĠwGjwDjwCjvGj":5627,"ĠwGjwDjvAjvFj":5628,"ĠwGwDwCj":5629,"ĠwGwDvDj":5630,"ĠwGwDwCvG":5631,"ĠwGwDvAvF":5632,"ĠxBxGjvA":5633,"ĠyDxAwDj":5634,"ĠyDjxAjwE":5635,"ĠxDjwDjvAj":5636,"ĠxDjwDjwCvGj":5637,"ĠxDjwDjvAvE":5638,"ĠxDjwDjwCvDj":5639,"ĠxDwDvAj":5640,"ĠxDwDvA":5641,"ĠxDwDvBvG":5642,"ĠxDwDvGjvDj":5643,"ĠxDwDvBvD":5644,"ĠxGwGwD":5645,"ĠxGwGvB":5646,"ĠxGwGvF":5647,"ĠxGwGvDj":5648,"ĠxGwGwCjvGj":5649,"ĠxGwGwDjwC":5650,"ĠxGwGwEvG":5651,"ĠxGjwGjwE":5652,"ĠxGjwGjwDj":5653,"ĠxGjwGjwC":5654,"ĠxGjwGjvFj":5655,"ĠxGjwGjvE":5656,"ĠxGjwGjwDvA":5657,"ĠxGjwGjwEwCj":5658,"ĠxGjwGjwFvGj":5659,"ĠzCwG":5660,"ĠzCyFj":5661,"ĠzCyCxF":5662,"yDwB":5663,"ĠxCjwCjvA":5664,"ĠxCjwCjvGj":5665,"ĠxCjwCjvAjvFj":5666,"ĠxCjwCjvGvD":5667,"ĠxCjwCjvAjvCj":5668,"ĠzCjwGj":5669,"ĠzCjyG":5670,"ĠzCjyCjxFj":5671,"ĠzCjyCjxA":5672,"ĠzCjyCjxAjxFj":5673,"ĠxCwCvGj":5674,"ĠxCwCvG":5675,"ĠxCwCvAvF":5676,"ĠxCwCvFjvCj":5677,"ĠxCwCvAvC":5678,"yDjxC":5679,"ĠxBxGwAj":5680,"ĠxBxGvG":5681,"ĠyCxGjwB":5682,"ĠyCxGjvGj":5683,"ĠyCjxAxC":5684,"ĠyCjxAvA":5685,"ĠxAwAwCj":5686,"ĠxAwAvG":5687,"ĠxAwAvF":5688,"ĠxAwAwDjvAj":5689,"ĠxAwAwFjvA":5690,"ĠxAjwAjwD":5691,"ĠxAjwAjvGj":5692,"ĠxAjwAjvFj":5693,"ĠxAjwAjwEvB":5694,"ĠxAjwAjwGvAj":5695,"ĠyDxAjxCj":5696,"ĠyDxAjvAj":5697,"ĠyDjxBvB":5698,"ĠxBwBwDj":5699,"ĠxBwBvA":5700,"ĠxBwBwGvG":5701,"ĠxBwBwGjvB":5702,"ĠxGwCvF":5703,"ĠxGjwCjvFj":5704,"ĠxAwDvA":5705,"ĠxAjwDjvAj":5706,"ĠwBvBvG":5707,"ĠwBvBvFj":5708,"ĠwBvBvFvC":5709,"ĠwAjvAjvFj":5710,"ĠwAjvAjvF":5711,"ĠwAjvAjvCj":5712,"ĠwAvAvF":5713,"ĠwAvAvE":5714,"ĠwAvAvC":5715,"ĠwFjwCjwC":5716,"ĠwFjwCjvD":5717,"ĠwFjwCjvGjvDj":5718,"ĠwFwCvB":5719,"ĠwFwCvCj":5720,"ĠwFwCvGvD":5721,"ĠxCjwFjvD":5722,"ĠxCjwFjwDjvB":5723,"ĠxCjwFjwDvA":5724,"ĠxCwFvCj":5725,"ĠxCwFwDvAj":5726,"ĠxCwFwCjvGj":5727,"ĠzDyGj":5728,"ĠzDyDxAj":5729,"ĠzDjyDjxB":5730,"ĠzDjyA":5731,"ĠwBwEvC":5732,"ĠwBwEwCjvA":5733,"ĠwBwEwCvG":5734,"ĠxCjwGjwCjvB":5735,"ĠxCjwGjwCjvGjvF":5736,"ĠxCwGwCvAj":5737,"ĠxCwGwCvGvE":5738,"ĠyCxCwE":5739,"ĠyCxCvAj":5740,"ĠyCxCvA":5741,"ĠyCxCwGjvGj":5742,"ĠwAjwFjwD":5743,"ĠyCjxCjwF":5744,"ĠyCjxCjvB":5745,"ĠyCjxCjvAj":5746,"ĠyCjxCjwAvA":5747,"yExCj":5748,"yExB":5749,"ĠyDxGwB":5750,"ĠyDxGxDwD":5751,"ĠyDjxGjxC":5752,"ĠyDjxGjxDjwDj":5753,"ĠwAjwFvAjvGj":5754,"ĠwBwFjvBvA":5755,"ĠxFjwAwG":5756,"ĠxFjwAwDj":5757,"ĠxFjwAvE":5758,"ĠxFjwAuB":5759,"ĠwAwEvAvG":5760,"ĠxFwGjwFj":5761,"ĠxFwGjwD":5762,"ĠxFwGjvDj":5763,"ĠxEwGwF":5764,"ĠxEwGwCj":5765,"ĠxEwGvD":5766,"ĠxGwAjwGj":5767,"ĠxGwAjwD":5768,"ĠxGwAjvF":5769,"ĠxGwAjvC":5770,"ĠyCxAvAj":5771,"ĠyExBxD":5772,"ĠxGjwBwA":5773,"ĠxGjwBwDj":5774,"ĠxGjwBvFj":5775,"ĠxGjwBvCj":5776,"ĠxGjxCwD":5777,"ĠxAxCjwDj":5778,"ĠyCjxAjwGj":5779,"ĠyCjxAjvB":5780,"ĠwAjwDjwCvGj":5781,"ĠyCjxGjxEwDj":5782,"ĠyCjxGjxEvB":5783,"ĠyCjxGjxExCjwCj":5784,"ĠxGwBwCj":5785,"ĠwAwDvBvG":5786,"ĠxGjwDjwC":5787,"ĠxGjwDjvFj":5788,"ĠxGwDvB":5789,"ĠxGwDvF":5790,"ĠxAxExCvB":5791,"ĠxAxExCvG":5792,"ĠxAxExCwAvA":5793,"ĠxAjxFxCjwC":5794,"ĠxAjxFxCjvGj":5795,"ĠxAjxFxCjwGjwDj":5796,"ĠxAjxFxCjwAjvAj":5797,"ĠxFwCvA":5798,"ĠxFwCvDj":5799,"ĠxFjwCjvAj":5800,"ĠxFjwCjvE":5801,"ĠxGjxDjwBvFj":5802,"ĠxGjxDjwBwGjwE":5803,"ĠxGjxDjwBwGjvGj":5804,"ĠxGxDwAjvF":5805,"ĠxGxDwAjwGwDj":5806,"ĠxGxDwAjwGvG":5807,"ĠxBxFjxDwCj":5808,"ĠxBxFjxDvA":5809,"ĠxBxFjxDwAwE":5810,"ĠxBxFjxDwBvB":5811,"ĠyCxGxDjwD":5812,"ĠyCxGxDjvAj":5813,"ĠyCxGxDjxCwC":5814,"ĠxFxCwGjvDj":5815,"ĠxFxCwGjwFwCj":5816,"ĠxFjxCjwAvE":5817,"ĠxFjxCjwAwFjwD":5818,"ĠxEwBwGvD":5819,"ĠxEwBwGwEwC":5820,"ĠxAwEwCj":5821,"ĠxAwEvG":5822,"ĠxAjwFvGj":5823,"ĠxAxCwAj":5824,"ĠxAxCwAwF":5825,"ĠxAjxCjwB":5826,"ĠxAjxCjwAjwFj":5827,"ĠxEvBvGj":5828,"ĠxEvBvD":5829,"ĠxBwFjwDj":5830,"ĠxBwFjvA":5831,"ĠwGwCvD":5832,"ĠxDjvAjvCj":5833,"ĠxDvAvC":5834,"ĠyDxDwFj":5835,"ĠyDxDvB":5836,"ĠyDxDwBwG":5837,"ĠyDjxDjwG":5838,"ĠyDjxDjxC":5839,"ĠyDjxDjwC":5840,"ĠyDjxDjxCwGj":5841,"ĠxEwDvF":5842,"ĠxEwDvBvD":5843,"ĠxDjwFjvDj":5844,"ĠxDwFvD":5845,"ĠxFwDjvFj":5846,"ĠxFwDjwCvDj":5847,"ĠxFjwEvG":5848,"ĠxFjwEwCjvE":5849,"ĠyCjxExCjwA":5850,"ĠwGwDvGvF":5851,"ĠwGjwDjvGjvFj":5852,"ĠxBxDwBwG":5853,"ĠwAjwGwCj":5854,"ĠwGjwEwCjvGj":5855,"ĠwGjwEwCjvFj":5856,"ĠwFwCjvAjvF":5857,"ĠwEwCvAvE":5858,"ĠwGwDjwCvG":5859,"ĠwGwDjwCvF":5860,"ĠwFjwDvBvE":5861,"ĠwFjwDvBvFj":5862,"ĠwGwEvAj":5863,"ĠyCxDjxCwGj":5864,"ĠyExAxCj":5865,"ĠyExAxEwE":5866,"ĠxDjwCjvE":5867,"ĠxDjwCjvAjvCj":5868,"ĠxDwCvDj":5869,"ĠxDwCvAvC":5870,"ĠyFjxBxDj":5871,"ĠyFjxBxFjwFj":5872,"ĠyFxAjxD":5873,"ĠyFxAjxFwF":5874,"ĠxGwFvGj":5875,"ĠxGwFwDvF":5876,"ĠxGjwFjvA":5877,"ĠxGjwFjwDjvFj":5878,"ĠxCjwEvB":5879,"ĠxCjwEvCj":5880,"ĠxCwDjvAj":5881,"ĠxCwDjvC":5882,"ĠwBwDvA":5883,"ĠwBwDuB":5884,"ĠyFyCwA":5885,"ĠyFyCxDj":5886,"ĠyFjyCjwAj":5887,"ĠyFjyCjxE":5888,"ĠwAwFjwC":5889,"ĠwGjwFvB":5890,"ĠyDxFwC":5891,"ĠyDxFvG":5892,"ĠyDxFxDwAj":5893,"ĠyDjxFjwCj":5894,"ĠyDjxFjvGj":5895,"ĠyDjxFjxDjwB":5896,"ĠxCvAjvCj":5897,"ĠxCjvBvD":5898,"ĠxGjxDjwGjwF":5899,"ĠxGxDwGwE":5900,"ĠyDxBwFj":5901,"ĠwBvAvC":5902,"ĠxGjxDjxCwDj":5903,"ĠxGjxDjxCwFjwDjvGj":5904,"ĠyCwGvAj":5905,"ĠyCjwGjvB":5906,"ĠxAxExCjwE":5907,"ĠxAxExCjwAwE":5908,"ĠxAxExCjwGwEvA":5909,"ĠxAjxDwE":5910,"ĠwFjwCjvFjvE":5911,"ĠwFwCvFvDj":5912,"ĠyCjxAxEwB":5913,"ĠxBxDjwF":5914,"ĠzExGj":5915,"ĠzExA":5916,"ĠzExB":5917,"ĠzEyAj":5918,"ĠyDjyCwG":5919,"ĠyExEwGj":5920,"ĠyExExCj":5921,"ĠyExEwCj":5922,"ĠyExExCjwA":5923,"ĠyDxAjxFxC":5924,"ĠyDjxBxFjxCj":5925,"ĠxAwGvAj":5926,"ĠxAwGwEvG":5927,"ĠxAjwGjvB":5928,"ĠxAjwGjwFvGj":5929,"ĠyEyCjwGj":5930,"ĠxEwGjvDj":5931,"ĠxGxDjxCvDj":5932,"ĠxGjxExCjvE":5933,"ĠwAjwCjvAjvFj":5934,"ĠwAwCvAvF":5935,"ĠyFxAwAj":5936,"ĠyFxAxC":5937,"ĠyFjxAjwB":5938,"ĠyFjxAjxCj":5939,"ĠxGjwAjwGj":5940,"ĠxDjwGvAj":5941,"ĠxDjwGvD":5942,"ĠxGwAwG":5943,"ĠxFjxDwBvD":5944,"ĠyCxGjxDjwAj":5945,"ĠxDwFjvA":5946,"ĠxDwFjvCj":5947,"ĠwEvBvC":5948,"ĠwEvBvFjvCj":5949,"ĠwEvBvGjvE":5950,"ĠxCwEvG":5951,"ĠxCwEuB":5952,"ĠyFxFwD":5953,"ĠyFxFxD":5954,"ĠyFxFxDwAj":5955,"ĠyFjxFjwDj":5956,"ĠyFjxFjxDj":5957,"ĠyFjxFjxDjwB":5958,"ĠxCjwFvGj":5959,"ĠxCjwFvC":5960,"ĠxFjxCjwAjwCj":5961,"ĠxFxCjwAjvCj":5962,"ĠxBxGjxEvFj":5963,"ĠxDjxCjwGjwDjvGj":5964,"ĠxDjxCjwAjvDj":5965,"ĠxDxCwGwDvG":5966,"ĠxDxCwAvD":5967,"ĠxCjwAwEuA":5968,"ĠxFjxEwD":5969,"ĠxFjxEwBwFjvB":5970,"ĠxFjxEwBvB":5971,"ĠxFxCwAwC":5972,"ĠxDjwBwFjuB":5973,"ĠxDwAjwFuAj":5974,"ĠwDjvAjvG":5975,"ĠwDjvAjvFvC":5976,"ĠwDjvAjvFjvCjuFj":5977,"ĠwDvAvFj":5978,"ĠwDvAvFvCuF":5979,"ĠxAjxDwAjwG":5980,"ĠxAjxDwAjvA":5981,"ĠxBxDjwBwGj":5982,"ĠxBxDjwBvAj":5983,"ĠyCxEwF":5984,"ĠxGjxCwGjwF":5985,"ĠxGjxCwGjvG":5986,"ĠxGxDwBwD":5987,"ĠxGxDwBwFwDvG":5988,"ĠxGwBwGwE":5989,"ĠxGwBwGvFj":5990,"ĠxGjxFjwE":5991,"ĠxGjxFjxCjwCj":5992,"ĠxAjxFxDwF":5993,"ĠxAjxFxDwGjwFvAj":5994,"ĠxBxFjxDjwFj":5995,"ĠxBxFjxDjwAwFjvB":5996,"ĠxFjxCwAj":5997,"ĠxFjxCwDj":5998,"ĠxFjxCwGwC":5999,"ĠxFjxCwAvA":6000,"ĠxFjxCwFjwDj":6001,"ĠyDxFjwG":6002,"ĠxGxCjwB":6003,"ĠxGxCjwE":6004,"ĠxGxCjwGjwCj":6005,"ĠxGxCjwGwE":6006,"ĠxGxCjwAjvAj":6007,"ĠxExDwC":6008,"ĠxExDwAvA":6009,"ĠxExDwAwEvA":6010,"ĠxFxDjwCj":6011,"ĠxFxDjwAjwFvAj":6012,"ĠxFxDjwAjvAj":6013,"ĠyCjxFwFj":6014,"ĠzFxA":6015,"ĠzFxAj":6016,"ĠzFyF":6017,"ĠxDwAwFvC":6018,"ĠxDwAwFwDvAj":6019,"ĠxDjwAjwFjvCj":6020,"ĠxDjwAjwFjwDjvB":6021,"ĠyDjxGwGj":6022,"ĠzFjxAj":6023,"ĠzFjyFj":6024,"ĠxExCwAvC":6025,"ĠxAxFxDwA":6026,"ĠxAxFxDvF":6027,"ĠxAjxFjxDjwAj":6028,"ĠxAjxFjxDjvFj":6029,"ĠwEvBvEvD":6030,"ĠyExGjwA":6031,"ĠxBwAwFjvA":6032,"ĠyCxExCwE":6033,"ĠyCxExCwA":6034,"ĠyCjxFxCjwAj":6035,"ĠyCjxFxCjwF":6036,"ĠyDxFjxDwB":6037,"ĠyDxFjxDwFj":6038,"ĠyDjxGxDjwG":6039,"ĠyDjxGxDjxC":6040,"ĠxGxFwDj":6041,"ĠxGxFxCwC":6042,"ĠxAxEwAwFj":6043,"ĠyCwAjwGvAj":6044,"ĠyCjwBwGjvB":6045,"ĠwFjwDjvA":6046,"ĠwDjvGjvF":6047,"ĠwDvGvE":6048,"ĠyExGjxEwGj":6049,"ĠyExGjxEwBwE":6050,"ĠxAjxExD":6051,"ĠxAjxEwAjwG":6052,"ĠxAxDjxCj":6053,"ĠxAxDjwAwFj":6054,"ĠxAjxFwAjwG":6055,"ĠxBxFjwBwGj":6056,"ĠxFwBwD":6057,"ĠxFwBwFjvB":6058,"ĠxFwBwGjvGj":6059,"ĠxFwBwFwD":6060,"ĠxEwBwGjvB":6061,"ĠwCvGuG":6062,"ĠyGxGxC":6063,"ĠyGxGxExC":6064,"ĠyGjxGjxCj":6065,"ĠyGjxGjxFxCj":6066,"ĠxGjxDxC":6067,"ĠxGjxDwAwD":6068,"ĠxGjxDwGjwF":6069,"ĠyCxFxCwG":6070,"ĠyCxFxCwC":6071,"ĠyCjxFjxCjwGj":6072,"ĠyCjxFjxCjwCj":6073,"ĠxAxGxDwD":6074,"ĠxAxFjxDvE":6075,"ĠxAjxGxDjvF":6076,"ĠxAjxGjxDjwDj":6077,"ĠyCjxAjxFjvGj":6078,"ĠyExGwE":6079,"ĠyExGvA":6080,"ĠxAxCjwAwFj":6081,"ĠxAxCjwAvGj":6082,"ĠxAjxDjxCwG":6083,"ĠxAjxDjxCvAj":6084,"ĠyFxGjwF":6085,"ĠyFxGjvAj":6086,"ĠxBxExCjwGj":6087,"ĠwDjvAjvDjvCj":6088,"ĠwAwCjvFj":6089,"ĠyCxGxEwAjwGwC":6090,"ĠyGyDxBxE":6091,"ĠyEyCxE":6092,"ĠyGyExBxE":6093,"ĠwAwGvA":6094,"ĠwAwGwDvAvD":6095,"ĠyGjyFyCxF":6096,"ĠwGjwCvF":6097,"ĠyFyCjxF":6098,"ĠyCjxGjxFwBwGjwCj":6099,"ĠwDvAvDvC":6100,"ĠyFjxAwFj":6101,"ĠxCjwGjwFwCjvGj":6102,"ĠxCwGwEwCvG":6103,"ĠxBxFwG":6104,"ĠxBxFxDj":6105,"ĠxBxFwBwGj":6106,"ĠyCjxGwA":6107,"ĠyAyFjyCjxFj":6108,"ĠyAjyGyDxG":6109,"wEvBvA":6110,"ĠyFjxAjxFjxCjwFj":6111,"ĠyCxFjwGj":6112,"ĠyGxAjwG":6113,"wDjvAjvGj":6114,"ĠyGjyDjyCxF":6115,"ĠxAxDwBwFj":6116,"ĠxAxDwBvA":6117,"ĠxEwAjwFvAj":6118,"ĠxEwAjwGvG":6119,"ĠxEwAjwEwCj":6120,"ĠxFxCwGvG":6121,"ĠxDjwAjwGvG":6122,"ĠyGjxBwGj":6123,"ĠxDwAwFjvFj":6124,"ĠxDjwAwEvA":6125,"ĠxDjwAwDjwC":6126,"ĠxFxCwAwFwD":6127,"ĠxFjxCjwAjwFjwDj":6128,"ĠxCwGwEvE":6129,"ĠxGjxCjwAjwF":6130,"ĠyCxAxFvG":6131,"ĠyGjyExGj":6132,"ĠxCjwGjwFvF":6133,"ĠyExAjxCj":6134,"ĠwAjwGjvAj":6135,"ĠxDwGjwDvB":6136,"ĠxFwAwFvA":6137,"ĠxFwAwFvE":6138,"ĠxFjwAjwFjvAj":6139,"ĠxFjwAjwFjvF":6140,"ĠyFxAxFxCwF":6141,"ĠyAxAxD":6142,"ĠyAxAxF":6143,"ĠyAxAxFjxD":6144,"ĠyAxAxFwF":6145,"ĠyAjxAjxDj":6146,"ĠyAjxAjxFj":6147,"ĠyAjxAjxGxDj":6148,"ĠyAjxAjxFjwFj":6149,"ĠxGxDwBwGwE":6150,"ĠyAyEyCxF":6151,"ĠyAyEyCjxFj":6152,"ĠyByGjyD":6153,"ĠyByGjyDjxGj":6154,"ĠxBxFjxDjwBwGj":6155,"ĠxBxFjxDjwBwFj":6156,"ĠyAjyFyCjxFj":6157,"ĠyAjyFyDxG":6158,"ĠxAjxFxDwAjwG":6159,"ĠxAjxFxDwAjwF":6160,"ĠyExBxGjxD":6161,"ĠyAyFxA":6162,"ĠyAjyFjxAj":6163,"ĠxAxExCjwAwFj":6164,"ĠyByFjyDxG":6165,"ĠyByFjyDjxGj":6166,"ĠxFxCwAjwFwC":6167,"ĠxFjxCjwBwFjwCj":6168,"ĠxEwGjwEvDj":6169,"ĠwBwFjwDjvBvFjuB":6170,"ĠwAjwFwDvAjvFuAj":6171,"ĠxEwAwFjwFjwCjvFj":6172,"ĠxDjwGwDjvD":6173,"ĠxDwFjwDvCj":6174,"ĠxCjwFjwCjvAj":6175,"ĠxCwFwCvA":6176,"ĠyAyDwD":6177,"ĠyAjyDjwDj":6178,"ĠyByEyC":6179,"ĠxDjwGjwFwFwCvF":6180,"ĠxDwGwEwEvBvE":6181,"ĠxCjwGvA":6182,"ĠxCjwFwCjvGj":6183,"ĠxCjwFwCjvC":6184,"ĠxCjwFwCjuAj":6185,"ĠxCwEwCuB":6186,"ĠxCwEwCuA":6187,"ĠyBxBxE":6188,"ĠyBxBxGjxE":6189,"ĠyFjyDxFj":6190,"ĠyGyDjxG":6191,"ĠxAxDwAjwF":6192,"ĠxAjxDjwBwFj":6193,"ĠyFyCxAxD":6194,"ĠyFjyCjxAjxDj":6195,"ĠxGjxDjxCwGjwF":6196,"ĠxFwAjwGwGwDvG":6197,"ĠxFjwBwGjwGjwDjvGj":6198,"ĠxCwGwDjwCvGj":6199,"ĠwBwFjwDvBvG":6200,"ĠwFjwEuB":6201,"ĠwFwDjuAj":6202,"ĠwEwDuA":6203,"ĠxCjwGjwEvE":6204,"ĠxCjwGjwEwCjvA":6205,"ĠwAjwFwCjvAjvFj":6206,"ĠwAwEwCvAvF":6207,"ĠyCxGxCwA":6208,"ĠyCjxGjxCjwAj":6209,"ĠyDxGxDwA":6210,"ĠyDjxGjxDjwAj":6211,"ĠyExAxEwB":6212,"ĠyFjxBxFjxCj":6213,"ĠyFxAjxFxC":6214,"ĠxBxFjxEwFj":6215,"ĠxCjwFjwDjwDjvAjvDj":6216,"ĠxCwFwDwDvAvD":6217,"ĠyCjxGjxEwBwGjwCj":6218,"ĠyCxGxDjwAjwGwC":6219,"ĠyGjyCxGjxDj":6220,"ĠwBwEvBvGj":6221,"ĠxAxExCwGwEvA":6222,"ĠwFjwDjvBuB":6223,"ĠwFwDvAjuAj":6224,"ĠzCyGyDjxGj":6225,"ĠxAjxFxCjwGjwFvAj":6226,"ĠxBxFjxDwAwFjvB":6227,"ĠxFwBwGvE":6228,"ĠwEwCjvAuA":6229,"ĠyDxDwAjvAj":6230,"ĠyDjxDjwBvB":6231,"ĠwDjwCvGjuGj":6232,"ĠyAyCxAxCwGwF":6233,"ĠyAjyDxAjxF":6234,"ĠxAxExDwE":6235,"ĠxAjxFxDjwF":6236,"ĠyByDjxBxFj":6237,"ĠzCyCxAxF":6238,"ĠyEyCxGwA":6239,"ĠyFyCjxGjwAj":6240,"ĠyAyCjxAxE":6241,"ĠxAxDjwBvGj":6242,"ĠyExExCwC":6243,"ĠyFxFxCjwCj":6244,"ĠyFjxFjxDwD":6245,"ĠyGjxGjxEwE":6246,"ĠwGjwEvBvGj":6247,"ĠxGjxDwAjvG":6248,"ĠxAjxExCvA":6249,"ĠxBxFxCjvAj":6250,"ĠyGxGxDjwDj":6251,"ĠyByGxB":6252,"ĠzCyAyDj":6253,"ĠzCjyAjyE":6254,"ĠxFxCwGjwFvF":6255,"ĠxFjxCjwAwFjvFj":6256,"ĠxEwBwGwEvE":6257,"ĠxDwAwGvD":6258,"ĠzCyGjyC":6259,"ĠyCxFjxDvB":6260,"ĠyCjxGxDjwC":6261,"ĠyCxGxFxCwF":6262,"ĠzCjyAyCj":6263,"ĠxCjxCjwAwE":6264,"ĠxDjwAjwGjvDj":6265,"ĠzDyAjyD":6266,"ĠzDjyByDj":6267,"ĠyDxAxFxCwAwD":6268,"ĠyDjxAjxFjxCjwAjwDj":6269,"ĠxCxCwGjwDj":6270,"ĠwAjwGjwDjvDj":6271,"ĠwAjwGjwDjvAjvDj":6272,"ĠyDxExCvA":6273,"ĠyDjxFxCjvAj":6274,"ĠxAxFjxCwAwD":6275,"ĠxAjxGxCjwAjwDj":6276,"ĠyDjxGxDjwAjwGwDj":6277,"ĠxExEvA":6278,"ĠyDxGjxEwCj":6279,"ĠyExFjxDvB":6280,"ĠyFxGxDjwC":6281,"ĠyFjxGjxEwCj":6282,"ĠzDyAyF":6283,"ĠzDyAyFxAj":6284,"ĠzDjyAjyFj":6285,"ĠzDjyAjyFjxB":6286,"ĠyCxExCwGwEwC":6287,"ĠyCjxFxCjwGjwFwCj":6288,"ĠyDxFjxDwAwFjwD":6289,"ĠxFxFvAj":6290,"ĠxGwAwFvD":6291,"ĠxGjwAjwFjvDj":6292,"ĠwGjwFjwCjvCj":6293,"ĠwGjwFjwCjvGjvCj":6294,"ĠwGwFwCvC":6295,"ĠwGwFwCvGvC":6296,"ĠyCjxGjxFjxCjwFj":6297,"ĠxBxGjxDwBwE":6298,"ĠyDxAxGxDwG":6299,"ĠyDjxAjxGjxDjwGj":6300,"ĠwAjwFjwDjvDj":6301,"ĠwAwFwDvD":6302,"ĠyCxAxDjxCwF":6303,"ĠyCjxAjxExCjwFj":6304,"ĠyCjxExCjwEvBvA":6305,"ĠxBxDwBwDvAvG":6306,"ĠyCxDjxCwDjvAjvGj":6307,"ĠxFjxFjvB":6308,"ĠyDxFxDwFwCvAj":6309,"ĠyDjxFjxDjwFjwCjvB":6310,"ĠxFjxCwGjvF":6311,"ĠxGxGwC":6312,"ĠxGjxGjwCj":6313,"ĠxFjwAjwFjwCjvAjvFj":6314,"ĠxFwAwFwCvAvF":6315,"ĠwAwGwDvD":6316,"ĠwFjwEvBuB":6317,"ĠyExAxFwD":6318,"ĠyFjxBxGwE":6319,"ĠyFxAjxFjwDj":6320,"ĠxGxCjwAvFj":6321,"ĠyGyCxGjwF":6322,"ĠyGjyCjxAwFj":6323,"ĠxAjxAjwDj":6324,"ĠxAjxAjxFjxCj":6325,"ĠyGjyDxBwB":6326,"ĠwBwEwCjwCjvGjvCj":6327,"ĠxDjwAwFjvFj":6328,"ĠwFwDjvAjuAj":6329,"ĠwEwDvAuA":6330,"ĠvGvEuB":6331,"ĠwAjwDjwCwCvGvC":6332,"ĠwAwDvBvBvFjuB":6333,"ĠwDvAvEuB":6334,"ĠxDwGjwFvF":6335,"ĠxFxCwFwCvA":6336,"ĠxFjxCjwFjwCjvAj":6337,"ĠxEwBwEvBvGj":6338,"ĠwGjwCjvAjvAjvFuAj":6339,"ĠwGwCvAvAvEuA":6340,"ĠyDjxAxFwD":6341,"ĠyExAjxFjwDj":6342,"ĠzCjyGjyExA":6343,"ĠxDxCjwAwE":6344,"ĠxCjxCwGjwDj":6345,"ĠxAxAwD":6346,"ĠxEwBwAwEvB":6347,"ĠxDwAwDvAvFj":6348,"ĠxDjwAjwDjvAjvG":6349,"ĠzGjzDjyByE":6350,"ĠxBxBwE":6351,"ĠxEwEwCvA":6352,"ĠxFwFwCjvAj":6353,"ĠwCjvGjvDjuAj":6354,"ĠwCvGvDuA":6355,"ĠyCjxGxCjwAj":6356,"ĠyCxFjxCwA":6357,"ĠyCyCwF":6358,"ĠyCjyCjwFj":6359,"ĠxEwGjwEvBvGjvE":6360,"ĠzCyGyEyC":6361,"ĠzDjyAjyGyDj":6362,"ĠyDyDwG":6363,"ĠyDjyDjwGj":6364,"ĠyExGxEwGwDwC":6365,"ĠyFxGjxFwGjwDjwCj":6366,"ĠyGjxBxGjwBwFjwE":6367,"ĠzCjyGjyFyCj":6368,"ĠzDyAyFjyD":6369,"ĠyAjyCjxAjxCjwGjwFj":6370,"ĠyFjxAxFjwAwEwD":6371,"ĠyGxAjxGwAjwFwDj":6372,"Cz":6373,"FyD":6374,"zFj":6375,"CjzFj":6376,"ĠxEwFjvB":6377,"ĠxExDwAj":6378,"ĠxEwFjwDvA":6379,"ĠxFxDjwB":6380,"ĠxFwGwDjvAj":6381,"ĠxFjxExC":6382,"ĠxFjxFjxCj":6383,"ĠxDjwFvAj":6384,"ĠxDjwFwCjvGj":6385,"ĠxDwEvA":6386,"ĠxDwFjwCj":6387,"ĠxDxCjwA":6388,"ĠxDwEwCvG":6389,"ĠxGxFj":6390,"ĠxGwFwC":6391,"ĠxGwDvG":6392,"ĠxGxFxCj":6393,"ĠxGjxG":6394,"ĠxGjwFjwCj":6395,"ĠxGjwDjvGj":6396,"ĠxGjxFjxD":6397,"ĠxCjwFwC":6398,"ĠxCjxCjwFj":6399,"ĠxCjwDjvGj":6400,"ĠxCjwBwG":6401,"ĠxCjxCwGj":6402,"ĠxCjwDjvBvFj":6403,"ĠxCxCwF":6404,"ĠxCwDvG":6405,"ĠxCwDvAjvF":6406,"ĠxAuA":6407,"ĠxAwEvA":6408,"ĠxAjuAj":6409,"ĠxAjwFvAj":6410,"ĠxAjxAxF":6411,"ĠxBuB":6412,"ĠxBwFjvB":6413,"ĠxBxCwF":6414,"ĠwAjwGjvGj":6415,"ĠwAjuFj":6416,"ĠwAuF":6417,"ĠwGjuAj":6418,"ĠwGjwDvAvD":6419,"ĠwGuA":6420,"ĠwGwCjvGjvCj":6421,"wGjwGjvFj":6422,"ĠyCvE":6423,"ĠyCwFwC":6424,"ĠyCxCjwFj":6425,"wGwGvF":6426,"ĠyCjvF":6427,"ĠyCjwFjwCj":6428,"ĠyCjxDwG":6429,"wBwDj":6430,"wBwFwCj":6431,"wBwBvA":6432,"wEwD":6433,"wEuA":6434,"wAwAvG":6435,"wAjwEwC":6436,"wAjwAjvGj":6437,"wFjuB":6438,"wFuAj":6439,"wDvC":6440,"wDjvCj":6441,"xCwA":6442,"xCwFjwD":6443,"xCxCvAj":6444,"xCjwGj":6445,"xCjwAj":6446,"xCjwGjwCj":6447,"xCjwGwDj":6448,"ĠwFjuAj":6449,"ĠwFjvAjvDj":6450,"ĠwFjuFj":6451,"ĠwFjwCvGvC":6452,"wCjvB":6453,"ĠwFuA":6454,"ĠwFvAvD":6455,"ĠwFuF":6456,"ĠwFvBvFjuB":6457,"wCvAj":6458,"xDwFj":6459,"xDwGjwE":6460,"xDxDwC":6461,"xDjwAwF":6462,"xDjxDjwCj":6463,"ĠwEuAj":6464,"ĠwEwEvBvE":6465,"ĠwEvAjvFuAj":6466,"vBvA":6467,"ĠyDvFj":6468,"ĠyDxDjwGj":6469,"ĠyDjvG":6470,"ĠyDjxFwF":6471,"ĠyDjxEwA":6472,"xExCjwFj":6473,"xEwAjwFj":6474,"xExEwD":6475,"vAjvGj":6476,"vAjvC":6477,"vAvG":6478,"vAuB":6479,"ĠwDjvAvEuA":6480,"ĠwDjwDjvAjvDj":6481,"ĠwDwDvAvD":6482,"xFwBwG":6483,"xFxFwDj":6484,"xFjxFj":6485,"xFjxCwGj":6486,"xFjxFjwE":6487,"vGjuAj":6488,"vGuA":6489,"ĠwCjvBvFj":6490,"ĠwCjwCjvGjvCj":6491,"ĠwCvAjvF":6492,"ĠwCwCvGvC":6493,"ĠwCvFjvCjuFj":6494,"ĠyEvGj":6495,"ĠyEyDxG":6496,"ĠyExFxC":6497,"xGwGj":6498,"xGxCjwA":6499,"xGjxDwAj":6500,"vFjuGj":6501,"vFuG":6502,"ĠyFxBxE":6503,"ĠyFxFjxCj":6504,"ĠyFyDjxGj":6505,"ĠvBvB":6506,"ĠvBvAvE":6507,"ĠvBvBvFjuB":6508,"ĠvBvFvCuF":6509,"ĠyFjxDwD":6510,"ĠyFjyCxGj":6511,"ĠvAjvAj":6512,"ĠvAjvD":6513,"ĠvAjuGj":6514,"ĠvAjvAjvFuAj":6515,"ĠvAvA":6516,"ĠvAvCj":6517,"ĠvAuG":6518,"ĠvAvAvEuA":6519,"xAwB":6520,"xAxDjwB":6521,"ĠyGwFj":6522,"ĠyGxExC":6523,"ĠyGxDjwDj":6524,"ĠyGyCjxA":6525,"ĠyGyFxAj":6526,"ĠvGjvC":6527,"ĠvGjuAj":6528,"ĠvGjuGj":6529,"ĠvGuB":6530,"ĠvGuA":6531,"ĠvGuG":6532,"ĠyGjwG":6533,"ĠyGjxFxCj":6534,"ĠyGjyDxAj":6535,"ĠyGjyFjxB":6536,"ĠxFxCvD":6537,"ĠxFjxCjvDj":6538,"ĠxFjxCjwDvE":6539,"vDjuAj":6540,"ĠxGjxDjwA":6541,"ĠxGjxDjvF":6542,"ĠxGjxDjwAwF":6543,"ĠxGjxDjwEvFj":6544,"ĠxGxDwGj":6545,"ĠxGxDvE":6546,"ĠxGxDwGjwE":6547,"ĠxGxDwAvA":6548,"ĠxGxDwAwE":6549,"ĠxGxDwDjvF":6550,"vDuA":6551,"ĠxDwAvE":6552,"ĠxDwAwFjwCjvFj":6553,"ĠxDwAwGwD":6554,"ĠxDwAwGvA":6555,"ĠxDjwAjvF":6556,"ĠxDjwAjwGjvAj":6557,"ĠyAwGj":6558,"ĠyAxFjxD":6559,"ĠyAjwA":6560,"ĠyAjxGxDj":6561,"ĠxAxEwF":6562,"ĠxAxEvFj":6563,"ĠxAxEvD":6564,"ĠxAxEwAjwFj":6565,"ĠxAxEwAvA":6566,"ĠxAxEwFvG":6567,"ĠvFjvD":6568,"ĠvFjvCjuFj":6569,"ĠxAjxFwFj":6570,"ĠxAjxFvG":6571,"ĠxAjxFvDj":6572,"ĠxAjxFwBwG":6573,"ĠxAjxFwFjvGj":6574,"ĠxBxFjxC":6575,"ĠxBxFjvGj":6576,"ĠxBxFjvE":6577,"ĠxBxFjxCwGj":6578,"ĠxBxFjwGvA":6579,"ĠvFvCj":6580,"ĠvFvCuF":6581,"ĠxCjwGjvDj":6582,"ĠxCjwGjwFjvB":6583,"ĠxCjwGjwFwCvF":6584,"ĠxCwGvD":6585,"ĠxCwGwFvAj":6586,"ĠxFjxDxCj":6587,"ĠxFjxDvAj":6588,"ĠxFjxDwGjwFvAj":6589,"ĠxFjxDwGvE":6590,"ĠxFjxDwAjvG":6591,"ĠxFjxDxCwFjwD":6592,"ĠxGxDjvB":6593,"ĠxGxDjwGjvF":6594,"ĠxGxDjwAwFjvB":6595,"ĠxGxDjwBvGj":6596,"ĠxGxDjxCjwGwDj":6597,"ĠxFxCjxC":6598,"ĠxFxCjvA":6599,"ĠxFxCjwGwEvA":6600,"ĠxFxCjwAvFj":6601,"ĠxFxCjwFjvDj":6602,"ĠxFxCjwBwFwCj":6603,"ĠxExCvGj":6604,"ĠxExCwGjvF":6605,"ĠxExCwFjwDjvGj":6606,"ĠxExCwFvD":6607,"ĠxExCwAjwEwC":6608,"ĠxGjxEwC":6609,"ĠxGjxEwAjwC":6610,"ĠxGjxEwAvFj":6611,"ĠxGjxEwAjwGwC":6612,"ĠxGjxExCvA":6613,"ĠxGjxExDwGjwE":6614,"ĠyBwA":6615,"ĠyBwAj":6616,"ĠyBxAj":6617,"ĠyBxGjxE":6618,"ĠyByA":6619,"ĠyByCxG":6620,"ĠvEvC":6621,"ĠwBwFjvCj":6622,"ĠwBwFjwEvA":6623,"ĠwBwFjwCjvFj":6624,"ĠwAjwFvC":6625,"ĠwAjwFwDjvGj":6626,"ĠwAjwFwCvF":6627,"ĠwAwEwDvG":6628,"ĠwAwEvBvE":6629,"ĠyCxGxCj":6630,"ĠyCxGvF":6631,"ĠyCxGxCwC":6632,"ĠyCxGxCjwA":6633,"ĠyCxGwGjvAj":6634,"ĠyCjxGjxD":6635,"ĠyCjxGjvFj":6636,"ĠyCjxGjxDwAj":6637,"ĠyCjxGjxCjwCj":6638,"ĠyCjxGjwAvB":6639,"ĠxAxFwCj":6640,"ĠxAxFwAjwF":6641,"ĠxAxFwBwCj":6642,"ĠxAxFwBwGjwCj":6643,"ĠxAxFwAjvG":6644,"ĠxAxFxCjvAj":6645,"ĠxAxFxDjwAwF":6646,"ĠxAjxFjwD":6647,"ĠxAjxFjwBwFj":6648,"ĠxAjxFjwBvGj":6649,"ĠxAjxFjxDvB":6650,"ĠxAjxFjxEwAjwFj":6651,"ĠxFjxDjwBwE":6652,"ĠxFjxDjwGjvAj":6653,"ĠxFjxDjxCjvB":6654,"ĠxFxDwGj":6655,"ĠxFxDwAjwDj":6656,"ĠxFxDwGvA":6657,"ĠxFxDxCvAj":6658,"ĠxGxCwCj":6659,"ĠxGxCvG":6660,"ĠxGxCwDvA":6661,"ĠxGxCwAjvF":6662,"ĠxGjxCjwD":6663,"ĠxGjxCjvGj":6664,"ĠxGjxCjwDjvAj":6665,"ĠxGjxCjwBvFj":6666,"ĠxDjwBwF":6667,"ĠxDjwBvG":6668,"ĠxDjwBwGvE":6669,"ĠxDjwBwFwDvG":6670,"ĠxExCjwAwD":6671,"ĠxExCjwFjvGj":6672,"ĠxExCjwBvA":6673,"ĠxDwAjwE":6674,"ĠxDwAjvFj":6675,"ĠxDwAjwFjvDj":6676,"ĠxDwAjwEwCjvFj":6677,"ĠxCjwAwDj":6678,"ĠxCjwAvF":6679,"ĠxCjwAwFvD":6680,"ĠxCjwAwDjwCvF":6681,"ĠxCwGjwD":6682,"ĠxCwGjvE":6683,"ĠxCwGjwDvBvE":6684,"ĠxDjxCwGjwCj":6685,"ĠxDjxCwFvG":6686,"ĠxDjxCwAjvGj":6687,"ĠxDjxCwFjwDjvGj":6688,"ĠxFwAjvB":6689,"ĠxFwAjvF":6690,"ĠxFwAjwCvG":6691,"ĠxFwAjwGjvDj":6692,"ĠxEwAvAj":6693,"ĠxEwAvE":6694,"ĠxEwAwGvD":6695,"ĠxFjwBwC":6696,"ĠxFjwBvFj":6697,"ĠxFjwBwCjvGj":6698,"ĠxFjwBwAvE":6699,"ĠxDwBwGwC":6700,"ĠxDwBwAvG":6701,"ĠxDwBwFwDvG":6702,"ĠxAxDwDj":6703,"ĠxAxDvA":6704,"ĠxAxDvFj":6705,"ĠxAxDwAwF":6706,"ĠxAxDwEvB":6707,"ĠxAjxDjwE":6708,"ĠxAjxDjvAj":6709,"ĠxAjxDjvG":6710,"ĠxAjxDjwFwC":6711,"ĠxAjxDjwAjwFj":6712,"ĠwBwGwCj":6713,"ĠxBxEwD":6714,"ĠxBxEvB":6715,"ĠxBxEvGj":6716,"ĠxBxEwFjwCj":6717,"ĠxBxExDwG":6718,"ĠxBxEwBwG":6719,"ĠxBxExDvA":6720,"ĠxDjwGjwGj":6721,"ĠxDjwGjvA":6722,"ĠxDjwGjvDj":6723,"ĠxDwGwG":6724,"ĠxDwGvGj":6725,"ĠxDwGvD":6726,"ĠxFwFvA":6727,"ĠxFwFwCvF":6728,"ĠxFjwFjvAj":6729,"ĠxFjwFjwDvA":6730,"ĠxFjwFjwCjvFj":6731,"ĠxGjxFwFj":6732,"ĠxGjxFxDj":6733,"ĠxGjxFxDjwCj":6734,"ĠxGxEwF":6735,"ĠxGxExD":6736,"ĠxGxExDwC":6737,"ĠxCjwAjvB":6738,"ĠxCjwAjvDj":6739,"ĠxCjwAjwGjvFj":6740,"ĠxAxFjwG":6741,"ĠxAxFjxE":6742,"ĠxAxFjxDwG":6743,"ĠxAxFjxEwD":6744,"ĠxAjxGwGj":6745,"ĠxAjxGxF":6746,"ĠxAjxGxDjwGj":6747,"ĠxAjxGxFwDj":6748,"ĠxCwAvAj":6749,"ĠxCwAvD":6750,"ĠxCwAwGvF":6751,"ĠwGjwDjvAjvDj":6752,"ĠxBxGjwA":6753,"ĠxBxGjxFjwE":6754,"ĠyDxAxDj":6755,"ĠyDxAvG":6756,"ĠyDxAxDjwB":6757,"ĠyDxAxDwD":6758,"ĠyDjxAjxE":6759,"ĠyDjxAjvGj":6760,"ĠyDjxAjxExC":6761,"ĠyDjxAjxDjwDj":6762,"ĠyCxFwDj":6763,"ĠyCxFwC":6764,"ĠyCxFvA":6765,"ĠyCxFxDjwGj":6766,"ĠyCxFwGwD":6767,"ĠyCxFxDjvAj":6768,"ĠyCjxFjwE":6769,"ĠyCjxFjwCj":6770,"ĠyCjxFjvAj":6771,"ĠyCjxFjwGjwDj":6772,"ĠxDjwDjvBvFj":6773,"ĠxDwDvAjvF":6774,"ĠxDwDvAjvG":6775,"ĠxGwGvA":6776,"ĠxGwGwDvG":6777,"ĠxGwGwEwC":6778,"ĠxGwGwDvBvE":6779,"ĠxGjwGjvAj":6780,"ĠxGjwGjwDjvGj":6781,"ĠxGjwGjwFwCj":6782,"ĠxGjwGjwDjwCvF":6783,"ĠzCwAj":6784,"ĠzCwC":6785,"ĠzCyAj":6786,"ĠzCxAxF":6787,"ĠzCyCjxGj":6788,"ĠxCjwCjvAvE":6789,"ĠxCjwCjvAvFj":6790,"ĠzCjwB":6791,"ĠzCjwCj":6792,"ĠzCjyDxA":6793,"ĠzCjyB":6794,"ĠxCwCvGjvDj":6795,"ĠxCwCvGjvF":6796,"ĠxBxGxCvA":6797,"ĠxBxGxDjwC":6798,"ĠxBxGxFwBwG":6799,"ĠvDjuGj":6800,"ĠvDuG":6801,"ĠyCxGjxCjvAj":6802,"ĠyCxGjxEwCj":6803,"ĠyCxGjxFjxCwGj":6804,"ĠyCjxAxDvB":6805,"ĠyCjxAxGxCjwA":6806,"ĠxAwAwE":6807,"ĠxAwAvB":6808,"ĠxAwAwEvA":6809,"ĠxAwAwFjwD":6810,"ĠxAwAwEwCjvFj":6811,"ĠxAjwAjwF":6812,"ĠxAjwAjwC":6813,"ĠxAjwAjwFvAj":6814,"ĠxAjwAjwGwDj":6815,"ĠxAjwAjwFwDvG":6816,"ĠyDxAjxDjwC":6817,"ĠyDxAjxGjxDwAj":6818,"ĠyDjxBxEwCj":6819,"ĠyDjxBxAxDjwB":6820,"ĠxBwBwFj":6821,"ĠxBwBwCj":6822,"ĠxBwBwFjvB":6823,"ĠxBwBwGjwE":6824,"ĠxBwBwFjwDjvGj":6825,"ĠxGwCvG":6826,"ĠxGjwCjvGj":6827,"ĠxFjvBvFj":6828,"ĠxFvAjvF":6829,"ĠxEvAvE":6830,"ĠwBvBvE":6831,"ĠwBvBvGvD":6832,"ĠwBvBvGvE":6833,"ĠxEwCvA":6834,"ĠxFwCjvAj":6835,"ĠxFjwDvB":6836,"ĠxGwDjwC":6837,"wBwEvBvE":6838,"ĠxGjwEwCj":6839,"ĠxBwEvB":6840,"ĠwAjvAjvG":6841,"ĠwAjvAjvDj":6842,"ĠwAjvAjvFjvCj":6843,"ĠwAvAvFj":6844,"ĠwAvAvD":6845,"ĠwAvAvFvC":6846,"ĠxCjwFjwFj":6847,"ĠxCjwFjvG":6848,"ĠxCjwFjwDjvAj":6849,"ĠxCwFwF":6850,"ĠxCwFvFj":6851,"ĠxCwFwDvA":6852,"ĠzDxC":6853,"ĠzDxE":6854,"ĠzDyC":6855,"ĠzDyDjxAj":6856,"ĠzDyByE":6857,"ĠzDjxCj":6858,"ĠzDjyC":6859,"ĠzDjyCj":6860,"ĠzDjzCyF":6861,"ĠzDjyExB":6862,"ĠwBwEwE":6863,"ĠwBwEvF":6864,"ĠwBwEwCjvFj":6865,"ĠxCjwGjwCjvFj":6866,"ĠxCwGwCvF":6867,"ĠvCjuFj":6868,"ĠyCxCwDj":6869,"ĠyCxCwGwEvA":6870,"ĠwAjwFjwC":6871,"ĠwAjwFjwDjvB":6872,"ĠwAwFvB":6873,"ĠwAwFwDvAj":6874,"ĠyCjxCjwE":6875,"ĠyCjxCjwGjwFvAj":6876,"ĠvCuF":6877,"ĠyDxGxC":6878,"ĠyDxGxF":6879,"ĠyDxGxDwAj":6880,"ĠyDxGxFwAj":6881,"ĠyDxGwAwE":6882,"ĠyDxGxFwC":6883,"ĠyDjxGjxCj":6884,"ĠyDjxGjxFj":6885,"ĠyDjxGjxDjwB":6886,"ĠyDjxGjxFjwB":6887,"ĠyDjxGjwAjwF":6888,"ĠyDjxGjxFjwCj":6889,"ĠxFwDvDj":6890,"ĠxFwDvD":6891,"ĠxFjwDjvE":6892,"ĠxFjwDjvDj":6893,"ĠxDvBvC":6894,"ĠxDvBuB":6895,"ĠxDjwCvCj":6896,"ĠxDjwCvC":6897,"ĠxEwCjvD":6898,"ĠxEwCjvCj":6899,"ĠxFjwAwC":6900,"ĠxFjwAvDj":6901,"ĠxFjwAvCj":6902,"ĠxFwGjvB":6903,"ĠxFwGjvD":6904,"ĠxFwGjvC":6905,"ĠxFwGjuAj":6906,"ĠxAwFwD":6907,"ĠxAjwFjwDj":6908,"ĠxGwEvF":6909,"ĠxGwEvE":6910,"ĠxEwGvAj":6911,"ĠxEwGvCj":6912,"ĠxEwGuB":6913,"ĠxEwGuA":6914,"ĠxGwAjwE":6915,"ĠxGwAjwCj":6916,"ĠxGwAjvE":6917,"ĠxGwAjvD":6918,"xDwGwDvG":6919,"ĠxGjwFvFj":6920,"ĠxGjwFvF":6921,"xDjwGjwDjvGj":6922,"ĠyCxAwAj":6923,"ĠyCxAxC":6924,"ĠyCxAxD":6925,"ĠyCxAxFwAj":6926,"ĠyExBvA":6927,"ĠyExBxFxCj":6928,"ĠxGjwBwF":6929,"ĠxGjwBwD":6930,"ĠxGjwBvF":6931,"ĠxGjwBvDj":6932,"ĠxGjxCwG":6933,"ĠxGjxCwE":6934,"ĠxGjxCwAj":6935,"ĠxGjxCvDj":6936,"ĠxAxCjwGj":6937,"ĠxAxCjwB":6938,"ĠxAxCjwF":6939,"ĠxAxCjvE":6940,"ĠyCjxAjwB":6941,"ĠyCjxAjxCj":6942,"ĠyCjxAjxDj":6943,"ĠyCjxAjxFjwB":6944,"ĠwAjwDjwDj":6945,"ĠwAjwDjwCvF":6946,"ĠyCjxGjxEwFj":6947,"ĠxGwBwA":6948,"ĠxGwBwFj":6949,"ĠxGwBwDj":6950,"ĠxGwBvD":6951,"ĠwAwDwD":6952,"ĠwAwDvBvE":6953,"ĠxGjwDjvAj":6954,"ĠxGwDvA":6955,"ĠxAxExCwD":6956,"ĠxAxExCwAwE":6957,"ĠxAxExCwGwD":6958,"ĠxAjxFxCjwDj":6959,"ĠxAjxFxCjwAjwF":6960,"ĠxFwCvG":6961,"ĠxFwCvF":6962,"ĠxFjwCjvGj":6963,"ĠxFjwCjvFj":6964,"ĠxGjxDjwBwFjwCj":6965,"ĠxGjxDjwBwGjwDj":6966,"ĠxGxDwAjwFwC":6967,"ĠxGxDwAjwGwD":6968,"ĠxBxFjxDwE":6969,"ĠxBxFjxDwBwFj":6970,"ĠyCxGxDjwF":6971,"ĠxAwFjvG":6972,"ĠxAwFjvFj":6973,"ĠxFxCwGjwFwC":6974,"ĠxFxCwGjwDjvAj":6975,"ĠxFjxCjwAwFjwCj":6976,"ĠxFjxCjwAwEvB":6977,"ĠxEwBwGwDvA":6978,"ĠxEwBwGwEvB":6979,"ĠxAjwGvGj":6980,"ĠxAjwGvG":6981,"ĠxBwGjvA":6982,"ĠxBwGjvGj":6983,"ĠxCjvAjuAj":6984,"ĠxCvAuA":6985,"ĠxAjwFwD":6986,"ĠxAxCwFj":6987,"ĠxAxCwDj":6988,"ĠxAxCvFj":6989,"ĠxAxCvE":6990,"ĠxAjxCjwG":6991,"ĠxAjxCjwE":6992,"ĠxAjxCjvG":6993,"ĠxAjxCjvF":6994,"ĠxEvBvFj":6995,"ĠwGjwCjwCj":6996,"ĠwGjwCjvCj":6997,"ĠwGwCwC":6998,"ĠwGwCvC":6999,"ĠwBwGjwFj":7000,"ĠwBwGjvA":7001,"ĠwBwGjvFj":7002,"ĠwBwGjvF":7003,"ĠwBwGjuB":7004,"ĠwBwGjwDvF":7005,"ĠwGjvGjvF":7006,"ĠwGjvGjvDj":7007,"ĠwGjvGjvCj":7008,"ĠxDjvAjvF":7009,"ĠxDvAvE":7010,"ĠwGvGvE":7011,"ĠwGvGvD":7012,"ĠwGvGvC":7013,"ĠyDxDwB":7014,"ĠyDxDwF":7015,"ĠyDxDwC":7016,"ĠyDxDwAwFjvB":7017,"ĠyDjxDjwFj":7018,"ĠyDjxDjwCj":7019,"ĠyDjxDjwAjwGwC":7020,"ĠxFjxDwAwC":7021,"ĠxFjxDwAvG":7022,"ĠxFjxDwAvE":7023,"ĠxGxDjwAjwCj":7024,"ĠxGxDjwAjvGj":7025,"ĠxGxDjwAjvF":7026,"ĠxGjxEwBwD":7027,"ĠxGjxEwBvA":7028,"ĠxGjxEwBvFj":7029,"ĠxFxCjwGjvB":7030,"ĠxFxCjwGjvFj":7031,"ĠxFxCjwGjvDj":7032,"ĠxExCwGvAj":7033,"ĠxExCwGvF":7034,"ĠxExCwGvD":7035,"ĠxDjwFjwE":7036,"ĠxDjwFjwC":7037,"ĠxDjwFjvAj":7038,"ĠxDjwFjvA":7039,"ĠxDjwFjvCj":7040,"ĠxDjwFjvC":7041,"ĠxDjwFjuAj":7042,"ĠxDjwFjuGj":7043,"ĠxDwFwDj":7044,"ĠxDwFvB":7045,"ĠxDwFvA":7046,"ĠxDwFvGj":7047,"ĠxDwFvC":7048,"ĠxDwFuB":7049,"ĠxDwFuA":7050,"ĠxDwFuG":7051,"ĠyCjxEwG":7052,"ĠyCjxEwAj":7053,"ĠyCjxEvAj":7054,"ĠxBwGwE":7055,"ĠxBwGvG":7056,"ĠyCwGjwF":7057,"ĠyCwGjvGj":7058,"ĠxBxDwGj":7059,"ĠxBxDwF":7060,"ĠxBxDvGj":7061,"ĠxBxDvFj":7062,"ĠwAjwGwF":7063,"ĠwAjwGvGj":7064,"ĠwAjwGvF":7065,"ĠwAjwGvE":7066,"ĠwAjwGwCjvE":7067,"ĠwGjwEvAj":7068,"ĠwGjwEuB":7069,"ĠwGjwEwCjvA":7070,"ĠwFwCjvA":7071,"ĠwFwCjvG":7072,"ĠwFwCjvAjvDj":7073,"ĠwFwCjuGj":7074,"ĠwFwCjvAjvFj":7075,"ĠwEwCvGj":7076,"ĠwEwCvFj":7077,"ĠwEwCvAvD":7078,"ĠwEwCuG":7079,"ĠwEwCvAvF":7080,"ĠwGwDjvA":7081,"ĠwGwDjuAj":7082,"ĠwGwDjwCvGj":7083,"ĠyCjwAwFj":7084,"ĠyCjwAvA":7085,"ĠwFjwDvAj":7086,"ĠwFjwDvGj":7087,"ĠwFjwDuA":7088,"ĠwFjwDvBvG":7089,"ĠwGwEwD":7090,"ĠwGwEvF":7091,"ĠwGwEvD":7092,"ĠwGwEvCj":7093,"ĠwGwEvAjvCj":7094,"ĠyCxDjwA":7095,"ĠyCxDjwFj":7096,"ĠyCxDjvA":7097,"ĠyExAwF":7098,"ĠyExAxD":7099,"ĠyExAwBwFj":7100,"ĠyFjxBwG":7101,"ĠyFjxBxE":7102,"ĠyDwAjwG":7103,"ĠyDwAjvAj":7104,"ĠyDjwBwGj":7105,"ĠyDjwBvB":7106,"ĠyFxAjwFj":7107,"ĠyFxAjxDj":7108,"ĠyDwGwD":7109,"ĠyDxAxFwG":7110,"ĠyDxAxFwB":7111,"ĠyDxAxFwA":7112,"ĠyDjxAjxFjwGj":7113,"ĠyDjxAjxFjwAj":7114,"ĠyDjxAjxFjxC":7115,"ĠxAxFxCwDj":7116,"ĠxAxFxCvG":7117,"ĠxAxFxCwGvF":7118,"ĠxAjxFjxCjwE":7119,"ĠxAjxFjxCjvGj":7120,"ĠxAjxFjxCjwGjvFj":7121,"ĠyDjwGjwDj":7122,"ĠxCjwEwD":7123,"ĠxCjwEvGj":7124,"ĠxCjwEuGj":7125,"ĠxCwDjwCj":7126,"ĠxCwDjvG":7127,"ĠxCwDjuG":7128,"ĠwBwDwC":7129,"ĠwBwDvFj":7130,"ĠyFyCwD":7131,"ĠyFyCxD":7132,"ĠyFyCvAj":7133,"ĠyFyCxAj":7134,"ĠyFyCxFjxD":7135,"ĠyFjyCjwDj":7136,"ĠyFjyCjxDj":7137,"ĠyFjyCjvB":7138,"ĠyFjyCjxGxDj":7139,"ĠwAwFjwE":7140,"ĠwAwFjvG":7141,"ĠwAwFjvE":7142,"ĠwAwFjvDj":7143,"ĠwAwFjwCvDj":7144,"ĠwGjwFwDj":7145,"ĠwGjwFvFj":7146,"ĠwGjwFvDj":7147,"ĠwGjwFvD":7148,"ĠwGjwFvBvD":7149,"ĠxGjxDjwGjvGj":7150,"ĠxGxDwGvG":7151,"ĠyDxBwE":7152,"ĠyDxBxC":7153,"ĠxGjxDjxCvAj":7154,"ĠxGjxDjxCvDj":7155,"ĠxGjxDjxCwAjwDj":7156,"ĠxGjxDjxCwGwC":7157,"ĠyCwGwE":7158,"ĠxAxExCjvE":7159,"ĠxAxExCjwGjwCj":7160,"ĠxAxExCjwBwE":7161,"ĠxFwGwF":7162,"ĠxFwGvC":7163,"ĠxFwGwFvD":7164,"ĠxAjxDwFj":7165,"ĠxAjxDvF":7166,"ĠxFjwGjwFj":7167,"ĠxFjwGjvCj":7168,"ĠxFjwGjwFjvDj":7169,"ĠyCjxAxEwBvA":7170,"ĠxBxDjwG":7171,"ĠxBxDjvFj":7172,"ĠxFjwAjwF":7173,"ĠxFjwAjwD":7174,"ĠxFjwAjwC":7175,"ĠxFjwAjvCj":7176,"ĠzExC":7177,"ĠzExE":7178,"ĠzEyC":7179,"ĠzEyCj":7180,"ĠzEzC":7181,"ĠzEzCjyFj":7182,"ĠyDjyCwF":7183,"ĠyDjyCxCj":7184,"ĠyExEwG":7185,"ĠyExEwD":7186,"ĠyExEwBwGjwCj":7187,"ĠyDxAjxFxCvAj":7188,"ĠyDjxBxFjxCjvB":7189,"ĠxFwAwE":7190,"ĠxFwAwCj":7191,"ĠxFwAvB":7192,"ĠxFwAvC":7193,"ĠxEwFjwE":7194,"ĠxEwFjvFj":7195,"ĠxEwFjwEvCj":7196,"ĠxAjxCwGjwDj":7197,"ĠxAjxCwAjvG":7198,"ĠxDjwFwDj":7199,"ĠxDjwFvF":7200,"ĠxDjwFwDjvC":7201,"ĠxDwEwD":7202,"ĠxDwEvE":7203,"ĠxDwEwDuB":7204,"ĠyEyCjwFj":7205,"ĠyEyCjxD":7206,"ĠxFjxDjwBwCj":7207,"ĠxFjxDjwBwFjvGj":7208,"ĠxEwGjwDj":7209,"ĠxEwGjwC":7210,"ĠxEwGjvAj":7211,"ĠxEwGjvGj":7212,"ĠxEwGjuB":7213,"ĠwFjvBvB":7214,"ĠwFjvBvCj":7215,"ĠxFxDwAjwC":7216,"ĠxFxDwAjwFvG":7217,"ĠxGxDjxCvF":7218,"ĠxGxDjxCvC":7219,"ĠxGjxExCjvFj":7220,"ĠxGjxExCjvCj":7221,"ĠwAjwCjvF":7222,"ĠwAjwCjvDj":7223,"ĠwAjwCjuAj":7224,"ĠwAwCvE":7225,"ĠwAwCvD":7226,"ĠwAwCuA":7227,"ĠwFvAjvAj":7228,"ĠwFvAjvC":7229,"ĠyFxAwB":7230,"ĠyFxAwA":7231,"ĠyFxAxG":7232,"ĠyFjxAjwAj":7233,"ĠyFjxAjxC":7234,"ĠyFjxAjxGj":7235,"ĠxBxCjwE":7236,"ĠxBxCjwAwE":7237,"ĠxBxCjwBvGj":7238,"ĠxGjwAjwFjwCj":7239,"ĠxGjwAjwGjvF":7240,"ĠwEvAvA":7241,"ĠwEvAuB":7242,"ĠxDjwGwD":7243,"ĠxDjwGvB":7244,"ĠxDjwGvA":7245,"ĠxDjwGvG":7246,"ĠxDjwGuAj":7247,"ĠxBxGxDwA":7248,"ĠxBxGxDwAvG":7249,"ĠxGwAwFwC":7250,"ĠxGwAwGvE":7251,"ĠxGvAjvG":7252,"ĠxFjvAvFj":7253,"ĠxGjvBvGj":7254,"ĠxFvGjvF":7255,"ĠxFjxDwBvE":7256,"ĠxFjxDwBuB":7257,"ĠyCxGjxDjwAjvGj":7258,"ĠxDwFjvGj":7259,"ĠxDwFjvFj":7260,"ĠxDwFjuA":7261,"ĠxDjxCwGjvAj":7262,"ĠxDjxCwGjwDjvF":7263,"ĠwEvBvCj":7264,"ĠxDwBwGvA":7265,"ĠxDwBwGwDvE":7266,"ĠxCwEvB":7267,"ĠxCwEvFj":7268,"ĠxCwEvE":7269,"ĠxEvGvE":7270,"ĠyFxFwGj":7271,"ĠyFxFwDj":7272,"ĠyFxFxCwAwD":7273,"ĠyFjxFjwE":7274,"ĠyFjxFjwA":7275,"ĠyFjxFjxCjwAjwDj":7276,"ĠxCjwFvG":7277,"ĠxCjwFvF":7278,"ĠxAwBvE":7279,"ĠxAwBwAvFj":7280,"ĠxFjxCjwAjvCj":7281,"ĠxFjxCjwAjwGjwCj":7282,"ĠxFjxCjwAjwFvAj":7283,"ĠxFxCjwAjvDj":7284,"ĠxFxCjwAjuAj":7285,"ĠxCwDvF":7286,"ĠxCjwDjvFj":7287,"ĠyCwAvAj":7288,"ĠyCjwAjvB":7289,"ĠxBxGjxEwFj":7290,"ĠxBxGjxEvB":7291,"ĠxBxGjxEwBwCj":7292,"ĠxDjxCjwG":7293,"ĠxDjxCjvB":7294,"ĠxDjxCjvA":7295,"ĠxDjxCjvF":7296,"ĠxDjxCjvCj":7297,"ĠxDjxCjwFjvB":7298,"ĠxDjxCjwGwDj":7299,"ĠxDjxCjwGjwDj":7300,"ĠxDjxCjwAjwFvAj":7301,"ĠxDjxCjwAjvAj":7302,"ĠxDjxCjwGjvB":7303,"ĠxDxCwFj":7304,"ĠxDxCvAj":7305,"ĠxDxCvGj":7306,"ĠxDxCvE":7307,"ĠxDxCvC":7308,"ĠxDxCwFvAj":7309,"ĠxDxCwFjwD":7310,"ĠxDxCwAvA":7311,"ĠxDxCwGwD":7312,"ĠxDxCwAwEvA":7313,"ĠxDxCwGvAj":7314,"ĠxCjwAwEvGj":7315,"ĠxCjwAwEvG":7316,"ĠxCjwAwEvD":7317,"ĠxCjwAwEuB":7318,"ĠxCjwAwEwCjvFj":7319,"ĠxFjxEwAj":7320,"ĠxFjxEwC":7321,"ĠxFjxEvGj":7322,"ĠxFjxEvE":7323,"ĠxFjxEwAwD":7324,"ĠxFjxEwAjwFj":7325,"ĠxFjxExCjwCj":7326,"ĠxFjxEwAwFj":7327,"ĠxFxCwAvC":7328,"ĠxFxCwAwGwC":7329,"ĠxFxCwAwEvA":7330,"ĠxCwGjwDjvG":7331,"ĠxCwGjwDjvFj":7332,"ĠxCwGjwDjvCj":7333,"ĠxCwGjwDjuAj":7334,"ĠxCwGjwDjuGj":7335,"ĠxCwGjwDjwCvF":7336,"ĠxGjxFxCjwDj":7337,"ĠxGjxFxCjvGj":7338,"ĠxGjxFxCjwGjvAj":7339,"ĠxGxExCwD":7340,"ĠxGxExCvG":7341,"ĠxGxExCwGvA":7342,"ĠxDjwBwFjvAj":7343,"ĠxDjwBwFjvA":7344,"ĠxDjwBwFjvE":7345,"ĠxDjwBwFjvCj":7346,"ĠxDwAjwFvA":7347,"ĠxDwAjwFvGj":7348,"ĠxDwAjwFvDj":7349,"ĠxDwAjwFvC":7350,"ĠwDjvAjvC":7351,"ĠwDvAuB":7352,"xFwAjwFvAj":7353,"ĠxAjxDwAjvGj":7354,"ĠxBxDjwBvA":7355,"ĠyCxEwGj":7356,"ĠyCxEwFj":7357,"ĠyCxExD":7358,"ĠyCxEvB":7359,"ĠwBwGwDvFj":7360,"ĠwBwGwDvF":7361,"ĠwBwGwDvC":7362,"ĠwBwGwDuA":7363,"ĠwBwGwDvBvE":7364,"ĠwBwGwDuG":7365,"ĠxGxDwBvA":7366,"ĠxGxDwBvD":7367,"ĠxGxDwBwAwD":7368,"ĠxGxDwBwFjvB":7369,"ĠxGjxFjwD":7370,"ĠxGjxFjxC":7371,"ĠxGjxFjxDj":7372,"ĠxGjxFjvAj":7373,"ĠxGjxFjvFj":7374,"ĠxGjxFjwBwE":7375,"ĠxGjxFjxDjwDj":7376,"ĠxGjxFjxDjwAjwDj":7377,"ĠxGjxFjwBwGj":7378,"ĠxCwAjwE":7379,"ĠxCwAjvGj":7380,"ĠxCwAjvG":7381,"ĠxCwAjvFj":7382,"ĠxCwAjuAj":7383,"ĠxCwAjwFwC":7384,"ĠxCwAjwEwC":7385,"ĠxCwAjwGwDvG":7386,"ĠxCwAjwFvGj":7387,"ĠxCwAjwGvC":7388,"ĠxAjxFxDvF":7389,"ĠxAjxFxDwAwD":7390,"ĠxAjxFxDxCwF":7391,"ĠxBxFjxDjvFj":7392,"ĠxBxFjxDjwAjwDj":7393,"ĠxBxFjxDjxCjwFj":7394,"ĠxFjxCwFj":7395,"ĠxFjxCvA":7396,"ĠxFjxCwFjwC":7397,"ĠxFjxCwDjvC":7398,"ĠyDxFjwGj":7399,"ĠyDxFjwAj":7400,"ĠyDxFjwCj":7401,"ĠxGxCjwG":7402,"ĠxGxCjwEvCj":7403,"ĠxGxCjwGwCj":7404,"wAwEvB":7405,"wAwEvFj":7406,"ĠxCjwBwF":7407,"ĠxCjwBvA":7408,"ĠxCjwBvGj":7409,"ĠxCjwBvG":7410,"ĠxCjwBuB":7411,"ĠxCjwBwEvA":7412,"ĠxCjwBwFjwCj":7413,"ĠxCjwBwFwCj":7414,"ĠxCjwBwGjwDjvGj":7415,"ĠxCjwBwFjvA":7416,"ĠxCjwBwGjvCj":7417,"ĠxExDwGj":7418,"ĠxExDvAj":7419,"ĠxExDvFj":7420,"ĠxExDvD":7421,"ĠxExDwGwC":7422,"ĠxExDwGjwE":7423,"ĠxExDwBwFjvB":7424,"ĠxExDwBvB":7425,"ĠxFxDjwA":7426,"ĠxFxDjvB":7427,"ĠxFxDjvG":7428,"ĠxFxDjvDj":7429,"ĠxFxDjwGjwCj":7430,"ĠxFxDjwAwF":7431,"ĠxFxDjxCwC":7432,"ĠxFxDjxCwGwC":7433,"ĠxGxCwGwF":7434,"ĠxGjxCjwGjwFj":7435,"ĠyCjxFwG":7436,"ĠyCjxFwA":7437,"ĠyCjxFwC":7438,"ĠyCjxFxDj":7439,"ĠzFxCj":7440,"ĠzFxD":7441,"ĠzFxF":7442,"ĠzFyC":7443,"ĠzFyCj":7444,"ĠzFyB":7445,"ĠzFzCj":7446,"ĠxDwAwFwDvA":7447,"ĠxDjwAjwFjwDjvAj":7448,"ĠyDjxGwA":7449,"ĠyDjxGwD":7450,"ĠyDjxGxF":7451,"ĠzFjxD":7452,"ĠzFjxDj":7453,"ĠzFjxFj":7454,"ĠzFjxB":7455,"ĠzFjyCj":7456,"ĠzFjyD":7457,"ĠzFjzC":7458,"ĠzFjzD":7459,"ĠxAjxDjwAjwGj":7460,"ĠxExCwAvD":7461,"ĠxExCwAuA":7462,"ĠxBxEwBwA":7463,"ĠxBxEwBwC":7464,"ĠxBxEwBvE":7465,"ĠxAxFxDvD":7466,"ĠxAjxFjxDjvDj":7467,"ĠyExGjwAj":7468,"ĠyExGjwDj":7469,"ĠyExGjxFj":7470,"xEwAwEvA":7471,"ĠyCxExCvAj":7472,"ĠyCjxFxCjvB":7473,"ĠxExCjwAvB":7474,"ĠwBwCjvE":7475,"ĠyDxFjxDwC":7476,"ĠyDxFjxDvD":7477,"ĠyDjxGxDjwCj":7478,"ĠyDjxGxDjvDj":7479,"ĠxEwAwEvE":7480,"ĠxGxFwB":7481,"ĠxGxFwCj":7482,"ĠxGxFxD":7483,"ĠxGxFvA":7484,"ĠxGxFvF":7485,"ĠxGxFwAjwDj":7486,"ĠxGxFxDwD":7487,"ĠxGxFxDwAwD":7488,"ĠxGxFxCwGwC":7489,"ĠxAxEwAvFj":7490,"ĠxAxEwAvF":7491,"ĠxAxDwAwG":7492,"ĠxDjwGjwDjvE":7493,"ĠxDjwGjwDjvDj":7494,"ĠxDwGwDvDj":7495,"ĠxDwGwDvD":7496,"ĠwFjwDjvCj":7497,"ĠwFjwDjuAj":7498,"ĠwFjwDjvAvC":7499,"ĠwFwDvC":7500,"ĠwFwDuA":7501,"ĠyExGjxEwD":7502,"ĠyExGjxEvE":7503,"ĠxAjxEvFj":7504,"ĠxAjxEwBwE":7505,"ĠxAjxEwGvE":7506,"ĠxFwAjwFvF":7507,"ĠxFjwBwFjvFj":7508,"ĠxAxDjvF":7509,"ĠxAxDjwAjwDj":7510,"ĠxAxDjwFjvDj":7511,"ĠxAjxFwAjwF":7512,"ĠxAjxFwAjvAj":7513,"ĠxAjxFwAjvG":7514,"ĠxAjxFwAjvFj":7515,"ĠxBxFjwBwFj":7516,"ĠxBxFjwBvB":7517,"ĠxBxFjwBvGj":7518,"ĠxBxFjwBvG":7519,"ĠxFwBwA":7520,"ĠxFwBwF":7521,"ĠxFwBvGj":7522,"ĠxFwBwFvB":7523,"ĠxFwBwDuB":7524,"ĠwCjvGjvF":7525,"ĠyGyCwGj":7526,"ĠyGyCwA":7527,"ĠyGyCxD":7528,"ĠyGyCxGxDj":7529,"ĠyGjyCjwA":7530,"ĠyGjyCjwAj":7531,"ĠyGjyCjxDj":7532,"ĠyGjyCjxGjxE":7533,"ĠxEwBwGjwFjvB":7534,"ĠxEwBwGjwDjvGj":7535,"ĠwCvGvE":7536,"ĠyExCwG":7537,"ĠyExCwC":7538,"ĠyFxCjwGj":7539,"ĠyFxCjwCj":7540,"ĠyDjxCwGj":7541,"ĠyExCjwA":7542,"ĠyGxGwG":7543,"ĠyGxGwE":7544,"ĠyGxGwAj":7545,"ĠyGxGxE":7546,"ĠwAjwCuAj":7547,"ĠwAvBuA":7548,"ĠyGjxGjwGj":7549,"ĠyGjxGjwB":7550,"ĠyGjxGjwF":7551,"ĠyGjxGjxF":7552,"ĠxGjxDwFvD":7553,"ĠyFjxDwA":7554,"xFjwBwFjvB":7555,"ĠyGxDjwAj":7556,"ĠyCxFxCwGj":7557,"ĠyCxFxCwAj":7558,"ĠyCxFxCwCj":7559,"ĠyCjxFjxCjwA":7560,"ĠyCjxFjxCjwD":7561,"ĠxAxGwA":7562,"ĠxAxGwF":7563,"ĠxAxGwDj":7564,"ĠxAxGvB":7565,"ĠxAxGxE":7566,"ĠxAxGvG":7567,"ĠxAxGxEwE":7568,"ĠxAxGxDwAwD":7569,"ĠxAxGxEvA":7570,"ĠxAxFjxDwE":7571,"ĠxAxFjxDvA":7572,"ĠxAxFjxDwAvB":7573,"ĠxAjxGxDjwF":7574,"ĠxAjxGxDjvAj":7575,"ĠxAjxGxDjwAjwC":7576,"ĠyGjxEwB":7577,"ĠyGjxEwE":7578,"ĠxAjxGjwE":7579,"ĠxAjxGjwAj":7580,"ĠxAjxGjwFj":7581,"ĠxAjxGjwDj":7582,"ĠxAjxGjwC":7583,"ĠxAjxGjxF":7584,"ĠxAjxGjvGj":7585,"ĠxAjxGjxFwF":7586,"ĠxAjxGjxDjwAjwDj":7587,"ĠxAjxGjxFvAj":7588,"ĠyCjxAjxFjwAj":7589,"ĠyCjxAjxFjwCj":7590,"ĠwBwAvG":7591,"ĠwBwAvFj":7592,"ĠwBwAvF":7593,"ĠwBwAuA":7594,"ĠwBwAwFjwCjvFj":7595,"ĠwBwAwFjuB":7596,"ĠyExGwG":7597,"ĠyExGwD":7598,"ĠxCjwAjwFjvGj":7599,"ĠxCwAwFvG":7600,"ĠxAxCjwAvG":7601,"ĠyCxDwF":7602,"ĠyCxDxC":7603,"ĠyCjxDjwFj":7604,"ĠyCjxDjxCj":7605,"ĠxEwBwGjwEwCj":7606,"ĠxAjxDjxCvF":7607,"ĠxAjxDjxCwGjvGj":7608,"ĠyFxGjwGj":7609,"ĠyFxGjwDj":7610,"ĠxBxExCjvB":7611,"ĠxBxExCjvFj":7612,"ĠxBxExCjwAvA":7613,"ĠyDjxAjxGvAj":7614,"ĠyDjxAjxGxCjwAjwDj":7615,"ĠwBwDjvFj":7616,"ĠyCxGxEvG":7617,"ĠyGyDwE":7618,"ĠyGyDwC":7619,"ĠyGyDxD":7620,"ĠyGyDxF":7621,"ĠyGyDxGwDj":7622,"ĠxDjwAjwGwDjwC":7623,"ĠyGyExF":7624,"ĠyGyExA":7625,"ĠxDwAwFjwDvB":7626,"ĠwAwGvG":7627,"ĠwAwGvE":7628,"ĠwAwGwDvA":7629,"ĠwAwGwEvBvE":7630,"ĠwAwGwDvF":7631,"ĠwAwGwEuA":7632,"ĠwGjvBvDj":7633,"ĠwGjvBvCj":7634,"ĠyGjyFxFj":7635,"ĠyGjyFxAj":7636,"ĠyCjxGjxFvGj":7637,"ĠyDxAxFjvA":7638,"ĠyDxAxFjxCwAwD":7639,"ĠyFjxAwE":7640,"ĠyFjxAvB":7641,"ĠxCjwGjwFwCjvAj":7642,"ĠxCwGwEwCvA":7643,"ĠxBxFvG":7644,"ĠxBxFxDwG":7645,"ĠxBxFwGjvF":7646,"ĠyCjxGvA":7647,"ĠyCjxGwAjvG":7648,"ĠyAyFjxG":7649,"ĠyAyFjxB":7650,"ĠyAjyGxGj":7651,"ĠyAjyGyC":7652,"ĠyFjxAjxFjwE":7653,"ĠyFjxAjxFjxDj":7654,"ĠyFjxAjxFjvFj":7655,"ĠyCxFjvGj":7656,"ĠyCxFjxDjwGj":7657,"ĠyCxFjwAvFj":7658,"ĠyGxAjwF":7659,"ĠyGxAjxC":7660,"ĠyGxAjwC":7661,"ĠyGjyDjwF":7662,"ĠyGjyDjwCj":7663,"ĠyGjyDjxDj":7664,"ĠyGjyDjxFj":7665,"ĠxAxDwBvE":7666,"ĠxEwAjwGj":7667,"ĠwGvAjvD":7668,"ĠwGvAjvC":7669,"xGjxCjwGjwCj":7670,"ĠxDjwAjwGvAj":7671,"ĠxDjwAjwGwFvAj":7672,"ĠxDjwAjwGwDvG":7673,"ĠyGjxBwFj":7674,"ĠyGjxBxCj":7675,"ĠyGjxBwCj":7676,"ĠxDwAwFjvA":7677,"ĠxDwAwFjwEvA":7678,"ĠyDjxAwB":7679,"ĠyDjxAvB":7680,"ĠyDjxAxCvA":7681,"ĠyDjxAxFjwD":7682,"ĠxDjwAwG":7683,"ĠyAjxFjxCj":7684,"ĠxCwGwEvG":7685,"ĠxCwGwEwDvG":7686,"ĠxCwGwEvBvE":7687,"ĠyAxFxC":7688,"ĠxGjxCjwAjvDj":7689,"ĠyCxAxFwA":7690,"ĠyCxAxFwC":7691,"ĠxCjwGjwFvGj":7692,"ĠxCjwGjwFwDjvGj":7693,"ĠxGjxDjwAjwF":7694,"ĠxGjxDjwAjvAj":7695,"ĠyExAjwC":7696,"ĠyExAjxCjvAj":7697,"ĠyExAjxGwDj":7698,"ĠxBxAwE":7699,"ĠxBxAwA":7700,"ĠxBxAwCj":7701,"ĠxBxAxFj":7702,"ĠxBxAxEwE":7703,"ĠxBxAxFjwFj":7704,"ĠxBxAxFjvB":7705,"ĠwAjwFjwCjvF":7706,"ĠwAjwFjwCjuB":7707,"ĠwAwFwCvE":7708,"ĠwAwFwCuAj":7709,"ĠwAjwGjvF":7710,"ĠwAjwGjwFwCvF":7711,"ĠwAjwGjwFuAj":7712,"ĠwEwCjvG":7713,"ĠwEwCjvCj":7714,"xGxCwGwC":7715,"ĠxDwGjwFj":7716,"ĠxDwGjwD":7717,"ĠxDwGjwDvGj":7718,"ĠwDjwCvFj":7719,"ĠwDjwCvC":7720,"ĠxEwBwFjvFj":7721,"ĠxDjwAjwFvF":7722,"ĠyFyDxDj":7723,"ĠyFyDxG":7724,"ĠyFjyDjxE":7725,"ĠyFjyDjxGj":7726,"ĠxDwAwEvE":7727,"ĠyFxAxFwDj":7728,"ĠyFxAxFxD":7729,"ĠyFxAxFvF":7730,"ĠyCxAjwF":7731,"ĠyCxAjwD":7732,"ĠyCxAjxFwF":7733,"ĠyCxAjxGwG":7734,"ĠyCjxBwFj":7735,"ĠyCjxBwDj":7736,"ĠyCjxBxFjwFj":7737,"ĠyCjxBxGjwGj":7738,"ĠyAxAwFj":7739,"ĠyAxAxC":7740,"ĠyAxAxFj":7741,"ĠyAjxAjwG":7742,"ĠyAjxAjxCj":7743,"ĠyAjxAjxG":7744,"ĠwDjvBuGj":7745,"ĠwDvAjuG":7746,"ĠxAxEwBvB":7747,"ĠxAjxFxCwC":7748,"ĠxCjwGjwDjvDj":7749,"ĠxCwGwDvD":7750,"ĠxFjxDjwAjvB":7751,"ĠxFjxDjwAjwAjwDj":7752,"ĠwDvBvF":7753,"ĠwDvBuB":7754,"ĠyAyEwFj":7755,"ĠyByGjxA":7756,"ĠyByGjyCj":7757,"ĠxGxCwAvD":7758,"ĠyDxGjwAj":7759,"ĠyDxGjvAj":7760,"ĠyDxGjwBvGj":7761,"ĠxGxDwDwC":7762,"ĠxBxFjxCjwCj":7763,"ĠyDxBxGwD":7764,"ĠyDxBxGvA":7765,"ĠxFxCwCvAj":7766,"ĠxFjxCjwCjvB":7767,"ĠxGjxDjwDjwCj":7768,"ĠyAjyFwG":7769,"ĠxFxDwAvAj":7770,"ĠxFxDwAwAwD":7771,"ĠyGxBxE":7772,"ĠyExBxGjvB":7773,"ĠyAyFyDxA":7774,"ĠyAjyFjyDjxAj":7775,"ĠyAjyFjyCjxAj":7776,"ĠzGxDj":7777,"ĠzGyDj":7778,"ĠzGzCj":7779,"ĠzGzDj":7780,"ĠyGjyCxF":7781,"ĠxAxEwEwD":7782,"ĠyByFjwGj":7783,"ĠyDjyCxGjwDj":7784,"ĠyDjyCxGjvAj":7785,"ĠxEwBvBvA":7786,"ĠxFxCwAjwF":7787,"ĠxFxCwAjwC":7788,"ĠxFxCwAjwGwDvG":7789,"ĠxFjxCjwBwFj":7790,"ĠxFjxCjwBwCj":7791,"ĠxFjxCjwBwGjwDjvGj":7792,"ĠyDxEwE":7793,"ĠyDxExD":7794,"ĠzGjxE":7795,"ĠzGjyE":7796,"ĠzGjzD":7797,"ĠzGjzE":7798,"ĠxAjxFwFwDj":7799,"ĠxBxFjwFjwE":7800,"ĠyCxFxDwC":7801,"ĠyCjxFjxDjwCj":7802,"ĠyDjxFxDj":7803,"ĠyAyCjxFj":7804,"ĠwBwFjwDjvBvFj":7805,"ĠwAjwFwDvAjvF":7806,"ĠxEwAwFjuB":7807,"ĠxGjxFxCxCwF":7808,"ĠxDjwGwDjvAjvG":7809,"ĠxDjwGwDjvAjvGvC":7810,"ĠxDwFjwDvAvFj":7811,"ĠxDwFjwDvAvFjuB":7812,"ĠxCjwFjwCjvD":7813,"ĠxCjwFjwCjvCj":7814,"ĠxCwFwCvCj":7815,"ĠxCwFwCvC":7816,"ĠwCjvAjuAj":7817,"ĠwCvAuA":7818,"ĠyExFjwFj":7819,"ĠyExFjxE":7820,"ĠyAyDwB":7821,"ĠyAyDwAj":7822,"ĠyAyDxF":7823,"ĠyAjyDjwB":7824,"ĠyAjyDjxC":7825,"ĠyAjyDjxFj":7826,"ĠyByExC":7827,"ĠyByExCj":7828,"ĠxDjwGjwFuAj":7829,"ĠxDwGwEuA":7830,"ĠxDjwAjvAjvGj":7831,"ĠwAwEwCjvAvE":7832,"ĠxGxEwBwBwE":7833,"ĠxCjwGwF":7834,"ĠxCjwGwCj":7835,"ĠxCjwFwCjvGjvF":7836,"ĠxCwEwCvGvE":7837,"ĠxCwEwCvGvEuA":7838,"ĠyBxBwGj":7839,"ĠyBxBxG":7840,"ĠyBxBxGj":7841,"ĠyEyCjxAwE":7842,"ĠyEyCjxAwA":7843,"ĠyEyCjxAvB":7844,"ĠwGjwFjvDj":7845,"ĠwGwFvD":7846,"ĠxAxDwAjwE":7847,"ĠxAxDwAjvF":7848,"ĠxAxDwAjwGwDvG":7849,"ĠxAxDwAjwDvE":7850,"ĠxAjxDjwBwF":7851,"ĠxAjxDjwBvFj":7852,"ĠxAjxDjwBwGjwDjvGj":7853,"ĠxAjxDjwBwDjvF":7854,"ĠyExBxGwG":7855,"ĠyExBxGxCj":7856,"ĠyExBxGxE":7857,"ĠyFjyCjxAwA":7858,"ĠyFjyCjxAxFj":7859,"ĠxCwFjwE":7860,"ĠxCwFjwC":7861,"ĠyGyDxAjwAj":7862,"ĠyGyDxAjxG":7863,"ĠyGjyDjxBwB":7864,"ĠyGjyDjxBxGj":7865,"ĠxExCjwGjvA":7866,"ĠxExCjwGjwGjwCj":7867,"ĠxDjxCwGvGj":7868,"ĠxDjxCwGwGwC":7869,"ĠxDwBwFjvG":7870,"ĠxDwBwFjwFjvB":7871,"ĠyFyCxAxDjxCwF":7872,"ĠyFjyCjxAjxExCjwFj":7873,"ĠxAxFjxCjxCjwFj":7874,"ĠxAjxGxDxDwG":7875,"ĠxBxGjxDjxDjwGj":7876,"ĠxFwAjwGvC":7877,"ĠxFjwBwGjvCj":7878,"ĠyFyCxGjwGj":7879,"ĠyFyCxGjxF":7880,"ĠwBwFvB":7881,"ĠxCwGwDjvDj":7882,"ĠxCwGwDjvD":7883,"ĠwBwFjwDvD":7884,"ĠwBwFjwDvCj":7885,"ĠxFwAjwFjwC":7886,"ĠxFwAjwFjvCj":7887,"ĠxFwAjwFjwDjvAjvDj":7888,"ĠxEwAwFvB":7889,"ĠxEwAwFvC":7890,"ĠxEwAwFwDvAvD":7891,"ĠxCjwAjwFvFj":7892,"ĠxCjwAjwFwFvAj":7893,"ĠxCwAwEvF":7894,"ĠxCwAwEwEvA":7895,"ĠwFjwEvCj":7896,"ĠwFjwEvBvFjuB":7897,"ĠwFwDjvC":7898,"ĠwFwDjvAjvFuAj":7899,"ĠwEwDuB":7900,"ĠwEwDvAvEuA":7901,"ĠxCjwGjvAjvAj":7902,"ĠxCwGvAvA":7903,"vAjvFjvCj":7904,"vAvFvC":7905,"ĠxCjwGjwEvDj":7906,"ĠwAjwFwCjvCj":7907,"ĠwAjwFwCjvC":7908,"ĠwAwEwCvC":7909,"ĠwAwEwCuB":7910,"ĠzCyFxCj":7911,"ĠzCyFyCxGj":7912,"ĠzCyFyCjwAj":7913,"ĠzCjyFjxD":7914,"ĠzCjyFjyCjxA":7915,"ĠzCjyFjyDwB":7916,"ĠyFyDxAjwF":7917,"ĠyFyDxAjwC":7918,"ĠyCxGxCwG":7919,"ĠyCxGxCvA":7920,"ĠyCxGxCvGj":7921,"ĠyCjxGjxCjwGj":7922,"ĠyCjxGjxCjvAj":7923,"ĠyCjxGjxCjvA":7924,"ĠyFjyDjxBwFj":7925,"ĠyFjyDjxBwCj":7926,"ĠyDxGxDwDj":7927,"ĠyDjxGjxDjwE":7928,"ĠxEwBwAvB":7929,"ĠxEwBwAwFjwCjvFj":7930,"ĠxBxExCwFj":7931,"ĠxBxExCwD":7932,"ĠxBxExCvG":7933,"ĠxBxExCwEvFj":7934,"ĠyCxFxCjwG":7935,"ĠyCxFxCjwDj":7936,"ĠyCxFxCjvGj":7937,"ĠyCxFxCjwFvG":7938,"ĠxGjxDjxCjwDj":7939,"ĠxGxDxCwD":7940,"ĠyCjxFjxDwGj":7941,"ĠyCjxFjxDwE":7942,"ĠyCjxFjxDvA":7943,"ĠyCjxFjxDwFjvGj":7944,"ĠyDjxGjxEwAj":7945,"ĠyDjxGjxEvB":7946,"ĠyDjxGjxEwGjvAj":7947,"ĠyDxGxDjwA":7948,"ĠyDxGxDjvAj":7949,"ĠyDxGxDjwGvA":7950,"ĠxCjwAwFjuB":7951,"ĠxCjwAwFjuA":7952,"ĠxCwGjwFuAj":7953,"ĠxCwGjwFuGj":7954,"ĠwBwGwEuA":7955,"ĠwBwGwEuG":7956,"ĠyGyEyCwD":7957,"ĠyGjyFyCjwDj":7958,"ĠxGjxCjwAwDj":7959,"ĠxGjxCjwAvE":7960,"ĠxGjxCjwAwFjwCjvFj":7961,"ĠxCjwFjwDjvCj":7962,"ĠxCjwFjwDjuGj":7963,"ĠxCwFwDvC":7964,"ĠxCwFwDuG":7965,"ĠxGxCwGjwD":7966,"ĠxGxCwGjvDj":7967,"ĠxGxCwGjwFwCvF":7968,"ĠxFjwBwGwCj":7969,"ĠxFjwBwGvD":7970,"ĠxFjwBwGwEvBvE":7971,"ĠyCjxGjxEwBwFj":7972,"ĠyCxGxDjwAjwF":7973,"ĠyGxBxGwF":7974,"ĠyGxBxGvG":7975,"ĠwEvGjvE":7976,"ĠyAjyDxG":7977,"ĠyByDjxGj":7978,"ĠyCxGxExCwG":7979,"ĠyCjxGjxFxCjwGj":7980,"ĠyGjyCxGjwFj":7981,"ĠyGjyCxGjvGj":7982,"ĠwDjwCjuAj":7983,"ĠwDwCuA":7984,"ĠxDjwBwGjvCj":7985,"ĠxDjwBwGjuB":7986,"ĠxDwAjwGvC":7987,"ĠxDwAjwGuAj":7988,"ĠwBwEvBvC":7989,"ĠwFjwDjvBvFjuB":7990,"ĠwFwDvAjvFuAj":7991,"yCjxAjxDj":7992,"ĠxAwBwGwD":7993,"ĠyFxGxF":7994,"ĠyFjxGjxFj":7995,"ĠwEwCjvAvEuA":7996,"ĠyDxDwAjvG":7997,"ĠyDjxDjwBvGj":7998,"ĠwBwFjwDjuB":7999,"ĠwAjwFwDuAj":8000,"ĠwAwEwCjuA":8001,"ĠyExBxExCj":8002,"ĠyExBxEwCj":8003,"ĠyExBxEwC":8004,"ĠyDjyCxGwC":8005,"ĠyEyCjxGjwCj":8006,"ĠyAjyDxAjwAj":8007,"ĠyAjyDxAjvAj":8008,"ĠyByDjxBwB":8009,"ĠyByDjxBvB":8010,"ĠyCxGwGwF":8011,"ĠyCjxGjwGjwFj":8012,"ĠyDxAxDwB":8013,"ĠyDxAxDvB":8014,"ĠyDxAxDvAj":8015,"ĠyDjxAjxDjxC":8016,"ĠyDjxAjxDjwC":8017,"ĠyDjxAjxDjvB":8018,"ĠzCyCxGj":8019,"ĠzDyGxDj":8020,"ĠzDyGxE":8021,"ĠzDyGxG":8022,"ĠzDyGyDxAj":8023,"ĠzDyGyDjxC":8024,"ĠzDjyGjxE":8025,"ĠzDjyGjxF":8026,"ĠzDjyGjxGj":8027,"ĠzDjyGjyDjxB":8028,"ĠzDjyGjyExCj":8029,"ĠyEyCxGwC":8030,"ĠyEyCxGxEwA":8031,"ĠyFyCjxGjwCj":8032,"ĠyFyCjxGjxFwAj":8033,"ĠyDxBxGxDwGwD":8034,"ĠyDjyCxGjxDjwGjwDj":8035,"ĠyAyCjxAwA":8036,"ĠyAyCjxAvA":8037,"ĠxAxDjwBwC":8038,"ĠyCxAxEvA":8039,"ĠyCxAxExCwF":8040,"ĠyCjxAjxFvAj":8041,"ĠyCjxAjxFxCjwFj":8042,"ĠwGjwEvBvDj":8043,"ĠwGjwEvBvCj":8044,"ĠwGwDjvAjvD":8045,"ĠwGwDjvAjvC":8046,"ĠwFjwDvAvCj":8047,"ĠwFjwDvAuB":8048,"ĠxAjxExCwCj":8049,"ĠxBxFxCjwD":8050,"xFjxCjwGj":8051,"ĠxCjwGjwFjvCj":8052,"ĠxCjwGjwFjwDjvAjvDj":8053,"ĠxCwGwFvC":8054,"ĠxCwGwFwDvAvD":8055,"ĠwBwFjwEuB":8056,"ĠwBwFjwEvBvFj":8057,"ĠwBwFjwEwCjvGjvCj":8058,"ĠwAjwFwDjuAj":8059,"ĠwAjwFwDjvAjvF":8060,"ĠwAjwFwDjwCvGvC":8061,"ĠwAwEwDuA":8062,"ĠwAwEwDvAvE":8063,"ĠwAwEwDvBvFjuB":8064,"ĠwGjwDjwCuAj":8065,"ĠwGwDvBuA":8066,"ĠzCyAxAj":8067,"ĠzCyAyD":8068,"ĠzCjyAjxB":8069,"ĠzCjyAjyDj":8070,"ĠxFjwAwFjvA":8071,"ĠxFjwAwFjwFjwCjvFj":8072,"ĠxFwGjwFvGj":8073,"ĠxFwGjwFwFwCvF":8074,"ĠxEwGwEvG":8075,"ĠxEwGwEwEvBvE":8076,"ĠxGwAjwGvAj":8077,"ĠxGwAjwGwGwDvG":8078,"ĠxAxFxCwAvG":8079,"ĠxAjxFjxCjwAjvGj":8080,"ĠwAwDjvA":8081,"ĠwGjwDvGj":8082,"ĠxDwAwGwDvA":8083,"ĠxDwAwGwEvBvE":8084,"ĠwBwFjvGjvGj":8085,"ĠwAjwFvGvG":8086,"ĠwAwEvFjvFj":8087,"ĠxGjwBwGjvB":8088,"ĠxGjwBwGjwGjwDjvGj":8089,"ĠxGjxDjwBwFjwDjvGj":8090,"ĠxGxDwAjwFwDvG":8091,"ĠxFxCwGjwDjwCvF":8092,"ĠxFjxCjwAwEwCjvFj":8093,"ĠxEwBwGwDvBvE":8094,"ĠwFwCjvGjvC":8095,"ĠwFwCjvGjuAj":8096,"ĠwEwCvGuB":8097,"ĠwEwCvGuA":8098,"ĠyDxBxFjvB":8099,"ĠwBwAwEvB":8100,"ĠwBwAwEvG":8101,"ĠwAjwEvAj":8102,"ĠyCxFjxDwDj":8103,"ĠyCjxGxDjwE":8104,"ĠyCxGxFwG":8105,"ĠxDwBwEvFj":8106,"ĠxFjxDwAwFjvE":8107,"ĠxGxDjwAjwGvF":8108,"ĠxGjxEwBwGjvFj":8109,"ĠxFxCjwGjwFvDj":8110,"ĠxExCwGwEvD":8111,"ĠyGjyCjxAjwFj":8112,"ĠyGjyCjxAjxFjwFj":8113,"ĠxCjxCjwGjwGjvFj":8114,"ĠxDjwAjwGjwFwCvF":8115,"ĠxCjwAjwDjvF":8116,"ĠxCwAwDvE":8117,"ĠyGyCxAwF":8118,"ĠyGyCxAxFwF":8119,"ĠxCxCwGwGvF":8120,"ĠwAjwGjwDjvAj":8121,"ĠwAjwGjwDjvFj":8122,"ĠyFjyDxAwB":8123,"ĠyGyDjxAjxC":8124,"ĠwGjwDjvFvF":8125,"ĠwGwDvEvE":8126,"ĠxAxCjwAwEwCjvFj":8127,"ĠyCjxGjxExCjwGj":8128,"ĠxAjxDwAjwFwDvG":8129,"ĠxBxDjwBwFjwDjvGj":8130,"ĠxGjxCwGjwDjwCvF":8131,"ĠyGjyExBxCj":8132,"ĠyFxBwG":8133,"ĠyFxBwCj":8134,"ĠyFxBxGwGj":8135,"ĠyDxAwAwG":8136,"ĠxGwBwGwDvBvE":8137,"ĠyEyCxAxE":8138,"ĠyEyCxAvA":8139,"ĠyFyCjxAjvAj":8140,"ĠyFyCjxAjxF":8141,"ĠxExEwBwBvA":8142,"ĠyDxGjxEwF":8143,"ĠyFyCxFwD":8144,"ĠyFyCxFwCj":8145,"ĠyFyCxFxD":8146,"ĠyFjyCjxFjwD":8147,"ĠyFjyCjxFjwDj":8148,"ĠyFjyCjxFjxDj":8149,"ĠyExGjxEwBwGjwE":8150,"ĠxFxFxCxCvAj":8151,"ĠwGjwFjwCjvGj":8152,"ĠwGjwFwCvFjvCj":8153,"ĠwGwCjvG":8154,"ĠwGwFwCvG":8155,"ĠyCjxGjxFjwGj":8156,"ĠxBxGjxDvB":8157,"ĠyDxAxGwG":8158,"ĠyDjxAjxGjwGj":8159,"ĠwGwEvBvFvC":8160,"ĠyGyCxGwA":8161,"ĠyGyCxGwF":8162,"ĠyGjyCjxGjwAj":8163,"ĠyGjyCjxGjwFj":8164,"ĠyFjyCwGj":8165,"ĠyFjyCwD":8166,"ĠyAyDxAwG":8167,"ĠyAyDxAwB":8168,"ĠyAyDxAxF":8169,"ĠyAjyDjxAjwGj":8170,"ĠyAjyDjxAjxC":8171,"ĠyAjyDjxAjxFj":8172,"ĠxBwBwGvE":8173,"ĠyCxCwGjvF":8174,"ĠwAjwFjwDjuGj":8175,"ĠwAwFwDuG":8176,"ĠyCjxCjwAvFj":8177,"ĠyCxAxDjwC":8178,"ĠyCjxAjxEwCj":8179,"ĠxAxCwAwC":8180,"ĠxAxCwAvF":8181,"ĠxAxCwAwFwCvF":8182,"ĠxAjxCjwAjwCj":8183,"ĠxAjxCjwAjvFj":8184,"ĠxAjxCjwAjwFjwCjvFj":8185,"ĠyCjxExCjwE":8186,"ĠyCjxExCjvA":8187,"ĠxBxDwBwD":8188,"ĠxBxDwBvG":8189,"ĠyCxDjxCwDj":8190,"ĠyCxDjxCvGj":8191,"ĠzEyAxFj":8192,"ĠzEyAxA":8193,"ĠzFyAjxG":8194,"ĠzFyAjxAj":8195,"ĠxDjxDjwAjwAjvGj":8196,"ĠxDxDwAwAvG":8197,"ĠwFjwCvFj":8198,"ĠyDxFxDwF":8199,"ĠyDxFxDvAj":8200,"ĠyDjxFjxDjwFj":8201,"ĠyDjxFjxDjvB":8202,"ĠzFjyBxGj":8203,"ĠzFjyBxB":8204,"ĠyByExBwA":8205,"ĠyByExBxCj":8206,"ĠyByExBxG":8207,"ĠyFyDxAjxFwAjwF":8208,"ĠxGxGxDxDwC":8209,"ĠxGjxGjxDjxDjwCj":8210,"vGjvEuB":8211,"ĠxAxDwBwGvG":8212,"ĠyCxFxDwAjvAj":8213,"ĠyCjxFjxDjwBvB":8214,"ĠxFjwAjwFjwCjvAjvDj":8215,"ĠxFwAwFwCvAvD":8216,"ĠxDwAvAjvC":8217,"ĠxDjwAjvBvCj":8218,"ĠwGjwDjwCjvCj":8219,"ĠwGjwDjwCjuGj":8220,"ĠwGjwDjwCjvAjvFuAj":8221,"ĠwGwDwCvC":8222,"ĠwGwDwCuG":8223,"ĠwGwDwCvAvEuA":8224,"ĠyDxBxFwD":8225,"ĠyDxBxFxDwG":8226,"ĠyDjyCxFjwDj":8227,"ĠyDjyCxFjxDjwGj":8228,"ĠxDwAwFwDvD":8229,"ĠxDjwAjwFjwDjvDj":8230,"ĠwFvBvF":8231,"xFxCwG":8232,"ĠyCxGxDjxCwG":8233,"ĠxDjwFjwDjwDjvAjvDj":8234,"ĠxDwFwDwDvAvD":8235,"ĠyEyCjxGwE":8236,"ĠyFyDxGjwF":8237,"ĠyFjyDjxAwFj":8238,"ĠxExDwGwE":8239,"ĠxFxDjwGjwF":8240,"ĠxGxFwAjwG":8241,"ĠwBwGjwCjvDj":8242,"ĠwAjwGwCvD":8243,"ĠwAjwFjvBvFj":8244,"ĠwAwFjvBvCj":8245,"ĠwAwFvAjvF":8246,"ĠwGjwFvAjvC":8247,"ĠwGwEvAuB":8248,"xDwAwG":8249,"xDjwAjwGj":8250,"ĠyAyDxAjwG":8251,"ĠyAjyDjxBwGj":8252,"ĠxCjwEwCjwCjvGjvCj":8253,"ĠxCwDjwCwCvGvC":8254,"ĠwBwDvBvBvFjuB":8255,"ĠxCwGjwDjwCuAj":8256,"ĠwBwGwDvBuA":8257,"ĠxFjxCwAwDvAvD":8258,"ĠxGxCjwAjwDjvAjvDj":8259,"ĠxAjxExCjvA":8260,"ĠxAjxExCjwFjwCjvFj":8261,"ĠxAxDjxCvGj":8262,"ĠxAxDjxCwFwCvF":8263,"ĠxFwBwGjwCjvGjvCj":8264,"ĠyGyExAjwG":8265,"ĠyGjyFxBwGj":8266,"ĠxEwAjwGwCvGvC":8267,"ĠyAyFyCxD":8268,"ĠyAyFyCxA":8269,"ĠzCyFyCwAj":8270,"ĠzCjyFjyCjwB":8271,"ĠxAjxAjxFxFwDj":8272,"xEwBwA":8273,"ĠyGyCjwDj":8274,"ĠyGjyDwE":8275,"ĠxEwBwCvD":8276,"ĠxFxCwCjvDj":8277,"ĠwBwEwCjuB":8278,"ĠwAjwCjvAjvAj":8279,"ĠwAjwCjvAjvAjvFuAj":8280,"ĠwAwCvAvA":8281,"ĠwAwCvAvAvEuA":8282,"ĠxGjxFjxCjwE":8283,"ĠxGjxFjxCjwGjwCj":8284,"ĠxFjxCwAvF":8285,"ĠxGxCjwAjvFj":8286,"ĠxExDwAwC":8287,"ĠxFxDjwAjwCj":8288,"ĠxFwBwGjvE":8289,"ĠyAyFjyCwA":8290,"ĠxDjwAwFjvBvFjuB":8291,"ĠxDwGjwFvAjvFuAj":8292,"ĠxCjwGwEvAvEuA":8293,"ĠxCwAjwDjwC":8294,"ĠxCwAjwDjvGj":8295,"ĠwBwAwDvB":8296,"ĠwBwAwDvG":8297,"ĠwAjwGjwCjvAj":8298,"ĠwAjwGjwCjvFj":8299,"ĠwAwGwCvA":8300,"ĠwAwGwCvF":8301,"ĠwEvAjvE":8302,"ĠwDjwCjvGjvDjuGj":8303,"ĠwDvGjvD":8304,"ĠwDvGjvDjuGj":8305,"ĠwDwCvGvDuG":8306,"ĠxDjwGjwEwCjvGjvCj":8307,"ĠxDwGwDjwCvGvC":8308,"ĠxCjwFjwDvBvFjuB":8309,"ĠxCwFwCjvAjvFuAj":8310,"ĠzDjyGyDj":8311,"ĠwBwEwCvAvEuA":8312,"ĠyDxGxExCwC":8313,"ĠyDjxGjxFxCjwCj":8314,"ĠyExAxFjxDwD":8315,"ĠyFjxBxGjxEwE":8316,"ĠyFxAjxGxDjwDj":8317,"ĠzEyGjyE":8318,"ĠxCjwAwEwCjuB":8319,"ĠxDjwBwFjwDjvCj":8320,"ĠxDwAjwFwDvC":8321,"ĠxGjxDwBvG":8322,"ĠyAjyGyCjwAj":8323,"ĠyGjyEyCjwCj":8324,"ĠyGjyEyCjxGj":8325,"ĠyFjyDxBvB":8326,"ĠyFjyDxBxFj":8327,"ĠyGyDjyCwC":8328,"ĠyGyDjyCxG":8329,"ĠxCwFjwDjvGjvDjuGj":8330,"ĠwBwFwDvGvDuG":8331,"ĠxFjwGjwEvB":8332,"ĠxFjwGjwEvCj":8333,"ĠxAjxFjxCwD":8334,"ĠxAjxFjxCwAwD":8335,"ĠxBxGxCjwDj":8336,"ĠxBxGxCjwAjwDj":8337,"ĠxFjxDwAwEvD":8338,"ĠxGxDjwAjwFvDj":8339,"ĠxGjxEwBwFjvE":8340,"ĠxFxCjwGjwDjvCj":8341,"ĠxExCwGwDvC":8342,"ĠxFjxExCjwGjwCj":8343,"ĠxGxFxCwDj":8344,"ĠyCjxAjxFjxCjwDj":8345,"ĠyCjxAjxFjxCjwFjwCj":8346,"ĠyDjxAxFwFj":8347,"ĠyCxAxFxCwD":8348,"ĠyCxAxFxCwFwC":8349,"ĠyExAjxFjwG":8350,"ĠzEyAyExD":8351,"ĠzFyAjyFxDj":8352,"ĠxCjwBwEwCj":8353,"ĠxAxAxExEwD":8354,"ĠwDjvAvDj":8355,"ĠwCjvGvDuG":8356,"ĠyFyDxAwD":8357,"ĠyFjyDjxAjwDj":8358,"ĠyGxAxFwD":8359,"ĠxFjxEwBwD":8360,"ĠzFyAyF":8361,"ĠzFjyAjyFj":8362,"ĠxGjxDwBwEvBvE":8363,"ĠyFjxAjxFjxCjwAjwFj":8364,"ĠyFxAxFxCwAwF":8365,"ĠyAyFyDwD":8366,"ĠyAjyFjyDjwDj":8367,"ĠzGzCxA":8368,"ĠzGzCyC":8369,"ĠzGjzCjxAj":8370,"ĠzGjzCjyCj":8371,"ĠzGjzDjyB":8372,"ĠzDyGyDxC":8373,"ĠzDjyGjyDjxCj":8374,"ĠzAzDxB":8375,"ĠzAzDyD":8376,"ĠzAjzDjyC":8377,"ĠzAjzDjyDj":8378,"ĠyGjxAjxFjwDj":8379,"ĠzFjyByFjxE":8380,"ĠzBzEyCj":8381,"ĠzBzEyE":8382,"ĠxEwFjwDuB":8383,"ĠxFwGwDjvC":8384,"ĠxBxBxFjxFjwE":8385,"ĠxFwAjwGwDjvAjvDj":8386,"ĠxEwAwFjwDvAvD":8387,"ĠxFjwBwGjwEvBvE":8388,"ĠxDjwGjwFwCjvGjvCj":8389,"ĠxDwGwEwCvGvC":8390,"ĠyGyExBwE":8391,"ĠyEyCjxAxEwAwE":8392,"ĠxDjwFwCjuAj":8393,"ĠxDwEwCuA":8394,"ĠyFjxGxD":8395,"ĠyFjyExA":8396,"ĠyGxGjxDj":8397,"ĠyGjxAxE":8398,"ĠyAxAjxF":8399,"ĠyAjyExAj":8400,"ĠxExCjwAwEvFj":8401,"ĠxAxDxCvG":8402,"ĠxAjxDjxCjvGj":8403,"ĠyCjxFjxEvB":8404,"ĠzDyFjyD":8405,"ĠwAjwFvAjvFvD":8406,"ĠwBwFjvBvFjvDj":8407,"ĠxFjwAwFjwDvAvD":8408,"ĠwAwEvAvEvCj":8409,"ĠxFwGjwFwCjvGjvCj":8410,"ĠxEwGwEwCvGvC":8411,"ĠxGwAjwGwDjvAjvDj":8412,"ĠxGjwBwGjwEvBvE":8413,"ĠyGjyFyCwF":8414,"ĠyCjxGxCjwG":8415,"ĠyAyFjyCjwFj":8416,"ĠyAjyGyDwG":8417,"ĠyCxFjxCwFj":8418,"ĠyByGjyDjwGj":8419,"ĠxBxAjxFjwD":8420,"ĠwDjvBvFjvDj":8421,"ĠwDvAjvFvD":8422,"ĠwCjvAvEvCj":8423,"ĠyAyDjxA":8424,"ĠyAjxBxFj":8425,"ĠxBxFxDvAj":8426,"ĠyCjxGxEwC":8427,"ĠyCxFjxDjvB":8428,"ĠyGjyDjxGjwE":8429,"ĠyGjyDjxGjwF":8430,"ĠxEwGjwEvBvGjvCj":8431,"ĠxFwAjwFjvAjvC":8432,"ĠxEwAwFvAuB":8433,"ĠxGjxCjwAwCjvDj":8434,"ĠxGxCwGjwCvD":8435,"ĠxFjwBwGvBvCj":8436,"ĠzCyAyFyC":8437,"ĠzCyAyFyCxF":8438,"ĠzCjyAjyFjyCj":8439,"ĠzCjyAjyFjyCjxFj":8440,"ĠxDjxCjwFjwDj":8441,"ĠxDxCwFwD":8442,"ĠxDjwDjvBvGj":8443,"ĠxDjwFjwDjvBvFjuB":8444,"ĠxDwFwDvAjvFuAj":8445,"ĠxCjwEwCjvAvEuA":8446,"ĠxCwDjwCvGjvDjuGj":8447,"ĠwBwDvBvGvDuG":8448,"ĠwFwDvGjuB":8449,"ĠyByGyDxE":8450,"ĠyByGyDxBxG":8451,"ĠzCjyAyEyCjxA":8452,"ĠzEyByGyC":8453,"ĠzCyEyCwC":8454,"ĠzFzCyGjyCj":8455,"ĠzFjzCjyAyD":8456,"ĠzGzDyAjyDj":8457,"ĠjCz":8458,"ĠjCjzFj":8459,"ĠxDjwAjwGjwDjvAj":8460,"ĠxCjwGjwFjwCjvGj":8461,"ĠxCwGwFwCvG":8462,"ĠwGwDvGvDuB":8463,"ĠwGjwDjvGjvDjvC":8464,"ĠwGjwEwCjvCj":8465,"ĠwFwCjvAjuAj":8466,"ĠwEwCvAuA":8467,"ĠwGwDjwCvC":8468,"ĠwFjwDvBuB":8469,"ĠxCwDwCuA":8470,"ĠxCjwDjwCjuAj":8471,"ĠxAjxEwAjwE":8472,"ĠxAxDjwAwDj":8473,"ĠxGjxDwGjwD":8474,"ĠyGyDxGwE":8475,"ĠxBxFwBwF":8476,"ĠxEwAjwEvAj":8477,"ĠxDjwAwDjvA":8478,"ĠyCxAjxGwC":8479,"ĠyCjxBxGjwCj":8480,"ĠyDxGjxFwCj":8481,"ĠyAjyFjyCjxDj":8482,"ĠzCyGjyDjyCxGj":8483,"ĠzDyAjyFyDxAj":8484,"ĠzDjyByFjyDjxB":8485,"ĠzEyByGjyE":8486,"ĠzCjyFyCjwCj":8487,"ĠxExDjwBvG":8488,"ĠxFxExCvGj":8489,"ĠxFjxFxCjvA":8490,"ĠxDjxDwAjvFj":8491,"ĠxGxFjxDvAj":8492,"ĠxGjxGxDjvB":8493,"ĠxCwBwGvDj":8494,"ĠxAxGjxEwC":8495,"ĠxEwBwFjwDvAvD":8496,"ĠxFxCwGwDjvAjvDj":8497,"ĠxFjxCjwGjwEvBvE":8498,"ĠxDwAwEwCvGvC":8499,"ĠxDjwAjwFwCjvGjvCj":8500,"ĠxCjwGjwDjvBvFjuB":8501,"ĠxCwGwDvAjvFuAj":8502,"ĠyByFxB":8503,"ĠwBwFjwCjvAvEuA":8504,"ĠwAjwFwCvGjvDjuGj":8505,"ĠwAwEvBvGvDuG":8506,"ĠxCjwAjwFwCjvFj":8507,"ĠxCwAwEwCvF":8508,"ĠwGjwDjwCjvGjvDj":8509,"ĠwGjwDjvAjvFjvCjuFj":8510,"ĠwGwDwCvGvD":8511,"ĠwGwDvAvFvCuF":8512,"ĠzCyFjyC":8513,"ĠwAjvAjvFjvDj":8514,"ĠwAvAvFvD":8515,"ĠzDyGjyD":8516,"ĠzDjyAyDj":8517,"ĠzEyAjyE":8518,"ĠyExBxGjxDwBwE":8519,"ĠyByEyCwA":8520,"ĠxCjwFwCjvGjvFuAj":8521,"ĠxFjxFjxCjxCjvB":8522,"ĠxDxCjwAvF":8523,"ĠxCjxCwGjvE":8524,"ĠxAjxAxFwCj":8525,"ĠyFjyCxGjwA":8526,"ĠyGyCjxAwAj":8527,"ĠyGjyDxAjwB":8528,"ĠxDjwGwDjvAjvGvDj":8529,"ĠxDwFjwDvAvFjvD":8530,"ĠxCjwFwCjvGjvFvCj":8531,"ĠxCwEwCvGvEvC":8532,"ĠjCzFyD":8533,"ĠjCjzFjyDj":8534,"ĠxEwFvAj":8535,"ĠxEvBvE":8536,"ĠxFwFjvB":8537,"ĠxFuA":8538,"ĠxFvBvG":8539,"ĠxFwEwCvG":8540,"ĠxFjuAj":8541,"ĠxFjwGwC":8542,"ĠxFjwCvGj":8543,"ĠxFjwFwCjvGj":8544,"ĠxDjuGj":8545,"ĠxDjxDwD":8546,"ĠxDjxDjwAjwDj":8547,"ĠxDjwAwEvFj":8548,"ĠxDuG":8549,"ĠxDwGjwDj":8550,"ĠxDxCjwCj":8551,"ĠxDxDwAwD":8552,"ĠxGuB":8553,"ĠxGwGjwCj":8554,"ĠxGuA":8555,"ĠxGwEvA":8556,"ĠxGwCjvA":8557,"ĠxGwFjwDvA":8558,"ĠxGxFjwD":8559,"ĠxGjvC":8560,"ĠxGjwAwD":8561,"ĠxGjuAj":8562,"ĠxGjwFvAj":8563,"ĠxGjwDvAj":8564,"ĠxGjxDwD":8565,"ĠxGjwGwDjvAj":8566,"ĠxGjxGwDj":8567,"ĠxCjuFj":8568,"ĠxCjwGwD":8569,"ĠxCjxCwC":8570,"ĠxCwFjwCj":8571,"ĠxCwAjwFj":8572,"ĠxCuF":8573,"ĠxCxCwGwC":8574,"ĠxCwBvB":8575,"ĠxAvCj":8576,"ĠxAuB":8577,"ĠxAwAjwDj":8578,"ĠxAwFjvB":8579,"ĠxAxGxDj":8580,"ĠxAwDjvB":8581,"ĠxAxDjwDj":8582,"ĠxAwGjwEvB":8583,"ĠxAjvD":8584,"ĠxAjvC":8585,"ĠxAjwGwC":8586,"ĠxAjwFwC":8587,"ĠxAjwBwE":8588,"ĠxAjwEwC":8589,"ĠxAjxGjxE":8590,"ĠwBwFwC":8591,"ĠwBwAwF":8592,"ĠwBwBwFjvB":8593,"ĠwBwAjvGj":8594,"ĠwBwAjvAj":8595,"ĠwBwDjvBvFj":8596,"ĠxBvDj":8597,"ĠxBvCj":8598,"ĠxBwGjwCj":8599,"ĠxBwFjwCj":8600,"ĠxBwFwCj":8601,"ĠxBxFwF":8602,"ĠxBwAwEvFj":8603,"ĠwAjuB":8604,"ĠwAjwGjwE":8605,"ĠwAjwAvA":8606,"ĠwAjwAjwFvAj":8607,"ĠwAjwAvG":8608,"ĠwAjwDvAjvF":8609,"ĠwAuAj":8610,"ĠwAwGjwE":8611,"ĠwAwGwDj":8612,"ĠwAwGjvGj":8613,"ĠwAwAwEvA":8614,"ĠwAwGjvFj":8615,"ĠwAwCjvAvE":8616,"ĠwGjuA":8617,"ĠwGjwGwDj":8618,"ĠwGjwFjwCjvFj":8619,"ĠwGjvBvFj":8620,"ĠwGjwGvG":8621,"ĠwGjwGvF":8622,"ĠwGjwCvGjvDj":8623,"ĠwGwFjwD":8624,"ĠwGwFwCvF":8625,"ĠwGvAjvF":8626,"ĠwGvBvGvD":8627,"wGjvA":8628,"wGjvBvE":8629,"wGjvBvFj":8630,"ĠyCxB":8631,"ĠyCvD":8632,"ĠyCwAwD":8633,"ĠyCwGwC":8634,"ĠyCwFjwD":8635,"ĠyCwBwG":8636,"ĠyCwBwGwD":8637,"wGvGj":8638,"wGvAjvDj":8639,"wGvAjvF":8640,"ĠyCjvDj":8641,"ĠyCjyC":8642,"ĠyCjwAjwDj":8643,"ĠyCjwGjwCj":8644,"ĠyCjwGwDj":8645,"ĠyCjxCwGj":8646,"wBwC":8647,"wBvE":8648,"wBwGwC":8649,"wBwEvA":8650,"wEvGj":8651,"wEvF":8652,"wEvD":8653,"wEvGvC":8654,"wEvGvD":8655,"wAvAj":8656,"wAwCvG":8657,"wAjvB":8658,"wAjwFjvB":8659,"wAjwCjvGj":8660,"wFjvG":8661,"wFjvFj":8662,"wFjvE":8663,"wFjvAvD":8664,"wFjvAvE":8665,"wFvFj":8666,"wFvF":8667,"wFvDj":8668,"wFvGjvCj":8669,"wFvGjvDj":8670,"wDvFj":8671,"wDvFuAj":8672,"wDvFvC":8673,"wDjvG":8674,"wDjvDj":8675,"wDjvFjuB":8676,"wDjvFjvCj":8677,"xCwAj":8678,"xCvF":8679,"xCwFvAj":8680,"xCwGjwDj":8681,"xCjwB":8682,"xCjvFj":8683,"xCjwFjvB":8684,"xCjwAwE":8685,"ĠwFjwFwCj":8686,"wCjuB":8687,"wCjvAjvDj":8688,"wCjvEuA":8689,"ĠwFwEwC":8690,"wCuAj":8691,"wCvAvD":8692,"wCvDjuGj":8693,"xDwB":8694,"xDwDj":8695,"xDwGwC":8696,"xDwAwE":8697,"xDjwG":8698,"xDjwE":8699,"xDjxC":8700,"xDjwGjwCj":8701,"xDjwAjwF":8702,"ĠwEwDjvB":8703,"ĠwEwDjvCj":8704,"ĠwEwDjvDj":8705,"vBuA":8706,"vBvBvFj":8707,"vBvDuG":8708,"ĠyDvE":8709,"ĠyDyCj":8710,"ĠyDwAwD":8711,"ĠyDwBwE":8712,"ĠyDwGjwE":8713,"ĠyDxCjwA":8714,"ĠyDwBwGwD":8715,"ĠyDjvF":8716,"ĠyDjyD":8717,"ĠyDjwAjwDj":8718,"ĠyDjxCwF":8719,"ĠyDjxDwAj":8720,"ĠyDjwAwF":8721,"ĠyDjxDwAjwF":8722,"xEwGj":8723,"xExCj":8724,"xEwAwD":8725,"xEwBwE":8726,"xEwBwFj":8727,"xEwBwFjvB":8728,"vAjvAjvF":8729,"vAvAvE":8730,"ĠwDjvBvE":8731,"ĠwDjwDvAj":8732,"ĠwDjuFj":8733,"ĠwDjwDvC":8734,"ĠwDuF":8735,"ĠwDwCjuB":8736,"xFwA":8737,"xFxD":8738,"xFwAjwDj":8739,"xFxCwF":8740,"xFxCjwFj":8741,"xFxCwGwC":8742,"xFjwGj":8743,"xFjwAj":8744,"xFjwDj":8745,"xFjxDj":8746,"xFjwBwE":8747,"xFjxDwG":8748,"vGjvD":8749,"ĠwCjvAvEuA":8750,"ĠwCjwCuAj":8751,"ĠwCvCj":8752,"ĠwCvBuA":8753,"ĠyEvG":8754,"ĠyEvFj":8755,"ĠyEyDj":8756,"ĠyEwBwE":8757,"ĠyExCjwFj":8758,"ĠyEyE":8759,"ĠyExDjwB":8760,"ĠyEwAjwFj":8761,"ĠyEwAvA":8762,"ĠyExFwAj":8763,"ĠyEwAwE":8764,"ĠyEyDxA":8765,"ĠyEyDxAxD":8766,"ĠyExDjwBwFj":8767,"xGwB":8768,"xGwA":8769,"xGwC":8770,"xGxD":8771,"xGxE":8772,"xGvA":8773,"xGxCwF":8774,"xGxDjwGj":8775,"xGxDwAwD":8776,"xGxDwA":8777,"xGjwAj":8778,"xGjxC":8779,"xGjwCj":8780,"xGjxDj":8781,"xGjxF":8782,"xGjxCjwFj":8783,"xGjxDjwAjwDj":8784,"vFjvDjuGj":8785,"vFvDuG":8786,"ĠyFvA":8787,"ĠyFvGj":8788,"ĠyFvG":8789,"ĠyFxDwG":8790,"ĠyFyF":8791,"ĠyFxExC":8792,"ĠyFxFjwB":8793,"ĠyFyDjxAj":8794,"ĠyFxGxC":8795,"ĠyFyDjxAjxDj":8796,"ĠyFxDwAjwF":8797,"ĠvBvC":8798,"ĠvBvGjvE":8799,"ĠyFjvAj":8800,"ĠyFjvA":8801,"ĠyFjvGj":8802,"ĠyFjxDjwGj":8803,"ĠyFjyFj":8804,"ĠyFjxFxCj":8805,"ĠyFjxGjxCj":8806,"ĠyFjxGxC":8807,"ĠyFjxDjwBwFj":8808,"xAwE":8809,"xAwD":8810,"xAxCj":8811,"xAxE":8812,"xAxFj":8813,"xAxDwG":8814,"xAxDwAwD":8815,"xAjwDj":8816,"xAjxD":8817,"xAjxDj":8818,"xAjxF":8819,"xAjxDjwGj":8820,"xAjxDjwAjwDj":8821,"ĠyGvB":8822,"ĠyGvAj":8823,"ĠyGvA":8824,"ĠyGvC":8825,"ĠyGwGwC":8826,"ĠyGxCwF":8827,"ĠyGxFjxD":8828,"ĠyGyG":8829,"ĠyGxGjxCj":8830,"ĠvGjuFj":8831,"ĠvGuF":8832,"ĠyGjwC":8833,"ĠyGjvB":8834,"ĠyGjvAj":8835,"ĠyGjvCj":8836,"ĠyGjwGjwCj":8837,"ĠyGjxCjwFj":8838,"ĠyGjxGxDj":8839,"ĠyGjyGj":8840,"ĠyGjyDjxAj":8841,"ĠyGjyDxA":8842,"ĠyGjxAxD":8843,"xBwE":8844,"xBxCj":8845,"xBwCj":8846,"xBxDj":8847,"xBxFj":8848,"xBxGj":8849,"ĠxEwBwF":8850,"ĠxEwBvDj":8851,"ĠxEwBvC":8852,"ĠxEwBuB":8853,"ĠxEwBvAvE":8854,"ĠxEwBwFvG":8855,"ĠxFxCwE":8856,"ĠxFxCwFj":8857,"ĠxFxCvE":8858,"ĠxFxCvCj":8859,"ĠxFxCvC":8860,"ĠxFxCvAjvF":8861,"ĠxFxCwFjvGj":8862,"ĠxFjxCjwG":8863,"ĠxFjxCjwF":8864,"ĠxFjxCjvF":8865,"ĠxFjxCjvD":8866,"ĠxFjxCjvCj":8867,"ĠxFjxCjvBvFj":8868,"ĠxFjxCjwGvA":8869,"ĠxGjxDjwG":8870,"ĠxGjxDjvG":8871,"ĠxGjxDjvE":8872,"ĠxGjxDjvDj":8873,"ĠxGjxDjwCjvGj":8874,"ĠxGjxDjwAvB":8875,"ĠxGxDwFj":8876,"ĠxGxDvFj":8877,"ĠxGxDvDj":8878,"ĠxGxDvD":8879,"ĠxGxDwCvG":8880,"ĠxGxDwGjvAj":8881,"ĠxDwAwDj":8882,"ĠxDwAvDj":8883,"ĠxDwAvCj":8884,"ĠxDwAvC":8885,"ĠxDwAuA":8886,"ĠxDwAwFjwCj":8887,"ĠxDwAwFwCvF":8888,"ĠxDjwAjwE":8889,"ĠxDjwAjvE":8890,"ĠxDjwAjvD":8891,"ĠxDjwAjvCj":8892,"ĠxDjwAjuAj":8893,"ĠxDjwAjwFjwCjvFj":8894,"ĠyAwCj":8895,"ĠyAwC":8896,"ĠyAvB":8897,"ĠyAxGj":8898,"ĠyAvD":8899,"ĠyAwAwD":8900,"ĠyAxGjxE":8901,"ĠyAxFwF":8902,"ĠyAyDjxAj":8903,"ĠyAxBxE":8904,"ĠyAyCxF":8905,"ĠyAjwD":8906,"ĠyAjwCj":8907,"ĠyAjwC":8908,"ĠyAjxA":8909,"ĠyAjvDj":8910,"ĠyAjwAjwDj":8911,"ĠyAjxBxE":8912,"ĠyAjyCxF":8913,"ĠyAjyCjxFj":8914,"ĠyAjxAxF":8915,"ĠxAxEwGj":8916,"ĠxAxExE":8917,"ĠxAxEvGj":8918,"ĠxAxEvF":8919,"ĠxAxEvE":8920,"ĠxAxEwDvA":8921,"ĠxAxEwAjwC":8922,"ĠxAxEwAjwFjvB":8923,"ĠvFjvDj":8924,"ĠvFjvDjuAj":8925,"ĠxAjxFwA":8926,"ĠxAjxFvA":8927,"ĠxAjxFxF":8928,"ĠxAjxFvFj":8929,"ĠxAjxFvF":8930,"ĠxAjxFwDjvAj":8931,"ĠxAjxFwBwCj":8932,"ĠxAjxFwBwGwC":8933,"ĠxBxFjwAj":8934,"ĠxBxFjvAj":8935,"ĠxBxFjxFj":8936,"ĠxBxFjvG":8937,"ĠxBxFjvFj":8938,"ĠxBxFjwEvB":8939,"ĠvFvD":8940,"ĠvFvDuA":8941,"ĠxCjwGjwD":8942,"ĠxCjwGjvD":8943,"ĠxCjwGjvC":8944,"ĠxCjwGjuB":8945,"ĠxCjwGjwFwC":8946,"ĠxCjwGjwGjwDj":8947,"ĠxCjwGjwFjvGj":8948,"ĠxCwGwCj":8949,"ĠxCwGuB":8950,"ĠxCwGuAj":8951,"ĠxCwGwEvB":8952,"ĠxCwGwGwD":8953,"ĠxCwGwFvG":8954,"ĠxFjxDwC":8955,"ĠxFjxDvBvFj":8956,"ĠxFjxDwGvG":8957,"ĠxFjxDwGjvAj":8958,"ĠxFjxDwGvA":8959,"ĠxFjxDwFjwDvA":8960,"ĠxFjxDwGwEwC":8961,"ĠxFjxDwCvD":8962,"ĠxGxDjwCj":8963,"ĠxGxDjwCvG":8964,"ĠxGxDjwGjvGj":8965,"ĠxGxDjwGjvAj":8966,"ĠxGxDjwAvB":8967,"ĠxGxDjwGwDjvAj":8968,"ĠxGxDjwGjwFwCj":8969,"ĠxGxDjwCjvDj":8970,"ĠxGxDjwBwDj":8971,"ĠxGxDjxDwGwDvG":8972,"ĠxGxDjxDwDj":8973,"ĠxFxCjvB":8974,"ĠxFxCjvAjvF":8975,"ĠxFxCjwGvA":8976,"ĠxFxCjwFjvGj":8977,"ĠxFxCjwFwCjvGj":8978,"ĠxFxCjvBvCj":8979,"ĠxExCvAj":8980,"ĠxExCvAvE":8981,"ĠxExCwFjvGj":8982,"ĠxExCwFvG":8983,"ĠxExCwEwCvG":8984,"ĠxExCvAjvC":8985,"ĠxExCwBwEvBvE":8986,"ĠxExCwBwC":8987,"ĠxGjxEwD":8988,"ĠxGjxEwAvA":8989,"ĠxGjxEwCjvGj":8990,"ĠxGjxEwAvB":8991,"ĠxGjxEwDvE":8992,"ĠxGjxExCwE":8993,"ĠxGjxExDjwGjwDjvGj":8994,"ĠxGjxExDjwE":8995,"ĠyBwD":8996,"ĠyBwDj":8997,"ĠyBwCj":8998,"ĠyBxF":8999,"ĠyBvE":9000,"ĠyBwBwE":9001,"ĠyByCjxFj":9002,"ĠvEvCj":9003,"ĠvEuB":9004,"ĠwBwFjwC":9005,"ĠwBwFjuA":9006,"ĠwBwFjwFjwCj":9007,"ĠwBwFjwEvB":9008,"ĠwBwFjwEvBvE":9009,"ĠwAjwFvB":9010,"ĠwAjwFwFwC":9011,"ĠwAjwFuGj":9012,"ĠwAjwFwDjvAj":9013,"ĠwAjwFwDjvAjvDj":9014,"ĠwAwEvAj":9015,"ĠwAwEuB":9016,"ĠwAwEuG":9017,"ĠwAwEwDvA":9018,"ĠwAwEwEvB":9019,"ĠwAwEwDvAvD":9020,"yCwD":9021,"yCxC":9022,"yCxD":9023,"yCxA":9024,"ĠyCxGvGj":9025,"ĠyCxGvG":9026,"ĠyCxGwFwC":9027,"ĠyCxGxCwF":9028,"ĠyCxGxDwD":9029,"ĠyCxGwEwCvG":9030,"ĠyCjxGjvA":9031,"ĠyCjxGjvGj":9032,"ĠyCjxGjwFjwCj":9033,"ĠyCjxGjxCjwFj":9034,"ĠyCjxGjxDjwDj":9035,"ĠyCjxGjwFwCjvGj":9036,"yCjwDj":9037,"yCjxCj":9038,"yCjxDj":9039,"ĠxAxFwE":9040,"ĠxAxFwDj":9041,"ĠxAxFvE":9042,"ĠxAxFwDvA":9043,"ĠxAxFwDjvF":9044,"ĠxAxFwAjvAj":9045,"ĠxAxFxCjwF":9046,"ĠxAxFxEwAwEvA":9047,"ĠxAjxFjwE":9048,"ĠxAjxFjwF":9049,"ĠxAjxFjvF":9050,"ĠxAjxFjwDjvAj":9051,"ĠxAjxFjwBvB":9052,"ĠxAjxFjwEvFj":9053,"ĠxAjxFjxDwFj":9054,"ĠxAjxFjxFwAjwFvAj":9055,"ĠxFjxDjvDj":9056,"ĠxFjxDjwFjvB":9057,"ĠxFjxDjwAjwFj":9058,"ĠxFjxDjwEvB":9059,"ĠxFjxDjwCjvGj":9060,"ĠxFxDvD":9061,"ĠxFxDwFvAj":9062,"ĠxFxDwAwF":9063,"ĠxFxDwDjvAj":9064,"ĠxFxDwCvG":9065,"ĠxFxDwGjvB":9066,"ĠxGxCwDj":9067,"ĠxGxCvE":9068,"ĠxGxCwGjwCj":9069,"ĠxGxCwGjwDjvGj":9070,"ĠxGxCwDjvAj":9071,"ĠxGxCwAjwC":9072,"ĠxGxCwAjvAj":9073,"ĠxGjxCjwE":9074,"ĠxGjxCjvF":9075,"ĠxGjxCjwAwD":9076,"ĠxGjxCjwEvB":9077,"ĠxGjxCjwBvB":9078,"ĠxGjxCjwBwCj":9079,"ĠxDjwBvA":9080,"ĠxDjwBwFwCj":9081,"ĠxDjwBwEvBvE":9082,"ĠxDjwBwFvG":9083,"ĠxDjwBwEvFj":9084,"ĠxDjwBwDjvBvFj":9085,"ĠxDjwBwGwCj":9086,"ĠxDjwBvAuB":9087,"ĠxDjwBwAjvB":9088,"ĠxExCjvCj":9089,"ĠxExCjwEvA":9090,"ĠxExCjwGjwE":9091,"ĠxExCjvBvFj":9092,"ĠxExCjwDvA":9093,"ĠxDwAjvGj":9094,"ĠxDwAjwEwC":9095,"ĠxDwAjwDjvAjvDj":9096,"ĠxDwAjwDjvF":9097,"ĠxDwAjwEvFj":9098,"ĠxDwAjwDvAjvF":9099,"ĠxDwAjwFjwC":9100,"ĠxDwAjvGjuAj":9101,"ĠxDwAjwAvAj":9102,"ĠxCjwAvG":9103,"ĠxCjwAwDjvB":9104,"ĠxCjwAwDvAvD":9105,"ĠxCjwAwDjvF":9106,"ĠxCjwAwDvE":9107,"ĠxCjwAwCjvAvE":9108,"ĠxCjwAwFvB":9109,"ĠxCjwAvGuA":9110,"ĠxCjwAwGjvA":9111,"ĠxCwGjvFj":9112,"ĠxCwGjwDvAj":9113,"ĠxCwGjwCjvGjvCj":9114,"ĠxCwGjwDvE":9115,"ĠxCwGjwCvGjvDj":9116,"ĠxCwGjvFjuGj":9117,"ĠxCwGjwGvGj":9118,"ĠxDjxCvC":9119,"ĠxDjxCwDjvGj":9120,"ĠxDjxCwGwDj":9121,"ĠxDjxCvAjvF":9122,"ĠxDjxCwCjvGj":9123,"ĠxFwAjwCj":9124,"ĠxFwAjvD":9125,"ĠxFwAjwFjvB":9126,"ĠxFwAjwFwCj":9127,"ĠxFwAjwFjwCjvFj":9128,"ĠxFwAjwCjvGj":9129,"ĠxFwAjwGjvGj":9130,"ĠxFwAjwGjvAj":9131,"ĠxEwAwDj":9132,"ĠxEwAwC":9133,"ĠxEwAvCj":9134,"ĠxEwAwFvAj":9135,"ĠxEwAwEwC":9136,"ĠxEwAwFwCvF":9137,"ĠxEwAwCvG":9138,"ĠxEwAwGvG":9139,"ĠxEwAwGvA":9140,"ĠxFjwBwD":9141,"ĠxFjwBvDj":9142,"ĠxFjwBwGwC":9143,"ĠxFjwBwFjwD":9144,"ĠxFjwBwAvA":9145,"ĠxFjwBwDvA":9146,"ĠxFjwBwGwDvG":9147,"ĠxFjwBwAvB":9148,"ĠxDwBuB":9149,"ĠxDwBwDvG":9150,"ĠxDwBwFjwD":9151,"ĠxDwBvAvE":9152,"ĠxDwBwCvG":9153,"ĠxAxDwAjwDj":9154,"ĠxAxDwFwC":9155,"ĠxAxDxCwF":9156,"ĠxAxDxCwC":9157,"ĠxAjxDjwFjwCj":9158,"ĠxAjxDjwBwE":9159,"ĠxAjxDjxCjwFj":9160,"ĠxAjxDjxCjwCj":9161,"ĠwBwGvF":9162,"ĠwBwGvDj":9163,"ĠwBwGwCjvA":9164,"ĠwBwGwCvGvC":9165,"ĠwBwGvBvGvD":9166,"ĠwBwGvFuG":9167,"ĠwBwGwFjvG":9168,"ĠxBxEvC":9169,"ĠxBxExCwF":9170,"ĠxBxExDwD":9171,"ĠxBxEwGwD":9172,"ĠxBxEwAwFj":9173,"ĠxDjwGjwD":9174,"ĠxDjwGjvC":9175,"ĠxDjwGjwFjvB":9176,"ĠxDjwGjwDjvB":9177,"ĠxDjwGjwEvBvE":9178,"ĠxDjwGjwFjvGj":9179,"ĠxDjwGjwEvFj":9180,"ĠxDwGwCj":9181,"ĠxDwGuB":9182,"ĠxDwGwFvAj":9183,"ĠxDwGwDvAj":9184,"ĠxDwGwDjvAjvDj":9185,"ĠxDwGwFvG":9186,"ĠxDwGwDjvF":9187,"ĠxEwEvFj":9188,"ĠxEwEvF":9189,"ĠxEwEvE":9190,"ĠxEwEvD":9191,"ĠxEwEuB":9192,"ĠxEwEvBvE":9193,"ĠxEwEwCjvGj":9194,"ĠxEwEvAvF":9195,"ĠxFwFvG":9196,"ĠxFwFvFj":9197,"ĠxFwFvDj":9198,"ĠxFwFvC":9199,"ĠxFwFwDvA":9200,"ĠxFwFvAjvFj":9201,"ĠxFjwFjvGj":9202,"ĠxFjwFjvG":9203,"ĠxFjwFjvE":9204,"ĠxFjwFjvCj":9205,"ĠxFjwFjvBvG":9206,"ĠxFjwFjwDjvAj":9207,"ĠxFjwFjwDuB":9208,"ĠxFjwFjwDvAvG":9209,"ĠxGjxFvF":9210,"ĠxGjxFwGjwCj":9211,"ĠxGjxFwFjwCj":9212,"ĠxGjxFxCjwFj":9213,"ĠxGjxFwDjvAj":9214,"ĠxGxEvE":9215,"ĠxGxEwGwC":9216,"ĠxGxEwFwC":9217,"ĠxGxExCwF":9218,"ĠxGxEwBwG":9219,"ĠxGxEwDvA":9220,"ĠxCjwAjwG":9221,"ĠxCjwAjuAj":9222,"ĠxCjwAjwCjvFj":9223,"ĠxCjwAjwEwCjvFj":9224,"ĠxCjwAjwGwCj":9225,"ĠxAxFjvFj":9226,"ĠxAxFjwEvB":9227,"ĠxAxFjwGwD":9228,"ĠxAjxGvG":9229,"ĠxAjxGwFwC":9230,"ĠxAjxGxDwAj":9231,"ĠxAjxGwGjwDj":9232,"ĠxCwAwFj":9233,"ĠxCwAuA":9234,"ĠxCwAwCvF":9235,"ĠxCwAwDjwCvF":9236,"ĠxCwAwFjwC":9237,"ĠwGjwDjvFj":9238,"ĠwGjwDjuB":9239,"ĠwGjwDjuAj":9240,"ĠwGjwDjwDjvAj":9241,"ĠwGjwDjwCjvGjvCj":9242,"ĠwGwDvF":9243,"ĠwGwDuAj":9244,"ĠwGwDuA":9245,"ĠwGwDvAvD":9246,"ĠwGwDwDvA":9247,"ĠwGwDwCvGvC":9248,"ĠxBxGjxF":9249,"ĠxBxGjxFj":9250,"ĠxBxGjvGj":9251,"ĠxBxGjwFjwCj":9252,"ĠxBxGjxDjwB":9253,"ĠxBxGjwAwE":9254,"ĠxBxGjxFjxFj":9255,"ĠyDxAvAj":9256,"ĠyDxAxGxC":9257,"ĠyDxAwGwD":9258,"ĠyDxAxEwE":9259,"ĠyDxAwFjwDvA":9260,"ĠyDjxAjvB":9261,"ĠyDjxAjxFwF":9262,"ĠyDjxAjwGjwDj":9263,"ĠyDjxAjxGjxCj":9264,"ĠyDjxAjxFxC":9265,"ĠyDjxAjwGwDjvAj":9266,"ĠyCxFvCj":9267,"ĠyCxFxCjwFj":9268,"ĠyCxFxDjwDj":9269,"ĠyCxFwGjwDj":9270,"ĠyCjxFjvD":9271,"ĠyCjxFjxDwG":9272,"ĠyCjxFjwAwE":9273,"ĠyCjxFjxEwA":9274,"ĠyCjxFjxEwE":9275,"ĠyCjxFjxDwAwD":9276,"ĠxDjwDjvF":9277,"ĠxDjwDjvCj":9278,"ĠxDjwDjuAj":9279,"ĠxDjwDjvAjvDj":9280,"ĠxDjwDjwCvG":9281,"ĠxDjwDjvAjvG":9282,"ĠxDwDvE":9283,"ĠxDwDvC":9284,"ĠxDwDuA":9285,"ĠxDwDvAvD":9286,"ĠxDwDvBvFj":9287,"ĠxDwDvAvFj":9288,"ĠxGwGvGj":9289,"ĠxGwGvE":9290,"ĠxGwGvD":9291,"ĠxGwGwCvGj":9292,"ĠxGwGwEvB":9293,"ĠxGwGwCvG":9294,"ĠxGwGwDvB":9295,"ĠxGwGwEwCvG":9296,"ĠxGwGwDjvC":9297,"ĠxGjwGjvA":9298,"ĠxGjwGjvF":9299,"ĠxGjwGjvDj":9300,"ĠxGjwGjwFwC":9301,"ĠxGjwGjwCjvA":9302,"ĠxGjwGjwCjvGj":9303,"ĠxGjwGjwDjwC":9304,"ĠxGjwGjwFwCjvGj":9305,"ĠxGjwGjwEvCj":9306,"ĠzCwD":9307,"ĠzCwDj":9308,"ĠzCvF":9309,"ĠzCxB":9310,"ĠzCxCwF":9311,"yDwF":9312,"ĠxCjwCjvDj":9313,"ĠxCjwCjuGj":9314,"ĠxCjwCjvGjvCj":9315,"ĠxCjwCjvAjvF":9316,"ĠxCjwCjvGjvF":9317,"ĠzCjwE":9318,"ĠzCjwDj":9319,"ĠzCjvFj":9320,"ĠzCjyC":9321,"ĠzCjxCjwFj":9322,"ĠzCjyCjxAj":9323,"ĠxCwCvD":9324,"ĠxCwCvGvC":9325,"ĠxCwCuG":9326,"ĠxCwCvAvE":9327,"ĠxCwCvGvE":9328,"yDjwFj":9329,"ĠxBxGwFj":9330,"ĠxBxGwDj":9331,"ĠxBxGvFj":9332,"ĠxBxGwEwC":9333,"ĠxBxGwEvB":9334,"ĠxBxGxCwC":9335,"ĠxBxGxCwG":9336,"ĠxBxGxFjwBwFjvB":9337,"ĠvDjvC":9338,"ĠvDjuAj":9339,"ĠvDuB":9340,"ĠvDuA":9341,"ĠyCxGjwG":9342,"ĠyCxGjvG":9343,"ĠyCxGjwFwC":9344,"ĠyCxGjwFwCj":9345,"ĠyCxGjxCjwCj":9346,"ĠyCxGjxCjwGj":9347,"ĠyCxGjxGxCwGwC":9348,"ĠyCjxAwGj":9349,"ĠyCjxAvGj":9350,"ĠyCjxAwFjwCj":9351,"ĠyCjxAwFjwD":9352,"ĠyCjxAxDwD":9353,"ĠyCjxAxDwA":9354,"ĠyCjxAxGjxCjwGjwCj":9355,"ĠxAwAwC":9356,"ĠxAwAvAj":9357,"ĠxAwAvFj":9358,"ĠxAwAvE":9359,"ĠxAwAwFjwCj":9360,"ĠxAwAwFwC":9361,"ĠxAwAwFvG":9362,"ĠxAwAwEwCj":9363,"ĠxAwAwFjwDvA":9364,"ĠxAwAwFwCvAj":9365,"ĠxAjwAjwCj":9366,"ĠxAjwAjvB":9367,"ĠxAjwAjvG":9368,"ĠxAjwAjvF":9369,"ĠxAjwAjwFjwCj":9370,"ĠxAjwAjwGwD":9371,"ĠxAjwAjwFjvGj":9372,"ĠxAjwAjwFwD":9373,"ĠxAjwAjwGwDjvAj":9374,"ĠxAjwAjwFjwCjvB":9375,"ĠyDxAjvA":9376,"ĠyDxAjwGwDj":9377,"ĠyDxAjxDjwDj":9378,"ĠyDxAjwGwD":9379,"ĠyDxAjxDjwAj":9380,"ĠyDxAjxAxDwAwD":9381,"ĠyDjxBvAj":9382,"ĠyDjxBwGjwE":9383,"ĠyDjxBwGjwDj":9384,"ĠyDjxBxEwE":9385,"ĠyDjxBxEwB":9386,"ĠyDjxBxAjxDjwAjwDj":9387,"ĠxBwBwD":9388,"ĠxBwBwC":9389,"ĠxBwBvGj":9390,"ĠxBwBvFj":9391,"ĠxBwBwFwC":9392,"ĠxBwBwEwC":9393,"ĠxBwBwGjwDj":9394,"ĠxBwBwEvB":9395,"ĠxBwBwGwD":9396,"ĠxBwBwGvA":9397,"ĠxBwBwFjwDj":9398,"ĠxBwBwGjwEvB":9399,"ĠxBwBwGwDwC":9400,"wFjwCjvGj":9401,"wFjwCjwCjvGj":9402,"wFwCvG":9403,"wFwCwCvG":9404,"ĠxGwCvA":9405,"ĠxGwCvC":9406,"ĠxGjwCjvAj":9407,"ĠxGjwCjvCj":9408,"ĠxFjvBvGj":9409,"ĠxFvAjvG":9410,"ĠxEvAvFj":9411,"ĠxAwDvB":9412,"ĠxAwDvD":9413,"ĠxAjwDjwC":9414,"ĠxAjwDjvDj":9415,"ĠwBvBvGj":9416,"ĠwBvBvGjvE":9417,"ĠxBwEwCj":9418,"ĠxBwEvE":9419,"ĠwFjwCjuA":9420,"ĠwFjwCjuGj":9421,"ĠwFjwCjvGjvCj":9422,"ĠwFjwCjwCjvGj":9423,"ĠwFwCuGj":9424,"ĠwFwCvGvC":9425,"ĠwFwCuG":9426,"ĠwFwCwCvG":9427,"ĠxCjwFjwE":9428,"ĠxCjwFjwC":9429,"ĠxCjwFjvE":9430,"ĠxCjwFjwEvA":9431,"ĠxCjwFjwDvAvD":9432,"ĠxCwFwDj":9433,"ĠxCwFvB":9434,"ĠxCwFvDj":9435,"ĠxCwFwDjvGj":9436,"ĠxCwFwCjvGjvCj":9437,"ĠzDwE":9438,"ĠzDwF":9439,"ĠzDwD":9440,"ĠzDvG":9441,"ĠzDyCj":9442,"ĠzDxDwG":9443,"ĠzDyB":9444,"ĠzDzC":9445,"ĠzDxBxG":9446,"ĠxDjvGjvF":9447,"ĠxDjvGjvDj":9448,"ĠzDjwFj":9449,"ĠzDjwF":9450,"ĠzDjwDj":9451,"ĠzDjxF":9452,"ĠzDjvGj":9453,"ĠzDjxDjwGj":9454,"ĠzDjzC":9455,"ĠzDjzCj":9456,"ĠzDjyCxGj":9457,"ĠxDvGvE":9458,"ĠxDvGvD":9459,"ĠwBwEwD":9460,"ĠwBwEvAj":9461,"ĠwBwEvD":9462,"ĠwBwEvCj":9463,"ĠwBwEwDvG":9464,"ĠwBwEvBvG":9465,"ĠwBwEvBvFj":9466,"ĠwBwEwCvGvC":9467,"ĠxCjwGjwCjwCjvEuA":9468,"ĠxCwGwCwCvDjuGj":9469,"ĠvCjuAj":9470,"ĠyCxCwG":9471,"ĠyCxCwD":9472,"ĠyCxCwCj":9473,"ĠyCxCwGwC":9474,"ĠyCxCwFjwCj":9475,"ĠyCxCwFwC":9476,"ĠyCxCwGjwDj":9477,"ĠyCxCwGjvAj":9478,"ĠyCxCwGjwDjwCj":9479,"ĠwAjwFjuGj":9480,"ĠwAjwFjwCvGj":9481,"ĠwAjwFjwDvGj":9482,"ĠwAjwFjvAjvFjvCj":9483,"ĠwAjwFjwFvFj":9484,"ĠwAwFuG":9485,"ĠwAwFvBvG":9486,"ĠwAwFvAvFvC":9487,"ĠwAwFwEvF":9488,"ĠyCjxCjwGj":9489,"ĠyCjxCjwD":9490,"ĠyCjxCjwDj":9491,"ĠyCjxCjwGjwCj":9492,"ĠyCjxCjwFjwCj":9493,"ĠyCjxCjwAwE":9494,"ĠyCjxCjwGwD":9495,"ĠyCjxCjwAvB":9496,"ĠyCjxCjwAwEwD":9497,"yExA":9498,"ĠvCuA":9499,"wGjwEwCj":9500,"ĠyDxGvB":9501,"ĠyDxGvDj":9502,"ĠyDxGwDvG":9503,"ĠyDxGxDjwGj":9504,"ĠyDxGxDjwAjwDj":9505,"ĠyDxGwAjwF":9506,"ĠyDjxGjwC":9507,"ĠyDjxGjvE":9508,"ĠyDjxGjwDjvGj":9509,"ĠyDjxGjxEwA":9510,"ĠyDjxGjwBwFj":9511,"ĠxDwAwDvB":9512,"ĠxDwAwDwDvFuAj":9513,"ĠyCwFwD":9514,"ĠyCwFvF":9515,"ĠyCjwFjwDj":9516,"ĠyCjwFjvFj":9517,"ĠxDjwAjwDjwC":9518,"ĠxDjwAjwDjwDjvFjuB":9519,"xDjwBwGj":9520,"xDwAjwG":9521,"wGwDjwC":9522,"ĠwAjwFvAjvAjvCjuFj":9523,"ĠwBwFjvBvBvDuG":9524,"ĠxFjwAvAj":9525,"ĠxFjwAvGj":9526,"ĠxFjwAvG":9527,"ĠxFjwAwGvA":9528,"ĠxFjwAwAvG":9529,"ĠxFjwAwEvFj":9530,"ĠxFjwAwAvD":9531,"wFjwDvB":9532,"ĠwAwEvAvAvCuF":9533,"ĠxFwGjvA":9534,"ĠxFwGjvG":9535,"ĠxFwGjvFj":9536,"ĠxFwGjwFjvGj":9537,"ĠxFwGjwDjvF":9538,"ĠxFwGjwGjvFj":9539,"ĠxFwGjwGjvCj":9540,"ĠxAwFvF":9541,"ĠxAjwFjvFj":9542,"ĠxGwEwCvG":9543,"ĠxEwGvGj":9544,"ĠxEwGvFj":9545,"ĠxEwGvF":9546,"ĠxEwGwFvG":9547,"ĠxEwGwDvE":9548,"ĠxEwGwGvF":9549,"ĠxEwGwGvC":9550,"ĠxGwAjvA":9551,"ĠxGwAjvGj":9552,"ĠxGwAjwGjvAj":9553,"ĠxGwAjwFvG":9554,"ĠxGwAjwAjvGj":9555,"ĠxGwAjwAjvDj":9556,"ĠxGjwFwCjvGj":9557,"ĠxEwBwEwCj":9558,"ĠxEwBwEvE":9559,"ĠxEwBwEwEvGvC":9560,"ĠyCxAwB":9561,"ĠyCxAwFj":9562,"ĠyCxAxFj":9563,"ĠyCxAxG":9564,"ĠyCxAwGwD":9565,"ĠyCxAwAjwF":9566,"ĠyExBwFj":9567,"ĠyExBxEwE":9568,"ĠyExBxFjwFj":9569,"ĠyExBxFjxCj":9570,"ĠyExBxAxD":9571,"ĠyExBwGjwEvB":9572,"ĠyExBxCwE":9573,"ĠyExBxAwB":9574,"ĠyExBxFxCjwFj":9575,"ĠyExBxAwE":9576,"ĠxGjwBvAj":9577,"ĠxGjwBvA":9578,"ĠxGjwBwFjvGj":9579,"ĠxGjwBwAvB":9580,"ĠxGjwBwBvA":9581,"ĠxGjwBwBvE":9582,"ĠxGjxCwFj":9583,"ĠxGjxCxC":9584,"ĠxGjxCvAj":9585,"ĠxGjxCwFjvB":9586,"ĠxGjxCwCvF":9587,"ĠxAxCjwG":9588,"ĠxAxCjxCj":9589,"ĠxAxCjvB":9590,"ĠxAxCjwGwC":9591,"ĠxAxCjwCjvFj":9592,"ĠyCjxAjwG":9593,"ĠyCjxAjxC":9594,"ĠyCjxAjxG":9595,"ĠyCjxAjxGj":9596,"ĠyCjxAjwGjwDj":9597,"ĠyCjxAjwBwFj":9598,"ĠwAjwDjvA":9599,"ĠwAjwDjvC":9600,"ĠwAjwDjvAjvF":9601,"ĠwAjwDjwCjvFj":9602,"ĠwAjwDjvAjvFj":9603,"ĠwAjwDjvBvFjuB":9604,"ĠyCjxGjxEwAj":9605,"ĠxGwBwB":9606,"ĠxGwBwF":9607,"ĠxGwBvA":9608,"ĠxGwBwFvAj":9609,"ĠxGwBvBvE":9610,"ĠwAwDvGj":9611,"ĠwAwDuB":9612,"ĠwAwDvAvE":9613,"ĠwAwDwCvF":9614,"ĠwAwDvAvF":9615,"ĠwAwDvAjvFuAj":9616,"wEwCvA":9617,"wFwCjvAj":9618,"ĠxAxExCwFj":9619,"ĠxAjxFxCjwG":9620,"ĠxGjxDjwBwF":9621,"ĠxGjxDjwBwCj":9622,"ĠxGjxDjwBwFjvGj":9623,"ĠxGjxDjwBwAjwCjvGj":9624,"ĠxGxDwAjwE":9625,"ĠxGxDwAjwC":9626,"ĠxGxDwAjwFvG":9627,"ĠxGxDwAjwAwCvG":9628,"ĠxBxFjxDwGj":9629,"ĠyCxGxDjwA":9630,"ĠxFxCwGjwD":9631,"ĠxFxCwGjvAj":9632,"ĠxFxCwGjwGvAjvF":9633,"ĠxFjxCjwAwDj":9634,"ĠxFjxCjwAvB":9635,"ĠxFjxCjwAwGjvBvFj":9636,"ĠxEwBwGvA":9637,"ĠxEwBwGwFjvAvE":9638,"yFyDxG":9639,"ĠxAwEvB":9640,"yFjyDjxGj":9641,"ĠxAjwFwDvGj":9642,"ĠxAxCvB":9643,"ĠxAxCvAj":9644,"ĠxAxCwEvA":9645,"ĠxAxCwCvF":9646,"ĠxAxCvFvC":9647,"ĠxAxCwGvA":9648,"ĠxAxCwAjwC":9649,"ĠxAxCxCvAj":9650,"ĠxAxCwBwEvA":9651,"ĠxAxCxCvF":9652,"ĠxAjxCjwC":9653,"ĠxAjxCjvB":9654,"ĠxAjxCjwFvAj":9655,"ĠxAjxCjwCjvFj":9656,"ĠxAjxCjvFjvCj":9657,"ĠxAjxCjwGjvAj":9658,"ĠxAjxCjwBwCj":9659,"ĠxAjxCjxCjvB":9660,"ĠxAjxCjxCwFvAj":9661,"ĠxAjxCjxCjvFj":9662,"ĠwGjwCjvG":9663,"ĠwGjwCjvAjvFj":9664,"ĠwGjwCjvAvEuA":9665,"ĠwGjwCjvGjvDj":9666,"ĠwGwCvFj":9667,"ĠwGwCvAvF":9668,"ĠwGwCvGvD":9669,"ĠwBwGjwF":9670,"ĠwBwGjvBvE":9671,"ĠwBwGjwDvBvE":9672,"ĠwBwGjwFvB":9673,"wAwFwD":9674,"wAjwFjwDj":9675,"ĠwGjvGjvE":9676,"ĠxDjvAjvG":9677,"ĠxDjvAjvDj":9678,"ĠxDvAvFj":9679,"ĠxDvAvD":9680,"ĠyDxDwE":9681,"ĠyDxDwA":9682,"ĠyDxDwDj":9683,"ĠyDxDwAwD":9684,"ĠyDxDwGwDj":9685,"ĠyDxDwGjwDj":9686,"ĠyDxDwBwGwD":9687,"ĠyDjxDjwE":9688,"ĠyDjxDjwAj":9689,"ĠyDjxDjwF":9690,"ĠyDjxDjwAjwDj":9691,"ĠyDjxDjwGjwE":9692,"ĠyDjxDjwAwE":9693,"ĠxFjxDwAwCj":9694,"ĠxFjxDwAvBvFj":9695,"ĠxFjxDwAwEvB":9696,"ĠxGxDjwAjwD":9697,"ĠxGxDjwAjwFwC":9698,"ĠxGxDjwAjwCvG":9699,"ĠxGjxEwBwDj":9700,"ĠxGjxEwBwFjwCj":9701,"ĠxGjxEwBwCjvGj":9702,"ĠxFxCjwGjwC":9703,"ĠxFxCjwGjvAjvF":9704,"ĠxFxCjwGjwDjvAj":9705,"ĠxExCwGvB":9706,"ĠxExCwGvAvE":9707,"ĠxExCwGwDvA":9708,"ĠxEwDvA":9709,"ĠxEwDvAuB":9710,"ĠxDjwFjvG":9711,"ĠxDjwFjvF":9712,"ĠxDjwFjwEvFj":9713,"ĠxDjwFjwFjvE":9714,"ĠxDwFvFj":9715,"ĠxDwFvE":9716,"ĠxDwFwDjvF":9717,"ĠxDwFwFvDj":9718,"ĠxFwDjvAj":9719,"ĠxFwDjvAjvC":9720,"ĠxFjwEvB":9721,"ĠxFjwEvBvCj":9722,"ĠyCjxEwD":9723,"ĠyCjxExD":9724,"ĠyCjxEwGjwCj":9725,"ĠyCjxEwEvA":9726,"ĠyCjxExCjwFj":9727,"ĠyCjxEvAvE":9728,"ĠyCjxEwAwFj":9729,"ĠyCjxEwBwCj":9730,"ĠyCjxExEvA":9731,"ĠyCjxExDjwGjwCj":9732,"ĠxCjvFjvCj":9733,"ĠxFxCwFwD":9734,"ĠxFxCwFvF":9735,"ĠxFxCwFwFvGjvCj":9736,"ĠxFjxCjwFjwDj":9737,"ĠxFjxCjwFjvFj":9738,"ĠxFjxCjwFjwFjvAvD":9739,"ĠxBwGwD":9740,"ĠxBwGwGwE":9741,"ĠxCvFvC":9742,"ĠyCwGjwDj":9743,"ĠyCwGjwGjwF":9744,"ĠxBxDxC":9745,"ĠxBxDwCj":9746,"ĠxBxDwC":9747,"ĠxBxDwFjvB":9748,"ĠxBxDwBwE":9749,"ĠxBxDwDvG":9750,"ĠxBxDvGvD":9751,"ĠxBxDwAvB":9752,"ĠxBxDxDvG":9753,"ĠxBxDxCjwFjvB":9754,"ĠwAjwGvAjvDj":9755,"ĠwGjwEvGj":9756,"ĠwGjwEvBvFj":9757,"ĠwGjwEwCjvGjvCj":9758,"ĠwGjwEvGjvEuB":9759,"ĠwFwCjvAjvFuAj":9760,"ĠwFwCjvGjvDj":9761,"ĠwFwCjvFjvCjuFj":9762,"ĠwEwCvAvEuA":9763,"ĠwEwCvGvD":9764,"ĠwEwCvFvCuF":9765,"ĠwGwDjvAjvF":9766,"ĠwGwDjwCvGvC":9767,"ĠyCjwAwE":9768,"ĠyCjwAwAwFj":9769,"ĠwFjwDvAvE":9770,"ĠwFjwDvBvFjuB":9771,"ĠyCxDjwD":9772,"ĠyCxDjxCj":9773,"ĠyCxDjwCj":9774,"ĠyCxDjwGwC":9775,"ĠyCxDjxCwF":9776,"ĠyCxDjwDjvGj":9777,"ĠyCxDjvGjvDj":9778,"ĠyCxDjwAjwC":9779,"ĠyCxDjxDjvGj":9780,"ĠyCxDjxDwGwC":9781,"ĠyExAwCj":9782,"ĠyExAvF":9783,"ĠyExAwEvA":9784,"ĠxDjwCjvGj":9785,"ĠxDjwCjvGjuAj":9786,"ĠxDwCvG":9787,"ĠxDwCvGuA":9788,"ĠyFjxBwDj":9789,"ĠyFjxBvG":9790,"ĠyFjxBwFjvB":9791,"ĠyFjxBxDvG":9792,"ĠyDwAjwF":9793,"ĠyDwAjwAjwG":9794,"ĠyDjwBwFj":9795,"ĠyDjwBwBwGj":9796,"ĠyFxAjwD":9797,"ĠyFxAjvFj":9798,"ĠyFxAjwFvAj":9799,"ĠyDwGvG":9800,"ĠyDxAxFwE":9801,"ĠyDxAxFxDwD":9802,"ĠyDjxAjxFjwF":9803,"ĠyDjxAjxFjxDjwDj":9804,"ĠxAxFxCwE":9805,"ĠxAxFxCwFwC":9806,"ĠxAxFxCwDvA":9807,"ĠxAxFxCwGwD":9808,"ĠxAjxFjxCjwF":9809,"ĠxAjxFjxCjwFjwCj":9810,"ĠxAjxFjxCjwGjwDj":9811,"ĠxAjxFjxCjwDjvAj":9812,"ĠyDjwGjvGj":9813,"ĠxCjwEvAj":9814,"ĠxCjwEvF":9815,"ĠxCjwEvDj":9816,"ĠxCjwEwDvE":9817,"ĠxCjwEwEvD":9818,"ĠxCwDjvA":9819,"ĠxCwDjvE":9820,"ĠxCwDjwCjvDj":9821,"ĠxCwDjwDjvCj":9822,"ĠwBwDvGj":9823,"ĠwBwDvDj":9824,"ĠwBwDwCvD":9825,"ĠwBwDwDvC":9826,"ĠyFyCxFwF":9827,"ĠyFyCxCjwF":9828,"ĠyFyCxFjxDwG":9829,"ĠyFyCxGxE":9830,"ĠyFjyCjxFjwFj":9831,"ĠyFjyCjxBxE":9832,"ĠyFjyCjxDwFj":9833,"ĠyFjyCjxGxDjwGj":9834,"ĠyFjyCjxGjxF":9835,"ĠyFjyCjxBxCj":9836,"ĠwAwFjvAvD":9837,"ĠyDxFwB":9838,"ĠyDxFwDj":9839,"ĠyDxFxDj":9840,"ĠyDxFwAwD":9841,"ĠyDxFwFvAj":9842,"ĠyDxFxDwG":9843,"ĠyDxFvAjvF":9844,"ĠyDxFwAjwG":9845,"ĠyDxFxFvAj":9846,"ĠyDxFxEwAwD":9847,"ĠyDjxFjwE":9848,"ĠyDjxFjxC":9849,"ĠyDjxFjxE":9850,"ĠyDjxFjwAjwDj":9851,"ĠyDjxFjwFjvB":9852,"ĠyDjxFjxDjwGj":9853,"ĠyDjxFjvBvFj":9854,"ĠyDjxFjwBwGj":9855,"ĠyDjxFjxFjvB":9856,"ĠyDjxFjxFwAjwDj":9857,"ĠxCvAjvF":9858,"ĠxCvAjvFuG":9859,"ĠxCjvBvFj":9860,"ĠxCjvBvFjuGj":9861,"ĠxGjxDjwGjwDjwC":9862,"ĠxGjxDjwGjwGjvBvE":9863,"ĠxGxDwGwDvB":9864,"ĠxGxDwGwGvAjvDj":9865,"ĠyDxBwGj":9866,"ĠyDxBwA":9867,"ĠyDxBxCj":9868,"ĠyDxBxD":9869,"ĠyDxBxA":9870,"ĠwBvAvE":9871,"ĠxGjxDjxCwG":9872,"ĠxGjxDjxCvB":9873,"ĠxGjxDjxCvFj":9874,"ĠxGjxDjxCvF":9875,"ĠxGjxDjxCwGjvGj":9876,"ĠxGjxDjxCwFjwDj":9877,"ĠxGjxDjxCwFjvFj":9878,"wBwGwE":9879,"ĠyCwGwD":9880,"ĠyCjwGjwF":9881,"ĠyCjwGjwDj":9882,"ĠyCjwGjwFvB":9883,"ĠxAxExCjwGj":9884,"ĠxAxExCjwC":9885,"ĠxAxExCjvG":9886,"ĠxAxExCjvFj":9887,"ĠxAxExCjwAvA":9888,"ĠxAxExCjwGvG":9889,"ĠxAxExCjwGwE":9890,"ĠxFwGwD":9891,"ĠxFwGvE":9892,"ĠxFwGwFvAj":9893,"ĠxFwGvAjvF":9894,"ĠxAjxDwGj":9895,"ĠxAjxDwA":9896,"ĠxAjxDwC":9897,"ĠxAjxDxD":9898,"ĠxAjxDwGjwCj":9899,"ĠxAjxDwDvG":9900,"ĠxCjvGjvF":9901,"ĠxCjvGjvDj":9902,"ĠxCjvGjvCj":9903,"ĠxCvGvE":9904,"ĠxCvGvD":9905,"ĠxCvGvC":9906,"ĠxFjwGjwDj":9907,"ĠxFjwGjvF":9908,"ĠxFjwGjwFjvB":9909,"ĠxFjwGjvBvFj":9910,"ĠyCjxAxEwGj":9911,"ĠyCjxAxEwFjwCj":9912,"ĠyCjxAxEwAwE":9913,"ĠyCjxAxExCjwCj":9914,"ĠxBxDjwA":9915,"ĠxBxDjwAj":9916,"ĠxBxDjwCj":9917,"ĠxBxDjxDj":9918,"ĠxBxDjwAwD":9919,"ĠxBxDjwDjvGj":9920,"ĠxFjwAjvB":9921,"ĠxFjwAjwEvA":9922,"ĠxFjwAjwFjwCjvFj":9923,"ĠzEwE":9924,"ĠzEwFj":9925,"ĠzEvA":9926,"ĠzExG":9927,"ĠzEyG":9928,"ĠzExEwA":9929,"ĠzEzCj":9930,"ĠzEyCjxA":9931,"yGyExA":9932,"ĠyDjyCwA":9933,"ĠyDjyCwAj":9934,"ĠyDjyCxD":9935,"ĠyDjyCxDj":9936,"ĠyDjyCxAj":9937,"ĠyExEwB":9938,"ĠyExEwFj":9939,"ĠyExEwC":9940,"ĠyExEvA":9941,"ĠyExEwBwE":9942,"ĠyExExCwF":9943,"ĠyExEwAwE":9944,"ĠyExEwAjwF":9945,"ĠyDxAjxFwA":9946,"ĠyDxAjxFxDwD":9947,"ĠyDxAjxFwGwD":9948,"ĠyDjxBxFjwAj":9949,"ĠyDjxBxFjxDjwDj":9950,"ĠyDjxBxFjwGjwDj":9951,"ĠxFwAvAj":9952,"ĠxFwAwDjvGj":9953,"ĠxFwAwFwCvF":9954,"ĠxEwFjwEvA":9955,"ĠxEwFjvAvE":9956,"ĠxAjxCwG":9957,"ĠxAjxCwD":9958,"ĠxAjxCwCj":9959,"ĠxAjxCvA":9960,"ĠxAjxCvGj":9961,"ĠxAjxCvF":9962,"ĠxAjxCwAjwDj":9963,"ĠxAjxCwDjvAj":9964,"ĠxAjxCvFvC":9965,"ĠxAjxCwGjwF":9966,"ĠxAwGvF":9967,"ĠxAwGwDvE":9968,"ĠxAjwGjvFj":9969,"ĠxAjwGjwDjvF":9970,"ĠxDjwFwDjvGj":9971,"ĠxDjwFvGjvDj":9972,"ĠxDwEwDvG":9973,"ĠxDwEvGvD":9974,"ĠyEyCjwB":9975,"ĠyEyCjwAj":9976,"ĠyEyCjxDj":9977,"ĠyEyCjxE":9978,"ĠyEyCjxB":9979,"ĠxFjxDjwBvCj":9980,"ĠxEwGjvA":9981,"ĠxEwGjwDvG":9982,"ĠwFjvBvF":9983,"ĠxFxDwAjvC":9984,"ĠxGxDjxCwAj":9985,"ĠxGxDjxCwDj":9986,"ĠxGxDjxCvA":9987,"ĠxGxDjxCvG":9988,"ĠxGxDjxCwGvG":9989,"ĠxGjxExCjwB":9990,"ĠxGjxExCjwE":9991,"ĠxGjxExCjvAj":9992,"ĠxGjxExCjvGj":9993,"ĠxGjxExCjwGjvGj":9994,"ĠwAjwCjvGj":9995,"ĠwAjwCjvG":9996,"ĠwAjwCjvD":9997,"ĠwAwCvG":9998,"ĠwAwCvFj":9999,"ĠwAwCvCj":10000,"ĠwFvAjvE":10001,"ĠwFvAjvFjvCjuFj":10002,"ĠyFxAwG":10003,"ĠyFxAxDj":10004,"ĠyFxAxA":10005,"ĠyFxAwAwD":10006,"ĠyFjxAjwGj":10007,"ĠyFjxAjxE":10008,"ĠyFjxAjxAj":10009,"ĠyFjxAjwAjwDj":10010,"ĠxBxCjwGj":10011,"ĠxBxCjwD":10012,"ĠxBxCjwDj":10013,"ĠxBxCjvB":10014,"ĠxBxCjvAj":10015,"ĠxBxCjvA":10016,"ĠxBxCjvFj":10017,"ĠxBxCjwBwE":10018,"ĠxBxCjwEvB":10019,"ĠxBxCjvFjvCj":10020,"ĠxBxCjwAwFj":10021,"ĠxGjwAjwF":10022,"ĠxGjwAjwC":10023,"ĠxGjwAjvG":10024,"ĠxGjwAjvFj":10025,"ĠxGjwAjvDj":10026,"ĠxGjwAjwGjwCj":10027,"ĠxGjwAjwCjvGj":10028,"ĠxGjwAjwGjwFj":10029,"ĠxGjwAjvDjuAj":10030,"ĠwEvAvFvCuF":10031,"ĠxDjwGvGj":10032,"ĠxBxGxDwFj":10033,"ĠxBxGxDwEvB":10034,"ĠxBxGxDwBvB":10035,"ĠxBxGxDwAwEvB":10036,"ĠxGwAwE":10037,"ĠxGwAvB":10038,"ĠxGwAvFj":10039,"ĠxGwAvF":10040,"ĠxGwAvD":10041,"ĠxGwAwGwC":10042,"ĠxGwAwCvG":10043,"ĠxGwAwGwF":10044,"ĠxGwAvDuA":10045,"ĠwFjvFjvCj":10046,"ĠwFvFvC":10047,"ĠxGvAjvE":10048,"yGjyFxAj":10049,"ĠxFjvAvDj":10050,"ĠxGjvBvF":10051,"ĠxFvGjvD":10052,"ĠxFjxDwBwA":10053,"ĠxFjxDwBwD":10054,"ĠxFjxDwBvGj":10055,"ĠxFjxDwBvFj":10056,"ĠyCxGjxDjwG":10057,"ĠyCxGjxDjwFwC":10058,"ĠyCxGjxDjxCwC":10059,"ĠxDwFjvG":10060,"ĠxDjxCwGjuAj":10061,"ĠwEvBvDj":10062,"ĠwEvBvBvFj":10063,"ĠxDwBwGuA":10064,"ĠxCwEvF":10065,"ĠxCwEvC":10066,"ĠxCwEuG":10067,"ĠyFxFwG":10068,"ĠyFxFwA":10069,"ĠyFxFxC":10070,"ĠyFxFwCj":10071,"ĠyFxFvAj":10072,"ĠyFxFxCjwFj":10073,"ĠyFxFwBwFj":10074,"ĠyFxFwAjwF":10075,"ĠyFxFxDwAjwF":10076,"ĠyFjxFjwGj":10077,"ĠyFjxFjwAj":10078,"ĠyFjxFjwD":10079,"ĠyFjxFjxCj":10080,"ĠyFjxFjvB":10081,"ĠyFjxFjxDwG":10082,"ĠyFjxFjwBwFj":10083,"ĠyFjxFjxDjwBwFj":10084,"ĠyFjxFjxCwG":10085,"ĠxCjwFvFj":10086,"ĠxCjwFvCj":10087,"ĠxCjwFuGj":10088,"ĠxAwBwFj":10089,"ĠxAwBwCj":10090,"ĠxAwBvGj":10091,"ĠxAwBvG":10092,"ĠxAwBwAwD":10093,"ĠxAwBwDvA":10094,"ĠwBvEuB":10095,"ĠxFjxCjwAjwF":10096,"ĠxFjxCjwAjvA":10097,"ĠxFjxCjwAjvE":10098,"ĠxFjxCjwAjvDj":10099,"ĠxFjxCjwAjwEwCj":10100,"ĠxFjxCjwAjwEwCjvFj":10101,"ĠxFxCjwAjwGj":10102,"ĠxFxCjwAjwCj":10103,"ĠxFxCjwAjvG":10104,"ĠxFxCjwAjvF":10105,"ĠxCwDwCvF":10106,"ĠxCjwDjwCjvFj":10107,"ĠxAwCvA":10108,"ĠxAwCvFj":10109,"ĠxAjwCjvAj":10110,"ĠxAjwCjvG":10111,"ĠyCwAwFwCwCvG":10112,"ĠyCjwAjwFjwCjwCjvGj":10113,"ĠxBxGjxEwA":10114,"ĠxBxGjxEvE":10115,"ĠxBxGjxEwAwE":10116,"ĠxDjxCjwA":10117,"ĠxDjxCjwF":10118,"ĠxDjxCjvG":10119,"ĠxDjxCjwDjvAjvDj":10120,"ĠxDjxCjwGvA":10121,"ĠxDjxCjwAwEvA":10122,"ĠxDjxCjwGwDjvAj":10123,"ĠxDjxCjwAjvG":10124,"ĠxDjxCjwGjvDj":10125,"ĠxDjxCjwGjwDjwCj":10126,"ĠxDjxCjwFjwCjvGj":10127,"ĠxDxCwGj":10128,"ĠxDxCwE":10129,"ĠxDxCvFj":10130,"ĠxDxCwGjwDjvGj":10131,"ĠxDxCwDvAvD":10132,"ĠxDxCwFjvGj":10133,"ĠxDxCwFjwDvA":10134,"ĠxDxCwAvFj":10135,"ĠxDxCwGvD":10136,"ĠxDxCwGwDwC":10137,"ĠxDxCwFwCvG":10138,"ĠxCjwAwEvBvFj":10139,"ĠxFjxEwGj":10140,"ĠxFjxEwG":10141,"ĠxFjxEvAj":10142,"ĠxFjxEwFjwCjvFj":10143,"ĠxFjxEwAvA":10144,"ĠxFjxEwBwFj":10145,"ĠxFjxEwAjwC":10146,"ĠxFjxEwAwEwD":10147,"ĠxFjxEwBwFjwE":10148,"ĠxFjxEwAwEvB":10149,"ĠxFxCwAwE":10150,"ĠxFxCwAvGj":10151,"ĠxFxCwAvDj":10152,"ĠxFxCwAvD":10153,"ĠxFxCwAwDjwC":10154,"ĠxFxCwAwDjwCvF":10155,"ĠxCwGjwDjvAjvF":10156,"ĠxGjxFxCjvDj":10157,"ĠxGjxFxCjvCj":10158,"ĠxGjxFxCjwFjwCj":10159,"ĠxGxExCvD":10160,"ĠxGxExCvC":10161,"ĠxGxExCwFwC":10162,"ĠwDjvAjvD":10163,"ĠwDjvAjvAjvF":10164,"ĠwDvAvCj":10165,"ĠwDvAvAvE":10166,"ĠxAjxDwAjwC":10167,"ĠxBxDjwBwCj":10168,"ĠyCxEwAj":10169,"ĠyCxEwD":10170,"ĠyCxExE":10171,"ĠyCxEvG":10172,"ĠyCxEwAjwDj":10173,"ĠyCxEwEvA":10174,"ĠwBwGwDvAvE":10175,"ĠwAjvGjvDj":10176,"ĠwAvGvD":10177,"ĠxGjxCwGjvAj":10178,"ĠxGxDwBwFj":10179,"ĠxGxDwBvAj":10180,"ĠxGxDwBvF":10181,"ĠxGxDwBvE":10182,"ĠxGxDwBwFwD":10183,"ĠxGxDwBwFvF":10184,"ĠxGwBwGvA":10185,"ĠxGjxFjwA":10186,"ĠxGjxFjwAj":10187,"ĠxGjxFjwC":10188,"ĠxGjxFjwGjwDjvGj":10189,"ĠxGjxFjxCwGj":10190,"ĠxGjxFjwBvB":10191,"ĠxGjxFjxDjwC":10192,"ĠxGjxFjwBwFjwE":10193,"ĠxGjxFjxDjwGjwDjvGj":10194,"ĠxBwDvB":10195,"ĠxBwDvGj":10196,"ĠxCwAjwD":10197,"ĠxCwAjvE":10198,"ĠxCwAjwAwD":10199,"ĠxCwAjwFjwCjvFj":10200,"ĠxCwAjwEvFj":10201,"ĠxCwAjwEwCvG":10202,"ĠxCwAjwGvE":10203,"ĠxAjxFxDwA":10204,"ĠxAjxFxDwCj":10205,"ĠxAjxFxDvGj":10206,"ĠxAjxFxDvG":10207,"ĠxAjxFxDwGjvGj":10208,"ĠxAjxFxDwGjwF":10209,"ĠxBxFjxDjwAj":10210,"ĠxBxFjxDjwD":10211,"ĠxBxFjxDjvA":10212,"ĠxBxFjxDjvGj":10213,"ĠxBxFjxDjwAvA":10214,"ĠxBxFjxDjwAwFj":10215,"ĠxFjxCwC":10216,"ĠxFjxCvDj":10217,"ĠxFjxCvCj":10218,"ĠxFjxCwGjwDj":10219,"ĠxFjxCwGjwDjvGj":10220,"ĠxFjxCvGjvDj":10221,"ĠxFjxCwGvA":10222,"ĠyDxFjwE":10223,"ĠyDxFjxC":10224,"ĠyDxFjxFj":10225,"ĠyDxFjwFjvB":10226,"ĠyDxFjxCwF":10227,"ĠxBxGxEwG":10228,"ĠxBxGxEvG":10229,"ĠyCjxAxFjwA":10230,"ĠyCjxAxFjvA":10231,"ĠyCwDjwC":10232,"ĠyCwDjvA":10233,"ĠyCjwEwCj":10234,"ĠyCjwEvAj":10235,"ĠxGxCjwCj":10236,"ĠxGxCjvAj":10237,"ĠxGxCjvE":10238,"ĠxGxCjvD":10239,"ĠxGxCjwAwE":10240,"ĠxGxCjvAvE":10241,"ĠxGxCjwGjvAj":10242,"ĠxGxCjwAwEvA":10243,"wAwEvBvE":10244,"wAwEwEvB":10245,"ĠyDxAjxGwAj":10246,"ĠyDxAjxGvAj":10247,"ĠyDjxBxGjwB":10248,"ĠyDjxBxGjvB":10249,"ĠxCjwBwDj":10250,"ĠxCjwBvF":10251,"ĠxCjwBwAjwDj":10252,"ĠxCjwBwFvG":10253,"ĠxCjwBwFwCjvGj":10254,"ĠxCjwBwGjvF":10255,"ĠxExDwFj":10256,"ĠxExDwF":10257,"ĠxExDvGj":10258,"ĠxExDwAwE":10259,"ĠxExDwEvBvE":10260,"ĠxExDwGjvAj":10261,"ĠxExDwBvGj":10262,"ĠxExDwAwEwD":10263,"ĠxExDwBwEvBvE":10264,"ĠxFxDjwG":10265,"ĠxFxDjwFj":10266,"ĠxFxDjvA":10267,"ĠxFxDjwFwCvF":10268,"ĠxFxDjwAjwF":10269,"ĠxFxDjwAvB":10270,"ĠxFxDjwAjwFwDj":10271,"ĠxGxCwGvDj":10272,"ĠxGxCwGvC":10273,"ĠxGxCwGwEvA":10274,"ĠxGxCwGwDvA":10275,"ĠxGjxCjwGjvE":10276,"ĠxGjxCjwGjvCj":10277,"ĠxGjxCjwGjwFvAj":10278,"ĠxGjxCjwGjwDjvAj":10279,"ĠyCjxFwB":10280,"ĠyCjxFwDj":10281,"ĠyCjxFxF":10282,"ĠyCjxFvGj":10283,"ĠyCjxFwFvAj":10284,"ĠyCjxFwBwE":10285,"ĠzFwG":10286,"ĠzFwF":10287,"ĠzFvAj":10288,"ĠzFxGj":10289,"ĠzFyGj":10290,"ĠzFxFwAj":10291,"ĠzFyDxAj":10292,"ĠzFzD":10293,"ĠxDwAwFwEvGvD":10294,"ĠxDjwAjwFjwFvGjvDj":10295,"ĠwEvEuB":10296,"ĠyDjxGwF":10297,"ĠyDjxGxCj":10298,"ĠyDjxGxG":10299,"ĠyDjxGwGwC":10300,"ĠyDjxGxCjwFj":10301,"ĠzFjwGj":10302,"ĠzFjwFj":10303,"ĠzFjvB":10304,"ĠzFjxA":10305,"ĠzFjyDjxB":10306,"ĠzFjxFjwB":10307,"ĠzFjyA":10308,"ĠzFjzDj":10309,"ĠxAjxDjwAjvFj":10310,"ĠxAjxDjwAjvDj":10311,"ĠxAjxDjwAjwGwC":10312,"ĠxAjxDjwAjwFwC":10313,"ĠxExCwAwG":10314,"ĠxExCwAwC":10315,"ĠxExCwAvFj":10316,"ĠxExCwAvE":10317,"ĠxBxEwBvG":10318,"ĠxBxEwBwGjwCj":10319,"ĠxBxEwBwFjwCj":10320,"ĠxAxFxDwF":10321,"ĠxAxFxDxC":10322,"ĠxAxFxDvB":10323,"ĠxAjxFjxDjwFj":10324,"ĠxAjxFjxDjxCj":10325,"ĠxAjxFjxDjwC":10326,"ĠyFwAjwF":10327,"ĠyFwAjvAj":10328,"ĠyExGjwFj":10329,"ĠyExGjxD":10330,"ĠyExGjxGj":10331,"ĠyExGjwGjwCj":10332,"ĠyFjwBwFj":10333,"ĠyFjwBvB":10334,"ĠxBwAwG":10335,"ĠxBwAvG":10336,"ĠyCxExCwD":10337,"ĠyCxExCwGvA":10338,"ĠyCjxFxCjwDj":10339,"ĠyCjxFxCjwGjvAj":10340,"ĠxExCjwAuB":10341,"ĠyDxFjxDwE":10342,"ĠyDxFjxDwAvB":10343,"ĠyDjxGxDjwF":10344,"ĠxEwAwEvC":10345,"ĠxEwAwEuA":10346,"ĠxEwAwEvBvFj":10347,"ĠxEwAwEwCjvFj":10348,"ĠxEwAwEwDvFj":10349,"ĠxGxFwGj":10350,"ĠxGxFwA":10351,"ĠxGxFvB":10352,"ĠxGxFwBwG":10353,"ĠxGxFwGwDvG":10354,"ĠxGxFxDvB":10355,"ĠxGxFxDwGwDvG":10356,"ĠxAxDwAvF":10357,"ĠxAxDwAvD":10358,"ĠxAxDwAwFjvB":10359,"ĠxDjwGjwDjuGj":10360,"ĠxDjwGjwDjvAjvF":10361,"ĠxDjwGjwDjwCvF":10362,"ĠxDwGwDvBvE":10363,"ĠxDwGwDuG":10364,"ĠxDwGwDvAvE":10365,"ĠyCwAjwGj":10366,"ĠyCwAjvGj":10367,"ĠyCjwBwA":10368,"ĠyCjwBvA":10369,"ĠwFjwDjvC":10370,"ĠwFwDuB":10371,"ĠwDjvGjuAj":10372,"ĠwDvGuA":10373,"ĠyExGjxEwFj":10374,"ĠxAjxEwE":10375,"ĠxAjxEwCj":10376,"ĠxAjxEvG":10377,"ĠxAjxEvF":10378,"ĠxAjxEwCvG":10379,"ĠxAjxEwBwCj":10380,"ĠyDwAwFj":10381,"ĠyDwAwFjwC":10382,"ĠyDjwAjwG":10383,"ĠyDjwAjwGwCj":10384,"ĠxFwAjwFvCj":10385,"ĠxFwAjwFuAj":10386,"ĠxFwAjwFwDvG":10387,"ĠxFwAjwFwDjvG":10388,"ĠxFjwBwFjvD":10389,"ĠxFjwBwFjuB":10390,"ĠxFjwBwFjwDjvGj":10391,"ĠxFjwBwFjwEvGj":10392,"ĠxAxDjwC":10393,"ĠxAxDjvFj":10394,"ĠxAxDjvE":10395,"ĠxAxDjvBvFj":10396,"ĠxAxDjwAjwC":10397,"ĠxAjxFwAjwFwD":10398,"ĠxBxFjwBwFjwDj":10399,"ĠxFwBvB":10400,"ĠxFwBvD":10401,"ĠxFwBvC":10402,"ĠxFwBvGvD":10403,"ĠxFwBwFjvGj":10404,"ĠxFwBwAwEvBvE":10405,"ĠwCjvGjvE":10406,"ĠwCjvGjvC":10407,"ĠwCjvGjuAj":10408,"ĠyGyCwE":10409,"ĠyGyCvGj":10410,"ĠyGyCwGwC":10411,"ĠyGyCxAxF":10412,"ĠyGyCxDjvGj":10413,"ĠyGjyCjwF":10414,"ĠyGjyCjvA":10415,"ĠyGjyCjwGjwCj":10416,"ĠyGjyCjxEvA":10417,"ĠxEwBwGjwDj":10418,"ĠxEwBwGjvD":10419,"ĠxEwBwGjwDvBvE":10420,"ĠwCvGvDj":10421,"ĠwCvGuB":10422,"ĠwCvGuA":10423,"ĠyExCwGwC":10424,"ĠyExCxCwA":10425,"ĠyFxCjwGjwCj":10426,"ĠyFxCjxCjwAj":10427,"ĠyDjxCwGjwDj":10428,"ĠyDjxCwGjwF":10429,"ĠyDjxCwGjvF":10430,"ĠyExCjwAwFj":10431,"ĠyExCjwAvFj":10432,"ĠyExCjwAwEwEvB":10433,"ĠyGxGwDj":10434,"ĠyGxGwC":10435,"ĠyGxGwBwE":10436,"ĠyGxGxDjwGj":10437,"ĠyGxGxCjwGj":10438,"ĠyGjxGjwE":10439,"ĠyGjxGjwCj":10440,"ĠyGjxGjxCwF":10441,"ĠyGjxGjxDwA":10442,"ĠxGjxDvB":10443,"ĠxGjxDvF":10444,"ĠxGjxDvDj":10445,"ĠxGjxDvAjvF":10446,"ĠxGjxDwAvB":10447,"ĠyFjxDwAwD":10448,"ĠyFjxDxDwB":10449,"ĠyGxDjwAjwDj":10450,"ĠyGxDjxDjxC":10451,"ĠyCxFxCvGj":10452,"ĠyCxFxCvF":10453,"ĠyCjxFjxCjwB":10454,"ĠyCjxFjxCjvA":10455,"ĠyCjxFjxCjvFj":10456,"ĠyCjxFjxCjwBwDj":10457,"ĠxAxGwB":10458,"ĠxAxGwAj":10459,"ĠxAxGxCj":10460,"ĠxAxGxCwC":10461,"ĠxAxGxCjwA":10462,"ĠxAxGwAwEvA":10463,"ĠxAxGxDvG":10464,"ĠxAxGxEwAwEvA":10465,"ĠxAxGxDwAwG":10466,"ĠxFxCjwGjwCjvGj":10467,"ĠxExCwGwCvG":10468,"ĠxAxFjxDvD":10469,"ĠxAjxGxDjvDj":10470,"ĠyGjxEwBwE":10471,"ĠyGjxExExCj":10472,"ĠyCxGjxFwGj":10473,"ĠyCxGjxFvGj":10474,"ĠxAjxGjwB":10475,"ĠxAjxGjxC":10476,"ĠxAjxGjxD":10477,"ĠxAjxGjxDwAj":10478,"ĠxAjxGjxCjwCj":10479,"ĠxAjxGjwAjwFvAj":10480,"ĠxAjxGjxDjvGj":10481,"ĠxAjxGjxFwAjwFvAj":10482,"ĠxAjxGjxDjwAjwGj":10483,"ĠxFjxDwAwDvA":10484,"ĠyCjxAjxFjvFj":10485,"ĠxDjvFjvDj":10486,"ĠwBwAwDj":10487,"ĠwBwAvDj":10488,"ĠwBwAwGjwCj":10489,"ĠwBwAwFwCvF":10490,"ĠwBwAwDjvB":10491,"ĠwBwAwDjvF":10492,"ĠwBwAwFjvDj":10493,"ĠwBwAwDjvBvFj":10494,"ĠyExGwB":10495,"ĠyExGxD":10496,"ĠyExGwGwC":10497,"ĠyExGwBwE":10498,"ĠyExGxEwA":10499,"ĠyExGxFjwBwE":10500,"ĠxGxDjwAjwDjvAj":10501,"ĠxDvFvD":10502,"ĠxGjxEwBwEvB":10503,"ĠxAxCjwAvB":10504,"ĠyCxDwE":10505,"ĠyCxDwA":10506,"ĠyCxDwDj":10507,"ĠyCxDwC":10508,"ĠyCxDvB":10509,"ĠyCxDvAj":10510,"ĠyCxDvG":10511,"ĠyCxDwFwC":10512,"ĠyCxDvGvD":10513,"ĠyCjxDjwE":10514,"ĠyCjxDjwAj":10515,"ĠyCjxDjwF":10516,"ĠyCjxDjwCj":10517,"ĠyCjxDjwC":10518,"ĠyCjxDjvB":10519,"ĠyCjxDjvGj":10520,"ĠyCjxDjwFjwCj":10521,"ĠyCjxDjvGjvDj":10522,"ĠxAjxDjxCwDj":10523,"ĠxAjxDjxCvG":10524,"ĠxAjxDjxCwFwCvF":10525,"ĠxAjxDjxCwGjwDjvGj":10526,"yAyD":10527,"ĠwBvFjvCj":10528,"ĠyFxGjxC":10529,"ĠyFxGjxDj":10530,"ĠyFxGjwGjwCj":10531,"ĠyFxGjxCwF":10532,"ĠyFxGjxFwAj":10533,"ĠyFxGjxGxCwF":10534,"ĠxBxExCjwE":10535,"ĠxBxExCjvGj":10536,"ĠxBxExCjwFjwCjvFj":10537,"ĠxBxExCjwAwEvA":10538,"ĠyDjxAjxGwAj":10539,"ĠyDjxAjxGwFj":10540,"ĠyDjxAjxGwCj":10541,"ĠyDjxAjxGwC":10542,"ĠyDjxAjxGxCjwCj":10543,"ĠyDjxAjxGxCjwAj":10544,"yAjyDj":10545,"ĠwBwDjvAj":10546,"ĠyCxGxEwG":10547,"ĠyCxGxEwDj":10548,"ĠyCxGxEvAj":10549,"ĠyCxGxEvA":10550,"ĠyCxGxEwAjwG":10551,"ĠyCxGxEwAjvAj":10552,"ĠyGyDwBwGwD":10553,"ĠyGyDxEwB":10554,"ĠyGyDxDjwG":10555,"ĠyGyDxAxFj":10556,"ĠyGyDyCxD":10557,"ĠwAjwDvA":10558,"yDjxAjwC":10559,"ĠyEyCvB":10560,"ĠyEyCxF":10561,"ĠyEyCwAwF":10562,"ĠyEyCxFjwGj":10563,"ĠyGyEwA":10564,"ĠyGyExFj":10565,"ĠwAjvFvC":10566,"ĠwAwGwCj":10567,"ĠwAwGvF":10568,"ĠwAwGvCj":10569,"ĠwAwGwFjvB":10570,"ĠwAwGwCjvA":10571,"ĠwAwGwCjvAvE":10572,"ĠwAwGwEvCj":10573,"ĠwAwGwCjvDj":10574,"ĠwAvEuB":10575,"ĠwGjvBvF":10576,"ĠwGjvBvC":10577,"ĠwGjvBuGj":10578,"ĠwGjvBvGjvD":10579,"ĠyGxCwG":10580,"ĠyGjxCjwGj":10581,"ĠyGjyFwAj":10582,"ĠyGjyFxG":10583,"ĠyFyCjwC":10584,"ĠyFyCjxFj":10585,"ĠyFyCjwAjwFj":10586,"ĠyFyCjxGwA":10587,"ĠyCjxGjxFwGj":10588,"ĠyCjxGjxFwE":10589,"ĠyCjxGjxFvB":10590,"ĠyCjxGjxFvAj":10591,"ĠyCjxGjxFwBwGj":10592,"ĠyCjxGjxFwBvB":10593,"ĠyDxAxFjwA":10594,"ĠyDxAxFjwF":10595,"ĠyDxAxFjwC":10596,"ĠyDxAxFjvB":10597,"ĠyDxAxFjxCwC":10598,"ĠyDxAxFjxCwA":10599,"ĠyFjxAxCj":10600,"ĠyFjxAxE":10601,"ĠyFjxAwAwD":10602,"ĠyFjxAxCjwFj":10603,"ĠyFjxAxFjwB":10604,"ĠyFjxAxFjwD":10605,"ĠyFjxAxGjxCjwFj":10606,"ĠxBxFwD":10607,"ĠxBxFxC":10608,"ĠxBxFvGj":10609,"ĠxBxFvFj":10610,"ĠxBxFwCjvGj":10611,"ĠyCjxGwG":10612,"ĠyCjxGwE":10613,"ĠyCjxGxD":10614,"ĠyCjxGvGj":10615,"ĠyCjxGxEwA":10616,"ĠyCjxGwDjvAj":10617,"ĠyCjxGxFxCwGwC":10618,"ĠyAyFjwB":10619,"ĠyAyFjxGj":10620,"ĠyAjyGxC":10621,"ĠyAjyGxA":10622,"ĠyAjyGyCjxAjxDj":10623,"yDxAvB":10624,"ĠyFjxAjxFjwGj":10625,"ĠyFjxAjxFjwAj":10626,"ĠyCxFjwFj":10627,"ĠyCxFjwDj":10628,"ĠyCxFjxCj":10629,"ĠyCxFjvG":10630,"ĠyCxFjwDvA":10631,"ĠyCxFjxEwBwFjvB":10632,"ĠyGxAjxD":10633,"ĠyGxAjxF":10634,"ĠyGxAjwAjwDj":10635,"ĠyGxAjxDwG":10636,"ĠyGxAjxGxC":10637,"ĠyGxAjxGwDj":10638,"ĠyGxAjxAxDwG":10639,"ĠyGjyDjxFxC":10640,"ĠyGjyDjxCwGjwDj":10641,"ĠyGjyDjxEwGj":10642,"ĠyGjyDjyCjxDj":10643,"ĠxAxDwBwD":10644,"ĠxAxDwBvFj":10645,"ĠyDwFwD":10646,"ĠyDwFvB":10647,"ĠxEwAjwCj":10648,"ĠxEwAjvG":10649,"ĠxEwAjvCj":10650,"ĠxEwAjwFjvB":10651,"ĠxEwAjwFjwCj":10652,"ĠxEwAjwFjwCjvFj":10653,"ĠxEwAjvFjvCj":10654,"ĠxEwAjwFvG":10655,"ĠwGvAjvE":10656,"ĠwGvAjuB":10657,"ĠwGvAjuG":10658,"ĠyDjwFjwDj":10659,"ĠyDjwFjwC":10660,"ĠxFxCwGvB":10661,"ĠxFxCwGvF":10662,"ĠxDjwAjwGwD":10663,"ĠxDjwAjwGwCjvAjvDj":10664,"ĠyGjxBxDj":10665,"ĠyGjxBxFj":10666,"ĠyGjxBwBwE":10667,"ĠyGjxBxDjwGj":10668,"ĠyGjxBxGjxCj":10669,"ĠyGjxBxAjxDjwGj":10670,"ĠxDwAwFjwCvAvD":10671,"ĠyDjxAwA":10672,"ĠyDjxAwFj":10673,"ĠyDjxAxE":10674,"ĠyDjxAvAj":10675,"ĠyDjxAxFj":10676,"ĠyDjxAxFjwB":10677,"ĠyDjxAxGxDwAwD":10678,"ĠwDjvDjuAj":10679,"ĠwDvDuA":10680,"ĠxDjwAvFj":10681,"ĠxDjwAvC":10682,"ĠxDjwAwFvAj":10683,"ĠxDjwAwFwC":10684,"ĠxDjwAwFwCvF":10685,"ĠxDjwAvFvC":10686,"ĠxFxCwAwFvA":10687,"ĠxFxCwAwFvF":10688,"ĠxFjxCjwAjwFjvAj":10689,"ĠxFjxCjwAjwFjvFj":10690,"ĠyAjxFjwFj":10691,"ĠyAjxFjxCjwFj":10692,"ĠyAjxFjxFjxDj":10693,"ĠyAxFxCwF":10694,"ĠyAxFxFxD":10695,"ĠxGjxCjwAjwCj":10696,"ĠxGjxCjwAjvF":10697,"ĠxGjxCjwAjwFjwCjvFj":10698,"ĠyCxAxFvF":10699,"ĠyGjyEwDj":10700,"ĠyGjyExA":10701,"ĠyGjyExCjwA":10702,"ĠxGjxDjwAjwD":10703,"ĠxGjxDjwAjvGj":10704,"ĠyExAjwG":10705,"ĠyExAjwAj":10706,"ĠyExAjvB":10707,"ĠyExAjxF":10708,"ĠyExAjxGjxDjwAjwDj":10709,"ĠxGxDwAwCj":10710,"ĠxGxDwAvG":10711,"ĠxBxAwG":10712,"ĠxBxAxC":10713,"ĠxBxAxCj":10714,"ĠxBxAxDj":10715,"ĠxBxAxDjwB":10716,"ĠxBxAxDwD":10717,"ĠxBxAwBwFjvB":10718,"ĠxBxAxEvA":10719,"ĠxBxAxFjwBwFjvB":10720,"ĠxBxAxDwAwG":10721,"ĠxBxAxEwBwA":10722,"ĠwFjvAuB":10723,"ĠyDxCwAj":10724,"ĠyDxCvAj":10725,"ĠyDjxCjwB":10726,"ĠyDjxCjvB":10727,"ĠvBvFjvDj":10728,"ĠvBvFjvD":10729,"ĠxFjxCjwGjwC":10730,"ĠxFjxCjwGjvFj":10731,"ĠwAjwGjwD":10732,"ĠwAjwGjvFj":10733,"ĠwAjwGjvD":10734,"ĠwAjwGjwGwC":10735,"ĠwAjwGjwDvAj":10736,"ĠwAjwGjwDvE":10737,"ĠwAjwGjwFvD":10738,"ĠwAjwGjwDvAjvF":10739,"ĠxDwGjvF":10740,"ĠxDwGjuB":10741,"ĠxDwGjwEvA":10742,"ĠvAjvFvD":10743,"ĠvAjvFvCj":10744,"ĠxEwBwFjvAj":10745,"ĠxEwBwFjvE":10746,"ĠxDjwAjwFvA":10747,"ĠxDjwAjwFvDj":10748,"ĠxFwAwFwD":10749,"ĠxFjwAjwFjwDj":10750,"ĠxAwAjwC":10751,"ĠxAjwBwCj":10752,"ĠwFvGjuAj":10753,"ĠyFyDwG":10754,"ĠyFyDwA":10755,"ĠyFyDxE":10756,"ĠyFyDyC":10757,"ĠyFjyDjwGj":10758,"ĠyFjyDjwAj":10759,"ĠyFjyDjxF":10760,"ĠyFjyDjyCj":10761,"ĠvAvEvCj":10762,"ĠvAvEvC":10763,"ĠxDwAwEvGj":10764,"ĠxDwAwEvD":10765,"ĠwEvGuA":10766,"ĠyFxAxFwG":10767,"ĠyFxAxFwA":10768,"ĠyCxAjwGj":10769,"ĠyCxAjxCj":10770,"ĠyCxAjxDjwDj":10771,"ĠyCxAjxCwGwC":10772,"ĠyCxAjxFxC":10773,"ĠyCxAjxFvAj":10774,"ĠyCxAjxGxCwGwC":10775,"ĠyCxAjxDjwAjwGj":10776,"ĠyCjxBwA":10777,"ĠyCjxBxD":10778,"ĠyCjxBxEwE":10779,"ĠyCjxBxFjxCj":10780,"ĠyCjxBxFjvB":10781,"ĠyCjxBxCjwGjwCj":10782,"ĠyCjxBxGjxCjwGjwCj":10783,"ĠyCjxBxEwBwA":10784,"ĠyAxAwA":10785,"ĠyAxAwF":10786,"ĠyAxAwD":10787,"ĠyAxAxCjwFj":10788,"ĠyAxAxFwAj":10789,"ĠyAxAxDjwAj":10790,"ĠyAjxAjwAj":10791,"ĠyAjxAjwFj":10792,"ĠyAjxAjwDj":10793,"ĠyAjxAjxDwG":10794,"ĠyAjxAjxFjwB":10795,"ĠyAjxAjxEwB":10796,"ĠwDjvBvGj":10797,"ĠwDjvBuB":10798,"ĠwDvAjvG":10799,"ĠwDvAjuAj":10800,"ĠxGxDwBwGvB":10801,"ĠxGxDwBwGvG":10802,"ĠxGxDwBwGvAvG":10803,"ĠxAxEwBwFj":10804,"ĠxAxEwBwDj":10805,"ĠxAxEwBvA":10806,"ĠxAjxFxCwG":10807,"ĠxAjxFxCwE":10808,"ĠxAjxFxCvAj":10809,"ĠxCjwGjwDjvCj":10810,"ĠxCwGwDvC":10811,"ĠxFjxDjwAjvGj":10812,"ĠxFjxDjwAjvFj":10813,"ĠyAyExE":10814,"ĠyAyExA":10815,"ĠyAyExFjxCj":10816,"ĠyAyExCjwAwE":10817,"ĠyAyExFwA":10818,"ĠyAyExBxGj":10819,"ĠyByGjxCj":10820,"ĠyByGjxAj":10821,"ĠxGxCwAwC":10822,"ĠxGxCwAvE":10823,"ĠxGxCwAwFwCvF":10824,"ĠyDxGjwGj":10825,"ĠyDxGjwF":10826,"ĠyDxGjxDj":10827,"ĠyDxGjvA":10828,"ĠyDxGjxFwAj":10829,"ĠyDxGjxFjxCj":10830,"ĠxBxFjxCjwGj":10831,"ĠxBxFjxCjwF":10832,"ĠxBxFjxCjvB":10833,"ĠxBxFjxDjwBwDj":10834,"ĠxBxFjxDjwBvB":10835,"ĠxBxFjxDjwBwCjvB":10836,"ĠyDxBxGwB":10837,"ĠyDxBxGvG":10838,"ĠyAjyFxF":10839,"ĠyAjyFxAj":10840,"ĠyAjyFyCjxAj":10841,"ĠyAjyFxDwAjwF":10842,"ĠyAjyFyCjxGj":10843,"ĠyAjyFyCjwAj":10844,"ĠyAjyFxFjwAj":10845,"ĠyAjyFxGxD":10846,"ĠyAjyFyCxA":10847,"ĠxAjxFxDwAjwD":10848,"ĠxAjxFxDwAjvAj":10849,"ĠxAjxFxDwAjwCvAj":10850,"ĠxFxDwAvG":10851,"ĠxFxDwAvF":10852,"ĠwCjvAvFj":10853,"ĠwCjvAuA":10854,"ĠyGxBxCj":10855,"ĠyGxBxD":10856,"ĠyExBxGjwG":10857,"ĠyExBxGjwCj":10858,"ĠyExBxGjxDwD":10859,"ĠyAyFxAj":10860,"ĠyAyFxDwAj":10861,"ĠyAjyFjxB":10862,"ĠyAjyFjxDjwB":10863,"ĠyAjyFjyCjxGj":10864,"ĠyAjyFjyCjwAj":10865,"ĠyAjyFjyCjxAjwAj":10866,"ĠxAxExCjwAwCj":10867,"ĠxAxExCjwAvBvA":10868,"ĠzGwG":10869,"ĠzGxAj":10870,"ĠzGyAj":10871,"ĠyGjyCxD":10872,"ĠxAxEwEwEwCvA":10873,"ĠyByFjxFj":10874,"ĠyByFjxB":10875,"ĠyByFjyCjxAj":10876,"ĠyByFjxDjwBwFj":10877,"ĠyByFjxGwB":10878,"ĠyByFjxGjxDj":10879,"ĠyByFjyDxAvB":10880,"ĠxFjxDjwAjwDjvB":10881,"ĠxFxDwAwDvAj":10882,"ĠyDjyCxGjxC":10883,"ĠyDjyCxGjvGj":10884,"ĠxFxCwAjwD":10885,"ĠxFxCwAjvGj":10886,"ĠxFxCwAjvG":10887,"ĠxFxCwAjvFj":10888,"ĠxFxCwAjwAwD":10889,"ĠxFxCwAjwGwDj":10890,"ĠxFjxCjwBwDj":10891,"ĠxFjxCjwBvA":10892,"ĠxFjxCjwBvGj":10893,"ĠxFjxCjwBvG":10894,"ĠxFjxCjwBwAjwDj":10895,"ĠxFjxCjwBwGjwE":10896,"ĠxExCjwGjwCjvA":10897,"ĠxDjxCwGwCvGj":10898,"ĠxDwBwFjvBvG":10899,"ĠwFjvAjvFjvCj":10900,"ĠwFvAvFvC":10901,"ĠyDxEwB":10902,"ĠyDxEwFj":10903,"ĠyDxEwF":10904,"ĠyDxEwD":10905,"ĠyDxEwCj":10906,"ĠyDxEwC":10907,"ĠyDxEvA":10908,"ĠyDxEvAvE":10909,"ĠwCvGjvF":10910,"ĠwCvGjuGj":10911,"ĠwCvGjvDjuGj":10912,"ĠzGjwGj":10913,"ĠzGjxB":10914,"ĠzGjyB":10915,"ĠxAjxFwFwFwCjvAj":10916,"ĠxBxFjwFjwFjwDvB":10917,"ĠxCjwAjwFvAjvFj":10918,"ĠxEwGjwEwCj":10919,"ĠxEwGjwEvGj":10920,"ĠxEwGjwEvBvE":10921,"ĠvBvGvE":10922,"ĠvBvGvDuG":10923,"ĠxCwAwEvAvF":10924,"ĠyCxFxDwA":10925,"ĠyCxFxDwF":10926,"ĠyCjxFjxDjwAj":10927,"ĠyCjxFjxDjwFj":10928,"ĠyDjxFwG":10929,"ĠyDjxFwFj":10930,"ĠyDjxFwD":10931,"ĠyDjxFwDj":10932,"ĠyDjxFxC":10933,"ĠyDjxFwCj":10934,"ĠyDjxFvAj":10935,"ĠyDjxFvAjvF":10936,"ĠyAyCjxDj":10937,"ĠxEwAwFjvA":10938,"ĠxEwAwFjvCj":10939,"ĠxGjxFxCwGj":10940,"ĠxGjxFxCwCj":10941,"ĠxGjxFxCvGj":10942,"ĠxDjwGwDjwC":10943,"ĠxDjwGwDjvAj":10944,"ĠxDjwGwDjvG":10945,"ĠxDwFjwDvB":10946,"ĠxDwFjwDvA":10947,"ĠxDwFjwDvFj":10948,"ĠxCjwFjwCjvA":10949,"ĠxCjwFjwCjvAjvDj":10950,"ĠxCjwFjwCjuFj":10951,"ĠxCjwFjwCjvAjvFj":10952,"ĠxCjwFjwCjvGjvDj":10953,"ĠxCwFwCvGj":10954,"ĠxCwFwCvAvD":10955,"ĠxCwFwCuF":10956,"ĠxCwFwCvAvF":10957,"ĠxCwFwCvGvD":10958,"ĠyExFjwGj":10959,"ĠyExFjwG":10960,"ĠyExFjwE":10961,"ĠyExFjwD":10962,"ĠyExFjwDj":10963,"ĠyExFjxCj":10964,"ĠyExFjvB":10965,"ĠyExFjvBvFj":10966,"ĠyAyDvAj":10967,"ĠyAyDwAwD":10968,"ĠyAyDxFvAj":10969,"ĠyAjyDjvB":10970,"ĠyAjyDjwAjwDj":10971,"ĠyAjyDjxFjvB":10972,"ĠyByEwE":10973,"ĠyByEwBwE":10974,"ĠyByExGwC":10975,"ĠxDjwGjwFvGj":10976,"ĠxDjwGjwFvC":10977,"ĠxDwGwEvG":10978,"ĠxDwGwEuB":10979,"ĠwAwEwCjvAvEuA":10980,"ĠxGxEwBwC":10981,"ĠxGxEwBvG":10982,"ĠxCjwGvE":10983,"ĠxCjwGvDj":10984,"ĠxCjwGuAj":10985,"ĠxCjwGwDjvGj":10986,"ĠxCjwFwCjvAj":10987,"ĠxCjwFwCjvF":10988,"ĠxCwEwCvA":10989,"ĠxCwEwCvG":10990,"ĠxCwEwCvE":10991,"ĠxFxCwDwD":10992,"ĠxFjxCjwDjwDj":10993,"ĠyBxBwB":10994,"ĠyBxBwE":10995,"ĠyBxBxD":10996,"ĠyBxBxDjwGj":10997,"ĠyBxBxGxC":10998,"ĠwGjwDjwCvGjvDj":10999,"ĠwGwDvBvGvD":11000,"ĠyEyCjxAxCj":11001,"ĠyEyCjxAvA":11002,"ĠxCjvEvCj":11003,"ĠxCvDjvC":11004,"ĠwGjwFjvGj":11005,"ĠwGjwFjvFj":11006,"ĠwGjwFjwFvAj":11007,"ĠwGjwFjwCvGj":11008,"ĠwGjwFjwCvGjvDj":11009,"ĠwGjwFjwCvD":11010,"ĠwGwFvG":11011,"ĠwGwFvF":11012,"ĠwGwFwEvA":11013,"ĠwGwFvBvG":11014,"ĠwGwFvBvGvD":11015,"ĠwGwFvBvCj":11016,"ĠyFjyDwCj":11017,"ĠyFjyDxG":11018,"ĠyFjyDwBwG":11019,"ĠyFjyDxGjwAj":11020,"ĠyGyDjwD":11021,"ĠyGyDjxGj":11022,"ĠyGyDjxCwGj":11023,"ĠyGyDjxAwB":11024,"ĠxExCjwCjvE":11025,"ĠxDjxCwCvDj":11026,"ĠxDwBvBvD":11027,"ĠxAxDwAjwC":11028,"ĠxAxDwAjvA":11029,"ĠxAxDwAjwFvAj":11030,"ĠxAjxDjwBwCj":11031,"ĠxAjxDjwBvAj":11032,"ĠxAjxDjwBwFjvB":11033,"ĠyExBxGwA":11034,"ĠyFjyCjxAwB":11035,"ĠyFjyCjxAxDj":11036,"ĠxCwFjvDj":11037,"ĠxCwFjvD":11038,"ĠxCwFjuA":11039,"ĠxCwFjwDvG":11040,"ĠyGyDxAjxC":11041,"ĠyGyDxAjxE":11042,"ĠyGyDxAjxFxCwG":11043,"ĠyGjyDjxBxCj":11044,"ĠyGjyDjxBxF":11045,"ĠyGjyDjxBxFjxCjwGj":11046,"ĠxFjxDjwDjvFj":11047,"ĠxFxDwDvF":11048,"ĠxExCjwGjvFj":11049,"ĠxExCjwGjvE":11050,"ĠxDjxCwGvF":11051,"ĠxDjxCwGvDj":11052,"ĠxDwBwFjvE":11053,"ĠxDwBwFjvD":11054,"ĠxCjwAjvAjvCj":11055,"ĠxCwAvAvC":11056,"ĠyFyCxAxDjwDj":11057,"ĠyFjyCjxAjxEwE":11058,"ĠyFjyCjxAjxFjxCj":11059,"ĠxGjxFwFvGj":11060,"ĠxGjxFxCwFwCj":11061,"ĠxGxEwEvG":11062,"ĠxGxEwBwEwC":11063,"ĠxAxFjwFjvA":11064,"ĠxAxFjxCjwFjwD":11065,"ĠxAjxGwGvAj":11066,"ĠwBvDuB":11067,"ĠxAxFjxCjwA":11068,"ĠxAxFjxCjwD":11069,"ĠxAxFjxCjvA":11070,"ĠxAjxGxDwDj":11071,"ĠxAjxGxDvAj":11072,"ĠxAjxGxDwGwDj":11073,"ĠxBxGjxDjwE":11074,"ĠxBxGjxDjvB":11075,"ĠxBxGjxDjwGjwE":11076,"ĠxGjxDjxCwGjwC":11077,"ĠxGjxDjxCwGjvAjvGj":11078,"ĠxEwBwCjwCj":11079,"ĠxDwAvBvB":11080,"ĠxDjwAjwCwC":11081,"ĠxFwAjwGvAj":11082,"ĠxFwAjwGvD":11083,"ĠxFjwBwGjvB":11084,"ĠxFjwBwGjvDj":11085,"ĠyFyCxGjwAj":11086,"ĠyFyCxGjxD":11087,"ĠwBwFvD":11088,"ĠwBwFvCj":11089,"ĠxCwGwDjwDvFvC":11090,"ĠwBwFjwDwCjvE":11091,"ĠxFwAjwFjvGj":11092,"ĠxFwAjwFjvF":11093,"ĠxEwAwFvG":11094,"ĠxEwAwFvE":11095,"ĠxCjwAjwFvDj":11096,"ĠxCjwAjwFvCj":11097,"ĠxCwAwEvD":11098,"ĠxCwAwEvC":11099,"ĠxBxGjwGjvB":11100,"ĠwFjwEvFj":11101,"ĠwFjwEvE":11102,"ĠwFjwEwDjvGj":11103,"ĠwFjwEvBvFj":11104,"ĠwFjwEvAjvFjvCj":11105,"ĠwFwDjvF":11106,"ĠwFwDjvDj":11107,"ĠwFwDjwDvG":11108,"ĠwFwDjvAjvF":11109,"ĠwFwDjvAvFvC":11110,"ĠwEwDvE":11111,"ĠwEwDvD":11112,"ĠwEwDvAvE":11113,"ĠwEwDwCjvFj":11114,"ĠwEwDvGjvEuB":11115,"xBxEwGj":11116,"ĠxCjwGjwEwDjvFjvCj":11117,"ĠwAjwFwCjwCvDj":11118,"ĠwAwEwCvBvD":11119,"yCxFwA":11120,"yCjxFjwAj":11121,"xCwGjwF":11122,"xCjwAwFj":11123,"ĠzCyFxD":11124,"ĠzCyFyCj":11125,"ĠzCyFxCwF":11126,"ĠzCyFxGjwCj":11127,"ĠzCyFyDwF":11128,"ĠzCjyFjxDj":11129,"ĠzCjyFjyD":11130,"ĠzCjyFjxCjwFj":11131,"ĠzCjyFjxAwD":11132,"ĠzCjyFjyDjwFj":11133,"ĠxBxCwD":11134,"ĠyBxGxD":11135,"ĠyBxGxDwG":11136,"ĠzCxGjxDj":11137,"ĠzCxGjxDjwGj":11138,"ĠzCjxAxE":11139,"ĠzCjxAxEwA":11140,"ĠzDxAjxF":11141,"ĠzDxAjxFwAj":11142,"ĠzDjxBxFj":11143,"ĠzDjxBxFjwB":11144,"ĠyCxCjwDj":11145,"ĠyFyDxAjxD":11146,"ĠyFyDxAjvAj":11147,"ĠyCjxDwE":11148,"ĠyDxDjwF":11149,"ĠyFjyDjxBxDj":11150,"ĠyFjyDjxBvB":11151,"ĠxBxGxDwGwD":11152,"ĠyCxGjxDjwGjwDj":11153,"ĠwDjvFjuGj":11154,"ĠwDvFuG":11155,"ĠxDjwGjwCjvAj":11156,"ĠxDwGwCvA":11157,"ĠyDxGxDwB":11158,"ĠyDxGxDwF":11159,"ĠyDxGxDxC":11160,"ĠyDxGxDvAj":11161,"ĠyDxGxDvG":11162,"ĠyDxGxDwBwG":11163,"ĠyDxGxDxCwE":11164,"ĠyDjxGjxDjwFj":11165,"ĠyDjxGjxDjxC":11166,"ĠyDjxGjxDjxCj":11167,"ĠyDjxGjxDjvB":11168,"ĠyDjxGjxDjvGj":11169,"ĠyDjxGjxDjxCwGj":11170,"ĠyDjxGjxDjxCjwF":11171,"ĠyDjxEwFj":11172,"ĠxEwBwAwCj":11173,"ĠxEwBwAvG":11174,"ĠxEwBwAvFj":11175,"ĠxEwBwAvF":11176,"ĠxEwBwAwGjwCj":11177,"ĠxEwBwAwFjwD":11178,"ĠxBxExCwGwC":11179,"ĠyCxFxCjwGjwCj":11180,"ĠyFjxBxGjvB":11181,"ĠyFxAjxGvAj":11182,"ĠyDxAjxFwAjwF":11183,"ĠyDjxBxFjwBwFj":11184,"ĠxGjxDjxCjwGj":11185,"ĠxGjxDjxCjvB":11186,"ĠxGjxDjxCjvAj":11187,"ĠxGjxDjxCjvA":11188,"ĠxGjxDjxCjwAjwFj":11189,"ĠxGjxDjxCjwGjwDj":11190,"ĠxGxDxCwG":11191,"ĠxGxDxCvAj":11192,"ĠxGxDxCvA":11193,"ĠxGxDxCvGj":11194,"ĠxGxDxCwAwF":11195,"ĠxGxDxCwGwD":11196,"ĠxFwAjwDjwC":11197,"ĠxEwAwDvB":11198,"ĠxFjwBwEwCj":11199,"ĠyDjxGjxEwFj":11200,"ĠyDjxGjxEwBwE":11201,"ĠxFjxDwAvBvD":11202,"ĠxGxDjwAjwCvDj":11203,"ĠxGjxEwBwCjvE":11204,"ĠwCjvCjuGj":11205,"ĠwCvCuG":11206,"ĠyDxGxDjwF":11207,"ĠxFxCjwGjvAjvCj":11208,"ĠxExCwGvAvC":11209,"ĠvBvEuB":11210,"ĠxCjwAwFjwE":11211,"ĠxCjwAwFjvDj":11212,"ĠxCjwAwFjvCj":11213,"ĠxCwGjwFwDj":11214,"ĠxCwGjwFvD":11215,"ĠxCwGjwFvC":11216,"ĠwBwGwEwD":11217,"ĠwBwGwEvCj":11218,"ĠwBwGwEuB":11219,"ĠyDxGxEvG":11220,"ĠyDjxGjxFvGj":11221,"ĠyExAxEwG":11222,"ĠyExAxExCj":11223,"ĠyExAxExD":11224,"ĠyExAxEvA":11225,"ĠyExAxExCjwA":11226,"ĠyFjxBxFjwA":11227,"ĠyFjxBxFjxDj":11228,"ĠyFjxBxFjvB":11229,"ĠyFjxBxFjxE":11230,"ĠyFjxBxFjxDjwB":11231,"ĠyFxAjxFwGj":11232,"ĠyFxAjxFxD":11233,"ĠyFxAjxFxDj":11234,"ĠyFxAjxFvAj":11235,"ĠyFxAjxFxDwAj":11236,"ĠyGyEyCxE":11237,"ĠyGjyFyCjxF":11238,"ĠxBxFjxEwB":11239,"ĠxBxFjxEwD":11240,"ĠxBxFjxEwCj":11241,"ĠxBxFjxEwC":11242,"ĠxBxFjxExCjwA":11243,"ĠxBxFjxEwBwFj":11244,"ĠxGjxCjwAvB":11245,"ĠxGjxCjwAvGj":11246,"ĠxGjxCjwAwEvA":11247,"ĠxCjwFjwDjvDj":11248,"ĠxCjwFjwDjuAj":11249,"ĠxCwFwDvD":11250,"ĠxCwFwDuA":11251,"ĠxFjxDjwBwFjvBvFj":11252,"ĠyExDxC":11253,"ĠyExDwC":11254,"ĠyFxDjxCj":11255,"ĠyFxDjwCj":11256,"ĠxGxCwGjvAj":11257,"ĠxGxCwGjvG":11258,"ĠxFjwBwGvA":11259,"ĠxFjwBwGvFj":11260,"ĠyCjxGjxEwBwCj":11261,"ĠyCjxGjxEwBwFjwCj":11262,"ĠyCjxGjxEwBwCjvGj":11263,"ĠyCxGxDjwAjwC":11264,"ĠyCxGxDjwAjwFwC":11265,"ĠyCxGxDjwAjwCvG":11266,"ĠyExAxFjvA":11267,"ĠyAjyDxE":11268,"ĠyByDjxF":11269,"ĠyCxGxExCwE":11270,"ĠyCxGxExCwA":11271,"ĠyCxGxExCwC":11272,"ĠyCxGxExCwDwC":11273,"ĠyCjxGjxFxCjwAj":11274,"ĠyCjxGjxFxCjwF":11275,"ĠyCjxGjxFxCjwCj":11276,"ĠyCjxGjxFxCjwDjwCj":11277,"ĠxFjxDwAwFjwDvA":11278,"ĠxGxDjwAjwGwDjvAj":11279,"ĠxGjxEwBwGjwEvB":11280,"ĠxFxCjwGjwFwCjvGj":11281,"ĠxExCwGwEwCvG":11282,"ĠwDjwCjvDj":11283,"ĠwDjwCjuGj":11284,"ĠwDjwCjwCvF":11285,"ĠwDwCvD":11286,"ĠwDwCvBvE":11287,"ĠwDwCuG":11288,"ĠyFjxEwD":11289,"ĠyFjxExD":11290,"ĠxFxCwAwDvF":11291,"ĠxFjxCjwAjwDjvFj":11292,"ĠxGxCwFwD":11293,"ĠxGjxCjwFjwDj":11294,"ĠxDjwBwGjwFj":11295,"ĠxDjwBwGjvF":11296,"ĠxDjwBwGjvDj":11297,"ĠxDwAjwGwF":11298,"ĠxDwAjwGvE":11299,"ĠxDwAjwGvD":11300,"ĠxAxDwGwE":11301,"ĠxAjxDjwGjwF":11302,"ĠwBwEvBvCj":11303,"ĠwBwEvBvGjvE":11304,"ĠxAxExCwGvA":11305,"ĠxAxExCwGvAvE":11306,"ĠxAxExCwGwDvA":11307,"ĠxAxFxCwDvF":11308,"ĠxAjxFjxCjwDjvFj":11309,"ĠxAjwAwFwCvAj":11310,"ĠxBwAjwFjwCjvB":11311,"ĠwAjvCjuAj":11312,"ĠwAvCuA":11313,"ĠwDjvGvDj":11314,"ĠwDvFjvD":11315,"ĠxEwBwGjwCjvE":11316,"ĠxDwAwFjvBvD":11317,"ĠxDjwAjwGwCvDj":11318,"ĠxCjwGjwFvAjvCj":11319,"ĠxCwGwEvAvC":11320,"ĠzCyGxG":11321,"ĠzCyGyDxG":11322,"ĠzCyGxGjxC":11323,"ĠzCyGxAxE":11324,"ĠzCyGyDjxAjwC":11325,"ĠzCjyGjxGj":11326,"ĠzCjyGjyDjxGj":11327,"ĠzCjyGjyFxAj":11328,"ĠzCjyGjxAxCj":11329,"ĠzCjyGjxAjxF":11330,"ĠxAjxFxCjwGjvAj":11331,"ĠxAjxFxCjwGjvAjvF":11332,"ĠxBxFjxDwAvB":11333,"ĠxBxFjxDwAvBvFj":11334,"ĠxAwBwGwE":11335,"ĠxAwBwGvAvE":11336,"ĠxAwBwGwEvBvE":11337,"ĠyFxGwGj":11338,"ĠyFxGwA":11339,"ĠyFxGwF":11340,"ĠyFxGwDj":11341,"ĠyFjxGjwE":11342,"ĠyFjxGjwA":11343,"ĠyFjxGjwAj":11344,"ĠyFjxGjwFj":11345,"ĠvAjvFjvDj":11346,"ĠvAvFvD":11347,"ĠwBwFjwCjvDj":11348,"ĠwBwFjwCjvCj":11349,"ĠxFwBwGwD":11350,"ĠxFwBwGvB":11351,"ĠxFwBwGwDvG":11352,"ĠyDxDwAjwF":11353,"ĠyDxDwAjwC":11354,"ĠyDxDwAjwFwDj":11355,"ĠyDjxDjwBwFj":11356,"ĠyDjxDjwBwCj":11357,"ĠyDjxDjwBwFjwE":11358,"ĠyDxAxFjxDwB":11359,"ĠyDxAxFjxDwFj":11360,"ĠyDxAxFjxDwD":11361,"ĠyDxAxFjxDwEwD":11362,"ĠwAjwDjvAjvC":11363,"ĠwAwDvAuB":11364,"ĠyDjyCxGwA":11365,"ĠyDjyCxGwDj":11366,"ĠyEyCjxGjwE":11367,"ĠyEyCjxGjwAj":11368,"ĠyCxDwAjwG":11369,"ĠyCxDwAjwCvG":11370,"ĠyCxDwAjwGwDvG":11371,"ĠyCjxDjwBwGj":11372,"ĠyCjxDjwBwGjwDjvGj":11373,"ĠyCjxDjwBwCjvGj":11374,"ĠwDjwCvGjvDjuGj":11375,"ĠwCjvFvCj":11376,"ĠwCvEvC":11377,"ĠyEwGwCj":11378,"ĠyAyCwG":11379,"ĠyAyCwA":11380,"ĠyAyCxG":11381,"ĠyAyCxAxD":11382,"ĠxAxExDwA":11383,"ĠxAxExDwC":11384,"ĠxAxExDvB":11385,"ĠxAxExDvAj":11386,"ĠxAxExDwBwG":11387,"ĠxAxExDwAwE":11388,"ĠxAjxFxDjwAj":11389,"ĠxAjxFxDjwCj":11390,"ĠxAjxFxDjwC":11391,"ĠxAjxFxDjvB":11392,"ĠxAjxFxDjxCwGj":11393,"ĠxAjxFxDjwAjwF":11394,"ĠwAjwFwCvD":11395,"ĠwAjwFwCvC":11396,"ĠwAwEvBvCj":11397,"ĠwAwEvBuB":11398,"ĠyCxGwGwGwDjwC":11399,"ĠyCjxGjwGjwGjwEwCj":11400,"ĠyDxAxDwA":11401,"ĠyDjxAjxDjwAj":11402,"ĠyDjxAjxGxDjwG":11403,"ĠyDjxAjxGxDjwDj":11404,"ĠyDjxAjxGxDjxC":11405,"ĠyDjxAjxGxDjwFwDj":11406,"ĠzCyCxC":11407,"ĠzCyCxA":11408,"ĠzCyCxEwA":11409,"ĠzCyCxGjxCj":11410,"ĠzDyGyDj":11411,"ĠzDyGyDxG":11412,"ĠzDyGxAjwDj":11413,"ĠzDjyGjyE":11414,"ĠzDjyGjyDjxGj":11415,"ĠzDjyGjxBwE":11416,"ĠxGjxFxCjwGjwCjvGj":11417,"ĠxGxExCwGwCvG":11418,"ĠxAxFjxDwAwDvA":11419,"ĠxAjxGxDjwAjwDjvAj":11420,"ĠyEyCxGwG":11421,"ĠyEyCxGwE":11422,"ĠyEyCxGxEwE":11423,"ĠyEyCxGxDwAwE":11424,"ĠyFyCjxGjwGj":11425,"ĠyFyCjxGjwF":11426,"ĠyFyCjxGjxFwF":11427,"ĠyFyCjxGjxDjwAjwF":11428,"ĠxAxDjwBwFj":11429,"ĠxAxDjwBwDj":11430,"ĠxAxDjwBwFjvB":11431,"ĠyExExCwG":11432,"ĠyExExCwD":11433,"ĠyExExCvA":11434,"ĠyFxFxCjwGj":11435,"ĠyFxFxCjwDj":11436,"ĠyFxFxCjvAj":11437,"ĠyFjxFjxDwE":11438,"ĠyFjxFjxDwA":11439,"ĠyFjxFjxDvB":11440,"ĠyGjxGjxEwA":11441,"ĠyGjxGjxEwFj":11442,"ĠyGjxGjxEwCj":11443,"ĠyCxAxEwFj":11444,"ĠyCxAxEwC":11445,"ĠyCjxAjxFwG":11446,"ĠyCjxAjxFwCj":11447,"ĠwGjwEvBvGjvE":11448,"ĠxGjxDwAjwF":11449,"ĠxGjxDwAjwD":11450,"ĠxGjxDwAjwFvAj":11451,"ĠxAjxExCwG":11452,"ĠxAjxExCwE":11453,"ĠxBxFxCjwGj":11454,"ĠxBxFxCjwF":11455,"ĠwDvBvGuG":11456,"ĠwDvBvGvDuG":11457,"ĠzAxF":11458,"ĠzAyF":11459,"ĠzAjxFj":11460,"ĠzAjyFj":11461,"ĠyGxGxDjwF":11462,"ĠyGxGxDjwC":11463,"ĠxCjwGjwFjvAj":11464,"ĠxCjwGjwFjwFvAj":11465,"ĠxCwGwFvA":11466,"ĠxCwGwFwEvA":11467,"ĠyByGyC":11468,"ĠyByGyE":11469,"ĠyByGyDxG":11470,"ĠwBwFjwEvGj":11471,"ĠwBwFjwEwDjvGj":11472,"ĠwAjwFwDjvG":11473,"ĠwAjwFwDjwDvG":11474,"ĠwAwEwDvFj":11475,"ĠwAwEwDwCjvFj":11476,"ĠwGjwDjwCuGj":11477,"ĠwGwDvBuG":11478,"ĠyCxFwAjwG":11479,"ĠyCjxFjwBwGj":11480,"ĠxFjwAwFjwC":11481,"ĠxFjwAwFjvD":11482,"ĠxFjwAwFjwFjwCj":11483,"ĠxFjwAwFjvAjvFj":11484,"ĠxFwGjwFvB":11485,"ĠxFwGjwFvCj":11486,"ĠxFwGjwFwFwC":11487,"ĠxFwGjwFvAvF":11488,"ĠxEwGwEvAj":11489,"ĠxEwGwEvC":11490,"ĠxEwGwEwEvB":11491,"ĠxEwGwEvGjvE":11492,"ĠxGwAjwGwCj":11493,"ĠxGwAjwGvDj":11494,"ĠxGwAjwGvBvG":11495,"ĠxGwAjwGwGwD":11496,"ĠxAxFxCwAwFwC":11497,"ĠxAjxFjxCjwAjwFjwCj":11498,"ĠyDxAjxFxDwAjwF":11499,"ĠyDjxBxFjxDjwBwFj":11500,"ĠxBxGxDwBwGwD":11501,"ĠxBxGjxEwBwEvB":11502,"ĠwAwDjwC":11503,"ĠwAwDjvF":11504,"ĠwAwDjvC":11505,"ĠwAwDjuB":11506,"ĠwAwDjvBvE":11507,"ĠwGjwDvB":11508,"ĠwGjwDvE":11509,"ĠwGjwDuB":11510,"ĠwGjwDuAj":11511,"ĠwGjwDvAjvDj":11512,"ĠyGjxAjwB":11513,"ĠyGjxAjxDj":11514,"ĠxDwAwGvB":11515,"ĠxDwAwGvF":11516,"ĠxDwAwGvE":11517,"ĠxDwAwGvDj":11518,"ĠxDwAwGwFjvB":11519,"ĠxDwAwGwEwC":11520,"ĠzCyGjyCj":11521,"ĠzCyGjyF":11522,"ĠzCyGjyDjxGj":11523,"ĠxGjwBwGjvE":11524,"ĠxGjwBwGjwCvGj":11525,"ĠxGjwBwGjwGjwDj":11526,"ĠxFxCwGjwDjvF":11527,"ĠxFjxCjwAwEvFj":11528,"ĠxEwBwGwDvE":11529,"ĠyDxBxFjwGj":11530,"ĠyDxBxFjwD":11531,"ĠxFjxEwBwEvG":11532,"ĠxExDwAwDvF":11533,"ĠxFxDjwAjwDjvFj":11534,"ĠwBwAwEuB":11535,"ĠwAjwEwCj":11536,"ĠwAjwEvFj":11537,"ĠwAjwEvCj":11538,"ĠwAjwEvC":11539,"ĠyCxFjxDwA":11540,"ĠyCxFjxDwFj":11541,"ĠyCjxGxDjwG":11542,"ĠyCjxGxDjwAj":11543,"ĠyCxGxFwD":11544,"ĠyCxGxFwDj":11545,"ĠyCxGxFwCj":11546,"ĠyCxGxFxDwAj":11547,"ĠyCxGxFxCwG":11548,"ĠzCjyAyD":11549,"ĠzCjyAyFj":11550,"ĠyCjxAxEwFjvA":11551,"ĠyDxAjxFwGvAj":11552,"ĠyDjxBxFjwGjvB":11553,"ĠyCxGjxDjwFvGj":11554,"ĠxGjxFjxCjwFjvA":11555,"ĠxGxFxCwFvGj":11556,"ĠyGjyCjxAjwAj":11557,"ĠyGjyCjxAjwCj":11558,"ĠyGjyCjxAjxFj":11559,"ĠxCjxCjwF":11560,"ĠxCjxCjwGjwCj":11561,"ĠxCjxCjwFjwCjvFj":11562,"ĠxAxCwFwF":11563,"ĠxAxCwFwD":11564,"ĠxAjxCjwFjwFj":11565,"ĠxAjxCjwFjwDj":11566,"ĠxBxDwGwE":11567,"ĠwAwFjwCjvD":11568,"ĠwAwFjwCjuB":11569,"ĠyCxDjwGjwF":11570,"ĠvGjvDjvC":11571,
[...]
